/*
 * SPDX-FileCopyrightText: Copyright (c) 2026 Mahad Faisal
 * SPDX-License-Identifier: Apache-2.0
 */

#include "model.hpp"

#include <cstdint>

alignas(16) const unsigned char g_model[] = {
	0x1c, 0x00, 0x00, 0x00, 0x54, 0x46, 0x4c, 0x33, 0x14, 0x00, 0x20, 0x00,
	0x1c, 0x00, 0x18, 0x00, 0x14, 0x00, 0x10, 0x00, 0x0c, 0x00, 0x00, 0x00,
	0x08, 0x00, 0x04, 0x00, 0x14, 0x00, 0x00, 0x00, 0x1c, 0x00, 0x00, 0x00,
	0x98, 0x00, 0x00, 0x00, 0xf0, 0x00, 0x00, 0x00, 0x1c, 0x05, 0x00, 0x00,
	0x2c, 0x05, 0x00, 0x00, 0x68, 0x0b, 0x00, 0x00, 0x03, 0x00, 0x00, 0x00,
	0x01, 0x00, 0x00, 0x00, 0x10, 0x00, 0x00, 0x00, 0x00, 0x00, 0x0a, 0x00,
	0x10, 0x00, 0x0c, 0x00, 0x08, 0x00, 0x04, 0x00, 0x0a, 0x00, 0x00, 0x00,
	0x0c, 0x00, 0x00, 0x00, 0x1c, 0x00, 0x00, 0x00, 0x3c, 0x00, 0x00, 0x00,
	0x0f, 0x00, 0x00, 0x00, 0x73, 0x65, 0x72, 0x76, 0x69, 0x6e, 0x67, 0x5f,
	0x64, 0x65, 0x66, 0x61, 0x75, 0x6c, 0x74, 0x00, 0x01, 0x00, 0x00, 0x00,
	0x04, 0x00, 0x00, 0x00, 0x90, 0xff, 0xff, 0xff, 0x06, 0x00, 0x00, 0x00,
	0x04, 0x00, 0x00, 0x00, 0x08, 0x00, 0x00, 0x00, 0x6f, 0x75, 0x74, 0x70,
	0x75, 0x74, 0x5f, 0x30, 0x00, 0x00, 0x00, 0x00, 0x01, 0x00, 0x00, 0x00,
	0x04, 0x00, 0x00, 0x00, 0x82, 0xfb, 0xff, 0xff, 0x04, 0x00, 0x00, 0x00,
	0x0c, 0x00, 0x00, 0x00, 0x6b, 0x65, 0x72, 0x61, 0x73, 0x5f, 0x74, 0x65,
	0x6e, 0x73, 0x6f, 0x72, 0x00, 0x00, 0x00, 0x00, 0x02, 0x00, 0x00, 0x00,
	0x34, 0x00, 0x00, 0x00, 0x04, 0x00, 0x00, 0x00, 0xdc, 0xff, 0xff, 0xff,
	0x09, 0x00, 0x00, 0x00, 0x04, 0x00, 0x00, 0x00, 0x13, 0x00, 0x00, 0x00,
	0x43, 0x4f, 0x4e, 0x56, 0x45, 0x52, 0x53, 0x49, 0x4f, 0x4e, 0x5f, 0x4d,
	0x45, 0x54, 0x41, 0x44, 0x41, 0x54, 0x41, 0x00, 0x08, 0x00, 0x0c, 0x00,
	0x08, 0x00, 0x04, 0x00, 0x08, 0x00, 0x00, 0x00, 0x08, 0x00, 0x00, 0x00,
	0x04, 0x00, 0x00, 0x00, 0x13, 0x00, 0x00, 0x00, 0x6d, 0x69, 0x6e, 0x5f,
	0x72, 0x75, 0x6e, 0x74, 0x69, 0x6d, 0x65, 0x5f, 0x76, 0x65, 0x72, 0x73,
	0x69, 0x6f, 0x6e, 0x00, 0x0a, 0x00, 0x00, 0x00, 0x28, 0x04, 0x00, 0x00,
	0x1c, 0x04, 0x00, 0x00, 0x00, 0x04, 0x00, 0x00, 0xe8, 0x00, 0x00, 0x00,
	0xc8, 0x00, 0x00, 0x00, 0xa4, 0x00, 0x00, 0x00, 0x9c, 0x00, 0x00, 0x00,
	0x94, 0x00, 0x00, 0x00, 0x74, 0x00, 0x00, 0x00, 0x04, 0x00, 0x00, 0x00,
	0x26, 0xfc, 0xff, 0xff, 0x04, 0x00, 0x00, 0x00, 0x60, 0x00, 0x00, 0x00,
	0x0c, 0x00, 0x00, 0x00, 0x08, 0x00, 0x0e, 0x00, 0x08, 0x00, 0x04, 0x00,
	0x08, 0x00, 0x00, 0x00, 0x10, 0x00, 0x00, 0x00, 0x28, 0x00, 0x00, 0x00,
	0x00, 0x00, 0x06, 0x00, 0x08, 0x00, 0x04, 0x00, 0x06, 0x00, 0x00, 0x00,
	0x04, 0x00, 0x00, 0x00, 0x01, 0x00, 0x00, 0x00, 0xeb, 0x03, 0x00, 0x00,
	0x0c, 0x00, 0x18, 0x00, 0x14, 0x00, 0x10, 0x00, 0x0c, 0x00, 0x04, 0x00,
	0x0c, 0x00, 0x00, 0x00, 0x43, 0xde, 0xf0, 0xc5, 0xa1, 0x7b, 0x71, 0xf3,
	0x02, 0x00, 0x00, 0x00, 0x02, 0x00, 0x00, 0x00, 0x04, 0x00, 0x00, 0x00,
	0x06, 0x00, 0x00, 0x00, 0x32, 0x2e, 0x32, 0x31, 0x2e, 0x30, 0x00, 0x00,
	0x92, 0xfc, 0xff, 0xff, 0x04, 0x00, 0x00, 0x00, 0x10, 0x00, 0x00, 0x00,
	0x31, 0x2e, 0x31, 0x34, 0x2e, 0x30, 0x00, 0x00, 0x00, 0x00, 0x00, 0x00,
	0x00, 0x00, 0x00, 0x00, 0x8c, 0xfc, 0xff, 0xff, 0x90, 0xfc, 0xff, 0xff,
	0xb6, 0xfc, 0xff, 0xff, 0x04, 0x00, 0x00, 0x00, 0x14, 0x00, 0x00, 0x00,
	0x7f, 0x35, 0x37, 0x6b, 0x59, 0x81, 0x73, 0x6b, 0x27, 0x82, 0x6c, 0xdd,
	0x7f, 0x64, 0xa7, 0x9d, 0x87, 0xfe, 0x7f, 0x6a, 0xd6, 0xfc, 0xff, 0xff,
	0x04, 0x00, 0x00, 0x00, 0x10, 0x00, 0x00, 0x00, 0xf8, 0x05, 0x00, 0x00,
	0xe3, 0x02, 0x00, 0x00, 0x7f, 0x19, 0x00, 0x00, 0x04, 0x0b, 0x00, 0x00,
	0xf2, 0xfc, 0xff, 0xff, 0x04, 0x00, 0x00, 0x00, 0x00, 0x03, 0x00, 0x00,
	0x2a, 0x10, 0x10, 0x11, 0x0a, 0x19, 0x0a, 0xf7, 0x3a, 0xe3, 0x08, 0xd8,
	0x31, 0xfa, 0x15, 0xce, 0x1f, 0xd7, 0x01, 0xda, 0x1f, 0xe1, 0xfa, 0xe7,
	0x2f, 0xf4, 0x06, 0xce, 0x27, 0xf2, 0xfe, 0xe0, 0x24, 0xef, 0x15, 0xe4,
	0x30, 0xe5, 0x09, 0xe4, 0x17, 0xdc, 0x06, 0xda, 0x17, 0xdf, 0x07, 0xcb,
	0x38, 0xe6, 0x08, 0xe5, 0x28, 0xe1, 0x12, 0xe9, 0xec, 0x19, 0x7d, 0x9b,
	0xc0, 0xc0, 0x81, 0xa8, 0x03, 0xae, 0xb2, 0xcc, 0x31, 0x93, 0x4d, 0xbf,
	0xbb, 0xfe, 0x9c, 0xc1, 0x48, 0xfa, 0xf9, 0xd3, 0x40, 0xf6, 0x21, 0xd8,
	0x2c, 0xef, 0x16, 0xd3, 0x35, 0xee, 0x24, 0xdf, 0x2a, 0xec, 0x1e, 0xd0,
	0x24, 0xf4, 0x07, 0xe2, 0x38, 0xda, 0x00, 0xd5, 0x2e, 0xe1, 0x10, 0xda,
	0x2a, 0xf0, 0x0a, 0xd5, 0x45, 0xf0, 0x21, 0xd9, 0x43, 0xfa, 0x0f, 0xd8,
	0x2e, 0xf2, 0x15, 0xeb, 0x45, 0xf5, 0x15, 0xdb, 0x34, 0xfc, 0x04, 0xdc,
	0x34, 0xe4, 0x17, 0xec, 0x21, 0xe3, 0x0c, 0xcc, 0x27, 0xeb, 0x0c, 0xda,
	0x1c, 0xf3, 0x0e, 0xe9, 0x19, 0xeb, 0x05, 0xe0, 0x28, 0xe0, 0x02, 0xdd,
	0x28, 0xe3, 0xfc, 0xe2, 0x2c, 0xe5, 0x10, 0xdd, 0x30, 0xe6, 0x0d, 0xcc,
	0x18, 0xdd, 0xfb, 0xeb, 0x20, 0xea, 0x06, 0xda, 0x27, 0xdc, 0x09, 0xe1,
	0x63, 0x9c, 0xb5, 0xe6, 0x5e, 0x0d, 0x75, 0xca, 0x5c, 0x09, 0x7c, 0xe3,
	0x3a, 0x0f, 0xc4, 0x9a, 0x45, 0x92, 0x5f, 0xb2, 0x32, 0xf1, 0x1e, 0xe1,
	0x37, 0xe6, 0x1c, 0xd7, 0x34, 0xee, 0x1c, 0xd3, 0x32, 0xee, 0x0c, 0xd4,
	0x29, 0xeb, 0x0e, 0xcb, 0x2c, 0xe6, 0x0c, 0xdd, 0x2b, 0xe8, 0x14, 0xe0,
	0x2b, 0xf1, 0x04, 0xd6, 0x38, 0xf6, 0x0d, 0xd5, 0x40, 0xe0, 0x01, 0xd4,
	0x42, 0xe4, 0x13, 0xe2, 0x2f, 0xeb, 0x17, 0xd5, 0x42, 0x08, 0x42, 0xde,
	0x1b, 0x00, 0x29, 0x1a, 0xf1, 0x2f, 0x16, 0xdd, 0xdc, 0x0b, 0x1a, 0x1c,
	0x86, 0x2c, 0x10, 0x3f, 0x99, 0x34, 0x0a, 0x55, 0x89, 0x2e, 0x17, 0x43,
	0xa3, 0x21, 0x09, 0x53, 0xaa, 0x1c, 0xd8, 0x46, 0x9d, 0x36, 0xdb, 0x3c,
	0x9f, 0x13, 0xf4, 0x63, 0xc6, 0x1e, 0x01, 0x4c, 0xc1, 0x1a, 0xf2, 0x4f,
	0xbd, 0x39, 0x01, 0x3f, 0xb2, 0x2c, 0xf8, 0x5f, 0x88, 0x57, 0x06, 0x6a,
	0xae, 0x48, 0x6e, 0x3c, 0x9c, 0x15, 0xd0, 0xe2, 0x97, 0xeb, 0xd1, 0x6e,
	0xa6, 0xeb, 0x3d, 0x5f, 0x9c, 0x6a, 0xd3, 0x61, 0x97, 0x60, 0x15, 0x41,
	0x9a, 0x6b, 0x06, 0x61, 0x9d, 0x59, 0x22, 0x5c, 0x8a, 0x5d, 0x1c, 0x40,
	0xb6, 0x4a, 0x3e, 0x46, 0x8e, 0x3b, 0x13, 0x60, 0x88, 0x62, 0x0d, 0x4e,
	0xa2, 0x44, 0x29, 0x65, 0xad, 0x37, 0x12, 0x47, 0xa2, 0x53, 0x26, 0x4f,
	0x90, 0x36, 0x31, 0x61, 0xac, 0x4d, 0x15, 0x50, 0xb4, 0x3b, 0x24, 0x5c,
	0xa5, 0x30, 0x31, 0x57, 0xa6, 0x4c, 0x23, 0x57, 0x93, 0x36, 0x17, 0x3a,
	0x81, 0x42, 0xec, 0x51, 0xae, 0x37, 0xe4, 0x5b, 0xb4, 0x14, 0x1a, 0x42,
	0x91, 0x35, 0xe9, 0x40, 0xad, 0x43, 0xe8, 0x3a, 0xae, 0x45, 0xdf, 0x6c,
	0xb4, 0x47, 0xe1, 0x50, 0xb7, 0x3e, 0xf1, 0x42, 0x9c, 0x23, 0xfc, 0x49,
	0x97, 0x41, 0xde, 0x6f, 0xa2, 0x11, 0xb6, 0x5f, 0x9c, 0x41, 0x46, 0x60,
	0xaa, 0x60, 0x43, 0x4a, 0x86, 0x42, 0xcd, 0xf1, 0x92, 0xd5, 0x31, 0x37,
	0x82, 0x4c, 0xf4, 0x6a, 0xb1, 0x65, 0x2d, 0x3b, 0xa7, 0x51, 0x1b, 0x4b,
	0x9a, 0x3a, 0x26, 0x49, 0xa9, 0x52, 0x1d, 0x67, 0x96, 0x66, 0x1e, 0x4a,
	0x87, 0x63, 0xff, 0x3c, 0x8b, 0x5e, 0x35, 0x3f, 0xa8, 0x37, 0x33, 0x5e,
	0xa6, 0x44, 0x39, 0x61, 0xb7, 0x36, 0x1e, 0x3a, 0xb3, 0x37, 0x17, 0x4b,
	0xa4, 0x26, 0xe5, 0x5f, 0xf4, 0x46, 0x00, 0xeb, 0xef, 0xe7, 0xee, 0xf4,
	0x00, 0xd6, 0xf3, 0xf8, 0xf5, 0xea, 0xe6, 0x01, 0xfd, 0xf9, 0xf1, 0xf9,
	0xf9, 0xf3, 0xeb, 0xfa, 0x0b, 0xfd, 0xf0, 0xff, 0x12, 0x07, 0x02, 0xf3,
	0xfc, 0x07, 0xf3, 0xee, 0x0b, 0xfb, 0x01, 0xe5, 0x03, 0x07, 0x03, 0xdd,
	0xff, 0x07, 0x09, 0xec, 0x06, 0xf0, 0xf4, 0xd4, 0x10, 0xf7, 0xf4, 0xd3,
	0x00, 0xfb, 0xf1, 0xe5, 0x42, 0xd0, 0x81, 0x5d, 0x42, 0x22, 0x60, 0x4b,
	0x34, 0x36, 0x38, 0xe7, 0xee, 0x51, 0xa8, 0xde, 0x47, 0xd5, 0x4f, 0xf0,
	0xe5, 0xee, 0xdf, 0xe8, 0xec, 0xd8, 0xd7, 0xe2, 0xe2, 0xe1, 0xd8, 0xd9,
	0xdc, 0xd4, 0xd1, 0xd6, 0xe3, 0xe8, 0xd4, 0xe9, 0xe7, 0xef, 0xce, 0xe3,
	0xee, 0xdf, 0xd7, 0xeb, 0xe1, 0xec, 0xdd, 0xe7, 0xde, 0xe3, 0xd2, 0xe8,
	0xd4, 0xd7, 0xcb, 0xfe, 0xe1, 0xdc, 0xce, 0xfa, 0xd0, 0xef, 0xdb, 0xea,
	0xd2, 0xec, 0xe4, 0xed, 0xda, 0xeb, 0xf3, 0xfd, 0xe4, 0xf6, 0xfb, 0xee,
	0xfc, 0xf1, 0xf6, 0xff, 0xfa, 0xfe, 0xf7, 0x03, 0x0f, 0x0c, 0xef, 0xf6,
	0x13, 0x07, 0xec, 0xf5, 0x13, 0x04, 0xec, 0xef, 0x05, 0x03, 0xf6, 0xf5,
	0x11, 0x0b, 0xff, 0xdc, 0x0f, 0x07, 0xf6, 0xea, 0x09, 0x0f, 0xf3, 0xdd,
	0x12, 0xf7, 0xfc, 0xd3, 0x02, 0xf5, 0xff, 0xd3, 0xb1, 0x5f, 0x40, 0xd7,
	0xaa, 0xc2, 0x8f, 0xef, 0xc5, 0xc6, 0x96, 0xe8, 0xba, 0xd2, 0x1d, 0x4d,
	0xcf, 0x57, 0x97, 0x68, 0xd5, 0xdf, 0xf1, 0xd6, 0xd2, 0xe4, 0xde, 0xee,
	0xd7, 0xe2, 0xd2, 0xe3, 0xea, 0xe2, 0xd1, 0xdb, 0xdb, 0xf4, 0xd0, 0xe3,
	0xe0, 0xe2, 0xdd, 0xd7, 0xea, 0xde, 0xe9, 0xd3, 0xe6, 0xea, 0xd7, 0xd3,
	0xe6, 0xe9, 0xd6, 0xdc, 0xda, 0xd5, 0xe2, 0xec, 0xdd, 0xe0, 0xdf, 0xed,
	0xe4, 0xeb, 0xc9, 0xf5, 0xe9, 0xd8, 0xcb, 0xf9, 0xe4, 0xd9, 0xf5, 0xfc,
	0x00, 0x00, 0x06, 0x00, 0x08, 0x00, 0x04, 0x00, 0x06, 0x00, 0x00, 0x00,
	0x04, 0x00, 0x00, 0x00, 0x0c, 0x00, 0x00, 0x00, 0x25, 0x06, 0x00, 0x00,
	0xf9, 0x03, 0x00, 0x00, 0x4a, 0xf9, 0xff, 0xff, 0xfc, 0xff, 0xff, 0xff,
	0x04, 0x00, 0x04, 0x00, 0x04, 0x00, 0x00, 0x00, 0x0f, 0x00, 0x00, 0x00,
	0x4d, 0x4c, 0x49, 0x52, 0x20, 0x43, 0x6f, 0x6e, 0x76, 0x65, 0x72, 0x74,
	0x65, 0x64, 0x2e, 0x00, 0x01, 0x00, 0x00, 0x00, 0x14, 0x00, 0x00, 0x00,
	0x00, 0x00, 0x0e, 0x00, 0x18, 0x00, 0x14, 0x00, 0x10, 0x00, 0x0c, 0x00,
	0x08, 0x00, 0x04, 0x00, 0x0e, 0x00, 0x00, 0x00, 0x14, 0x00, 0x00, 0x00,
	0x1c, 0x00, 0x00, 0x00, 0xd4, 0x00, 0x00, 0x00, 0xd8, 0x00, 0x00, 0x00,
	0xdc, 0x00, 0x00, 0x00, 0x04, 0x00, 0x00, 0x00, 0x6d, 0x61, 0x69, 0x6e,
	0x00, 0x00, 0x00, 0x00, 0x02, 0x00, 0x00, 0x00, 0x70, 0x00, 0x00, 0x00,
	0x14, 0x00, 0x00, 0x00, 0x00, 0x00, 0x0e, 0x00, 0x16, 0x00, 0x00, 0x00,
	0x10, 0x00, 0x0c, 0x00, 0x0b, 0x00, 0x04, 0x00, 0x0e, 0x00, 0x00, 0x00,
	0x1c, 0x00, 0x00, 0x00, 0x00, 0x00, 0x00, 0x01, 0x24, 0x00, 0x00, 0x00,
	0x28, 0x00, 0x00, 0x00, 0x00, 0x00, 0x0a, 0x00, 0x10, 0x00, 0x0f, 0x00,
	0x08, 0x00, 0x04, 0x00, 0x0a, 0x00, 0x00, 0x00, 0x01, 0x00, 0x00, 0x00,
	0x01, 0x00, 0x00, 0x00, 0x00, 0x00, 0x00, 0x01, 0x01, 0x00, 0x00, 0x00,
	0x06, 0x00, 0x00, 0x00, 0x03, 0x00, 0x00, 0x00, 0x05, 0x00, 0x00, 0x00,
	0x02, 0x00, 0x00, 0x00, 0x01, 0x00, 0x00, 0x00, 0x00, 0x00, 0x0e, 0x00,
	0x14, 0x00, 0x00, 0x00, 0x10, 0x00, 0x0c, 0x00, 0x0b, 0x00, 0x04, 0x00,
	0x0e, 0x00, 0x00, 0x00, 0x1c, 0x00, 0x00, 0x00, 0x00, 0x00, 0x00, 0x01,
	0x24, 0x00, 0x00, 0x00, 0x28, 0x00, 0x00, 0x00, 0x0c, 0x00, 0x10, 0x00,
	0x00, 0x00, 0x0c, 0x00, 0x08, 0x00, 0x07, 0x00, 0x0c, 0x00, 0x00, 0x00,
	0x00, 0x00, 0x00, 0x01, 0x01, 0x00, 0x00, 0x00, 0x01, 0x00, 0x00, 0x00,
	0x01, 0x00, 0x00, 0x00, 0x05, 0x00, 0x00, 0x00, 0x03, 0x00, 0x00, 0x00,
	0x00, 0x00, 0x00, 0x00, 0x04, 0x00, 0x00, 0x00, 0x03, 0x00, 0x00, 0x00,
	0x01, 0x00, 0x00, 0x00, 0x06, 0x00, 0x00, 0x00, 0x01, 0x00, 0x00, 0x00,
	0x00, 0x00, 0x00, 0x00, 0x07, 0x00, 0x00, 0x00, 0x98, 0x04, 0x00, 0x00,
	0xb8, 0x03, 0x00, 0x00, 0x0c, 0x03, 0x00, 0x00, 0x20, 0x02, 0x00, 0x00,
	0x7c, 0x01, 0x00, 0x00, 0x90, 0x00, 0x00, 0x00, 0x04, 0x00, 0x00, 0x00,
	0x9a, 0xfb, 0xff, 0xff, 0x00, 0x00, 0x00, 0x01, 0x18, 0x00, 0x00, 0x00,
	0x28, 0x00, 0x00, 0x00, 0x44, 0x00, 0x00, 0x00, 0x07, 0x00, 0x00, 0x00,
	0x00, 0x00, 0x00, 0x09, 0x58, 0x00, 0x00, 0x00, 0x04, 0x00, 0x00, 0x00,
	0xff, 0xff, 0xff, 0xff, 0x01, 0x00, 0x00, 0x00, 0x01, 0x00, 0x00, 0x00,
	0x03, 0x00, 0x00, 0x00, 0x84, 0xfb, 0xff, 0xff, 0x08, 0x00, 0x00, 0x00,
	0x10, 0x00, 0x00, 0x00, 0x01, 0x00, 0x00, 0x00, 0x1f, 0x00, 0x00, 0x00,
	0x00, 0x00, 0x00, 0x00, 0x01, 0x00, 0x00, 0x00, 0xd0, 0x11, 0xd4, 0x3d,
	0x1b, 0x00, 0x00, 0x00, 0x53, 0x74, 0x61, 0x74, 0x65, 0x66, 0x75, 0x6c,
	0x50, 0x61, 0x72, 0x74, 0x69, 0x74, 0x69, 0x6f, 0x6e, 0x65, 0x64, 0x43,
	0x61, 0x6c, 0x6c, 0x5f, 0x31, 0x3a, 0x30, 0x00, 0x04, 0x00, 0x00, 0x00,
	0x01, 0x00, 0x00, 0x00, 0x01, 0x00, 0x00, 0x00, 0x01, 0x00, 0x00, 0x00,
	0x03, 0x00, 0x00, 0x00, 0x22, 0xfc, 0xff, 0xff, 0x00, 0x00, 0x00, 0x01,
	0x18, 0x00, 0x00, 0x00, 0x28, 0x00, 0x00, 0x00, 0x44, 0x00, 0x00, 0x00,
	0x06, 0x00, 0x00, 0x00, 0x00, 0x00, 0x00, 0x09, 0xb8, 0x00, 0x00, 0x00,
	0x04, 0x00, 0x00, 0x00, 0xff, 0xff, 0xff, 0xff, 0x40, 0x00, 0x00, 0x00,
	0x01, 0x00, 0x00, 0x00, 0x04, 0x00, 0x00, 0x00, 0x0c, 0xfc, 0xff, 0xff,
	0x08, 0x00, 0x00, 0x00, 0x10, 0x00, 0x00, 0x00, 0x01, 0x00, 0x00, 0x00,
	0x80, 0xff, 0xff, 0xff, 0xff, 0xff, 0xff, 0xff, 0x01, 0x00, 0x00, 0x00,
	0x79, 0xe1, 0xbd, 0x3b, 0x79, 0x00, 0x00, 0x00, 0x73, 0x65, 0x71, 0x75,
	0x65, 0x6e, 0x74, 0x69, 0x61, 0x6c, 0x5f, 0x31, 0x2f, 0x63, 0x6f, 0x6e,
	0x76, 0x32, 0x64, 0x5f, 0x31, 0x2f, 0x52, 0x65, 0x6c, 0x75, 0x3b, 0x73,
	0x65, 0x71, 0x75, 0x65, 0x6e, 0x74, 0x69, 0x61, 0x6c, 0x5f, 0x31, 0x2f,
	0x63, 0x6f, 0x6e, 0x76, 0x32, 0x64, 0x5f, 0x31, 0x2f, 0x42, 0x69, 0x61,
	0x73, 0x41, 0x64, 0x64, 0x3b, 0x73, 0x65, 0x71, 0x75, 0x65, 0x6e, 0x74,
	0x69, 0x61, 0x6c, 0x5f, 0x31, 0x2f, 0x63, 0x6f, 0x6e, 0x76, 0x32, 0x64,
	0x5f, 0x31, 0x2f, 0x63, 0x6f, 0x6e, 0x76, 0x6f, 0x6c, 0x75, 0x74, 0x69,
	0x6f, 0x6e, 0x3b, 0x73, 0x65, 0x71, 0x75, 0x65, 0x6e, 0x74, 0x69, 0x61,
	0x6c, 0x5f, 0x31, 0x2f, 0x63, 0x6f, 0x6e, 0x76, 0x32, 0x64, 0x5f, 0x31,
	0x2f, 0x53, 0x71, 0x75, 0x65, 0x65, 0x7a, 0x65, 0x31, 0x00, 0x00, 0x00,
	0x04, 0x00, 0x00, 0x00, 0x01, 0x00, 0x00, 0x00, 0x40, 0x00, 0x00, 0x00,
	0x01, 0x00, 0x00, 0x00, 0x04, 0x00, 0x00, 0x00, 0xe6, 0xfd, 0xff, 0xff,
	0x00, 0x00, 0x00, 0x01, 0x14, 0x00, 0x00, 0x00, 0x58, 0x00, 0x00, 0x00,
	0x05, 0x00, 0x00, 0x00, 0x00, 0x00, 0x00, 0x09, 0x74, 0x00, 0x00, 0x00,
	0xdc, 0xfc, 0xff, 0xff, 0x08, 0x00, 0x00, 0x00, 0x2c, 0x00, 0x00, 0x00,
	0x04, 0x00, 0x00, 0x00, 0x00, 0x00, 0x00, 0x00, 0x00, 0x00, 0x00, 0x00,
	0x00, 0x00, 0x00, 0x00, 0x00, 0x00, 0x00, 0x00, 0x00, 0x00, 0x00, 0x00,
	0x00, 0x00, 0x00, 0x00, 0x00, 0x00, 0x00, 0x00, 0x00, 0x00, 0x00, 0x00,
	0x00, 0x00, 0x00, 0x00, 0x04, 0x00, 0x00, 0x00, 0x5c, 0x84, 0x23, 0x3c,
	0x28, 0x2f, 0x0d, 0x3c, 0xae, 0x59, 0x0c, 0x3c, 0xa3, 0x19, 0x11, 0x3c,
	0x21, 0x00, 0x00, 0x00, 0x73, 0x65, 0x71, 0x75, 0x65, 0x6e, 0x74, 0x69,
	0x61, 0x6c, 0x5f, 0x31, 0x2f, 0x63, 0x6f, 0x6e, 0x76, 0x32, 0x64, 0x5f,
	0x31, 0x2f, 0x63, 0x6f, 0x6e, 0x76, 0x6f, 0x6c, 0x75, 0x74, 0x69, 0x6f,
	0x6e, 0x00, 0x00, 0x00, 0x04, 0x00, 0x00, 0x00, 0x04, 0x00, 0x00, 0x00,
	0x05, 0x00, 0x00, 0x00, 0x01, 0x00, 0x00, 0x00, 0x01, 0x00, 0x00, 0x00,
	0x86, 0xfe, 0xff, 0xff, 0x00, 0x00, 0x00, 0x01, 0x14, 0x00, 0x00, 0x00,
	0x54, 0x00, 0x00, 0x00, 0x04, 0x00, 0x00, 0x00, 0x00, 0x00, 0x00, 0x02,
	0xc8, 0x00, 0x00, 0x00, 0x7c, 0xfd, 0xff, 0xff, 0x08, 0x00, 0x00, 0x00,
	0x28, 0x00, 0x00, 0x00, 0x04, 0x00, 0x00, 0x00, 0x00, 0x00, 0x00, 0x00,
	0x00, 0x00, 0x00, 0x00, 0x00, 0x00, 0x00, 0x00, 0x00, 0x00, 0x00, 0x00,
	0x00, 0x00, 0x00, 0x00, 0x00, 0x00, 0x00, 0x00, 0x00, 0x00, 0x00, 0x00,
	0x00, 0x00, 0x00, 0x00, 0x04, 0x00, 0x00, 0x00, 0xee, 0xf6, 0x69, 0x38,
	0x9a, 0x02, 0x4a, 0x38, 0x27, 0xd1, 0x48, 0x38, 0xfa, 0x9c, 0x4f, 0x38,
	0x78, 0x00, 0x00, 0x00, 0x73, 0x65, 0x71, 0x75, 0x65, 0x6e, 0x74, 0x69,
	0x61, 0x6c, 0x5f, 0x31, 0x2f, 0x63, 0x6f, 0x6e, 0x76, 0x32, 0x64, 0x5f,
	0x31, 0x2f, 0x52, 0x65, 0x6c, 0x75, 0x3b, 0x73, 0x65, 0x71, 0x75, 0x65,
	0x6e, 0x74, 0x69, 0x61, 0x6c, 0x5f, 0x31, 0x2f, 0x63, 0x6f, 0x6e, 0x76,
	0x32, 0x64, 0x5f, 0x31, 0x2f, 0x42, 0x69, 0x61, 0x73, 0x41, 0x64, 0x64,
	0x3b, 0x73, 0x65, 0x71, 0x75, 0x65, 0x6e, 0x74, 0x69, 0x61, 0x6c, 0x5f,
	0x31, 0x2f, 0x63, 0x6f, 0x6e, 0x76, 0x32, 0x64, 0x5f, 0x31, 0x2f, 0x63,
	0x6f, 0x6e, 0x76, 0x6f, 0x6c, 0x75, 0x74, 0x69, 0x6f, 0x6e, 0x3b, 0x73,
	0x65, 0x71, 0x75, 0x65, 0x6e, 0x74, 0x69, 0x61, 0x6c, 0x5f, 0x31, 0x2f,
	0x63, 0x6f, 0x6e, 0x76, 0x32, 0x64, 0x5f, 0x31, 0x2f, 0x53, 0x71, 0x75,
	0x65, 0x65, 0x7a, 0x65, 0x00, 0x00, 0x00, 0x00, 0x01, 0x00, 0x00, 0x00,
	0x04, 0x00, 0x00, 0x00, 0x6e, 0xff, 0xff, 0xff, 0x00, 0x00, 0x00, 0x01,
	0x14, 0x00, 0x00, 0x00, 0x48, 0x00, 0x00, 0x00, 0x03, 0x00, 0x00, 0x00,
	0x00, 0x00, 0x00, 0x09, 0x64, 0x00, 0x00, 0x00, 0x64, 0xfe, 0xff, 0xff,
	0x08, 0x00, 0x00, 0x00, 0x20, 0x00, 0x00, 0x00, 0x03, 0x00, 0x00, 0x00,
	0x00, 0x00, 0x00, 0x00, 0x00, 0x00, 0x00, 0x00, 0x00, 0x00, 0x00, 0x00,
	0x00, 0x00, 0x00, 0x00, 0x00, 0x00, 0x00, 0x00, 0x00, 0x00, 0x00, 0x00,
	0x03, 0x00, 0x00, 0x00, 0x0e, 0xa6, 0xf1, 0x3b, 0x1b, 0x44, 0x8c, 0x3b,
	0xb4, 0x9b, 0x09, 0x3c, 0x23, 0x00, 0x00, 0x00, 0x73, 0x65, 0x71, 0x75,
	0x65, 0x6e, 0x74, 0x69, 0x61, 0x6c, 0x5f, 0x31, 0x2f, 0x63, 0x6f, 0x6e,
	0x76, 0x32, 0x64, 0x5f, 0x31, 0x5f, 0x32, 0x2f, 0x63, 0x6f, 0x6e, 0x76,
	0x6f, 0x6c, 0x75, 0x74, 0x69, 0x6f, 0x6e, 0x00, 0x04, 0x00, 0x00, 0x00,
	0x03, 0x00, 0x00, 0x00, 0x40, 0x00, 0x00, 0x00, 0x01, 0x00, 0x00, 0x00,
	0x04, 0x00, 0x00, 0x00, 0x00, 0x00, 0x16, 0x00, 0x1c, 0x00, 0x18, 0x00,
	0x17, 0x00, 0x10, 0x00, 0x0c, 0x00, 0x08, 0x00, 0x00, 0x00, 0x00, 0x00,
	0x00, 0x00, 0x07, 0x00, 0x16, 0x00, 0x00, 0x00, 0x00, 0x00, 0x00, 0x01,
	0x14, 0x00, 0x00, 0x00, 0x48, 0x00, 0x00, 0x00, 0x02, 0x00, 0x00, 0x00,
	0x00, 0x00, 0x00, 0x02, 0xa4, 0x00, 0x00, 0x00, 0x0c, 0xff, 0xff, 0xff,
	0x08, 0x00, 0x00, 0x00, 0x20, 0x00, 0x00, 0x00, 0x03, 0x00, 0x00, 0x00,
	0x00, 0x00, 0x00, 0x00, 0x00, 0x00, 0x00, 0x00, 0x00, 0x00, 0x00, 0x00,
	0x00, 0x00, 0x00, 0x00, 0x00, 0x00, 0x00, 0x00, 0x00, 0x00, 0x00, 0x00,
	0x03, 0x00, 0x00, 0x00, 0x6d, 0x3c, 0x33, 0x38, 0xa4, 0x13, 0xd0, 0x37,
	0x4e, 0x22, 0x4c, 0x38, 0x63, 0x00, 0x00, 0x00, 0x73, 0x65, 0x71, 0x75,
	0x65, 0x6e, 0x74, 0x69, 0x61, 0x6c, 0x5f, 0x31, 0x2f, 0x63, 0x6f, 0x6e,
	0x76, 0x32, 0x64, 0x5f, 0x31, 0x5f, 0x32, 0x2f, 0x42, 0x69, 0x61, 0x73,
	0x41, 0x64, 0x64, 0x3b, 0x73, 0x65, 0x71, 0x75, 0x65, 0x6e, 0x74, 0x69,
	0x61, 0x6c, 0x5f, 0x31, 0x2f, 0x63, 0x6f, 0x6e, 0x76, 0x32, 0x64, 0x5f,
	0x31, 0x5f, 0x32, 0x2f, 0x63, 0x6f, 0x6e, 0x76, 0x6f, 0x6c, 0x75, 0x74,
	0x69, 0x6f, 0x6e, 0x3b, 0x73, 0x65, 0x71, 0x75, 0x65, 0x6e, 0x74, 0x69,
	0x61, 0x6c, 0x5f, 0x31, 0x2f, 0x63, 0x6f, 0x6e, 0x76, 0x32, 0x64, 0x5f,
	0x31, 0x5f, 0x32, 0x2f, 0x53, 0x71, 0x75, 0x65, 0x65, 0x7a, 0x65, 0x00,
	0x01, 0x00, 0x00, 0x00, 0x03, 0x00, 0x00, 0x00, 0x00, 0x00, 0x16, 0x00,
	0x20, 0x00, 0x1c, 0x00, 0x1b, 0x00, 0x14, 0x00, 0x10, 0x00, 0x0c, 0x00,
	0x00, 0x00, 0x00, 0x00, 0x08, 0x00, 0x07, 0x00, 0x16, 0x00, 0x00, 0x00,
	0x00, 0x00, 0x00, 0x01, 0x18, 0x00, 0x00, 0x00, 0x34, 0x00, 0x00, 0x00,
	0x54, 0x00, 0x00, 0x00, 0x01, 0x00, 0x00, 0x00, 0x00, 0x00, 0x00, 0x09,
	0x6c, 0x00, 0x00, 0x00, 0x04, 0x00, 0x00, 0x00, 0xff, 0xff, 0xff, 0xff,
	0x40, 0x00, 0x00, 0x00, 0x01, 0x00, 0x00, 0x00, 0x01, 0x00, 0x00, 0x00,
	0x0c, 0x00, 0x0c, 0x00, 0x00, 0x00, 0x00, 0x00, 0x08, 0x00, 0x04, 0x00,
	0x0c, 0x00, 0x00, 0x00, 0x08, 0x00, 0x00, 0x00, 0x14, 0x00, 0x00, 0x00,
	0x01, 0x00, 0x00, 0x00, 0xf6, 0xff, 0xff, 0xff, 0xff, 0xff, 0xff, 0xff,
	0x00, 0x00, 0x00, 0x00, 0x01, 0x00, 0x00, 0x00, 0x56, 0x25, 0xb7, 0x3b,
	0x1e, 0x00, 0x00, 0x00, 0x73, 0x65, 0x72, 0x76, 0x69, 0x6e, 0x67, 0x5f,
	0x64, 0x65, 0x66, 0x61, 0x75, 0x6c, 0x74, 0x5f, 0x6b, 0x65, 0x72, 0x61,
	0x73, 0x5f, 0x74, 0x65, 0x6e, 0x73, 0x6f, 0x72, 0x3a, 0x30, 0x00, 0x00,
	0x04, 0x00, 0x00, 0x00, 0x01, 0x00, 0x00, 0x00, 0x40, 0x00, 0x00, 0x00,
	0x01, 0x00, 0x00, 0x00, 0x01, 0x00, 0x00, 0x00, 0x01, 0x00, 0x00, 0x00,
	0x10, 0x00, 0x00, 0x00, 0x0c, 0x00, 0x10, 0x00, 0x0f, 0x00, 0x00, 0x00,
	0x08, 0x00, 0x04, 0x00, 0x0c, 0x00, 0x00, 0x00, 0x03, 0x00, 0x00, 0x00,
	0x03, 0x00, 0x00, 0x00, 0x00, 0x00, 0x00, 0x03
};

const int g_model_len = sizeof(g_model);
