/*
 * Copyright 2022 Arm Limited and/or its affiliates <open-source-office@arm.com>
 *
 * SPDX-License-Identifier: Apache-2.0
 */

#define TENSOR_ARENA_SIZE 50000
#define TENSOR_ARENA_ATTR __aligned(16) __attribute__((section(".noinit.tflm_arena")))

const char *modelName = "keyword_spotting_cnn_small_int8";

__aligned(16) __attribute__((section(".rodata.tflm_model"))) uint8_t networkModelData[] = {
	0x20, 0x00, 0x00, 0x00, 0x54, 0x46, 0x4c, 0x33, 0x00, 0x00, 0x00, 0x00, 0x14, 0x00, 0x20,
	0x00, 0x1c, 0x00, 0x18, 0x00, 0x14, 0x00, 0x10, 0x00, 0x0c, 0x00, 0x00, 0x00, 0x08, 0x00,
	0x04, 0x00, 0x14, 0x00, 0x00, 0x00, 0x1c, 0x00, 0x00, 0x00, 0x1c, 0x00, 0x00, 0x00, 0x4c,
	0x00, 0x00, 0x00, 0x8c, 0x12, 0x01, 0x00, 0x9c, 0x12, 0x01, 0x00, 0xe8, 0x25, 0x01, 0x00,
	0x03, 0x00, 0x00, 0x00, 0x00, 0x00, 0x00, 0x00, 0x01, 0x00, 0x00, 0x00, 0x0c, 0x00, 0x00,
	0x00, 0x08, 0x00, 0x0c, 0x00, 0x08, 0x00, 0x04, 0x00, 0x08, 0x00, 0x00, 0x00, 0x16, 0x00,
	0x00, 0x00, 0x04, 0x00, 0x00, 0x00, 0x13, 0x00, 0x00, 0x00, 0x6d, 0x69, 0x6e, 0x5f, 0x72,
	0x75, 0x6e, 0x74, 0x69, 0x6d, 0x65, 0x5f, 0x76, 0x65, 0x72, 0x73, 0x69, 0x6f, 0x6e, 0x00,
	0x17, 0x00, 0x00, 0x00, 0x3c, 0x12, 0x01, 0x00, 0x34, 0x12, 0x01, 0x00, 0x14, 0x12, 0x01,
	0x00, 0xfc, 0x11, 0x01, 0x00, 0x8c, 0x0d, 0x01, 0x00, 0x0c, 0x0d, 0x01, 0x00, 0xbc, 0x89,
	0x00, 0x00, 0x34, 0x89, 0x00, 0x00, 0x24, 0x11, 0x00, 0x00, 0xd4, 0x10, 0x00, 0x00, 0xc4,
	0x08, 0x00, 0x00, 0xb4, 0x06, 0x00, 0x00, 0xa4, 0x00, 0x00, 0x00, 0x64, 0x00, 0x00, 0x00,
	0x5c, 0x00, 0x00, 0x00, 0x54, 0x00, 0x00, 0x00, 0x4c, 0x00, 0x00, 0x00, 0x44, 0x00, 0x00,
	0x00, 0x3c, 0x00, 0x00, 0x00, 0x34, 0x00, 0x00, 0x00, 0x2c, 0x00, 0x00, 0x00, 0x24, 0x00,
	0x00, 0x00, 0x04, 0x00, 0x00, 0x00, 0x8e, 0xed, 0xfe, 0xff, 0x04, 0x00, 0x00, 0x00, 0x10,
	0x00, 0x00, 0x00, 0x31, 0x2e, 0x31, 0x34, 0x2e, 0x30, 0x00, 0x00, 0x00, 0x00, 0x00, 0x00,
	0x00, 0x00, 0x00, 0x00, 0x88, 0xdb, 0xfe, 0xff, 0x8c, 0xdb, 0xfe, 0xff, 0x90, 0xdb, 0xfe,
	0xff, 0x94, 0xdb, 0xfe, 0xff, 0x98, 0xdb, 0xfe, 0xff, 0x9c, 0xdb, 0xfe, 0xff, 0xa0, 0xdb,
	0xfe, 0xff, 0xa4, 0xdb, 0xfe, 0xff, 0xca, 0xed, 0xfe, 0xff, 0x04, 0x00, 0x00, 0x00, 0x30,
	0x00, 0x00, 0x00, 0x0c, 0xf9, 0xff, 0xff, 0x9a, 0x02, 0x00, 0x00, 0xd6, 0xfe, 0xff, 0xff,
	0x2a, 0x02, 0x00, 0x00, 0x50, 0x00, 0x00, 0x00, 0xae, 0x01, 0x00, 0x00, 0xd3, 0x00, 0x00,
	0x00, 0xad, 0xfe, 0xff, 0xff, 0x02, 0xfd, 0xff, 0xff, 0x22, 0x01, 0x00, 0x00, 0x80, 0xff,
	0xff, 0xff, 0x7c, 0x01, 0x00, 0x00, 0x06, 0xee, 0xfe, 0xff, 0x04, 0x00, 0x00, 0x00, 0x00,
	0x06, 0x00, 0x00, 0x34, 0xc9, 0x99, 0x52, 0xa6, 0xce, 0x37, 0xa3, 0xb4, 0xa5, 0xb2, 0xac,
	0x01, 0x81, 0x88, 0x87, 0xbc, 0xdf, 0x10, 0xb8, 0x3f, 0xaf, 0xcf, 0xac, 0xc5, 0xe3, 0xa0,
	0xfb, 0x0a, 0x03, 0x93, 0xb1, 0x2a, 0x90, 0x90, 0xea, 0x23, 0xac, 0xc1, 0xb3, 0x9d, 0xfd,
	0xec, 0x07, 0xe5, 0xae, 0x1b, 0x01, 0xb1, 0xbf, 0x1b, 0xc7, 0xdb, 0x50, 0xc7, 0x41, 0x3f,
	0xac, 0xfb, 0x2a, 0x27, 0x00, 0x1b, 0x04, 0x92, 0xf3, 0x99, 0x22, 0xb1, 0xbe, 0xc9, 0xdc,
	0x14, 0x9d, 0xda, 0x9d, 0xaa, 0xe5, 0xb1, 0xfb, 0xb5, 0x32, 0x45, 0x01, 0x99, 0x13, 0xf9,
	0xf3, 0xd3, 0xa9, 0x1a, 0x25, 0x43, 0xc3, 0x93, 0x0f, 0x3d, 0xa6, 0xec, 0xe3, 0x3f, 0x0d,
	0x9c, 0xe6, 0x9d, 0xa8, 0xee, 0xb4, 0x9d, 0x09, 0xdc, 0xbf, 0xeb, 0x0b, 0xdc, 0xc2, 0x12,
	0xcc, 0x9d, 0xbb, 0xb4, 0x3c, 0x22, 0x28, 0x25, 0xc3, 0x17, 0x93, 0x20, 0x00, 0x08, 0xd1,
	0x30, 0xf4, 0x19, 0x01, 0xf6, 0xec, 0xf8, 0xf8, 0xdd, 0x31, 0x29, 0x0a, 0x17, 0xeb, 0xc6,
	0x12, 0xe1, 0x05, 0xed, 0x2f, 0x0d, 0xe1, 0x06, 0x11, 0x1e, 0xef, 0x2c, 0x43, 0xdd, 0x0c,
	0x48, 0xd1, 0xfe, 0x18, 0x21, 0xf6, 0x12, 0x1c, 0xe2, 0xe5, 0xe4, 0xf2, 0xf8, 0x21, 0xf1,
	0x1f, 0xe8, 0x2b, 0xcb, 0x20, 0xce, 0xbe, 0xbf, 0xce, 0xfa, 0xd0, 0x17, 0x06, 0xe2, 0xf8,
	0xf2, 0xfb, 0x09, 0xfa, 0x1b, 0x1b, 0x0b, 0x11, 0x0f, 0x1b, 0xef, 0x2b, 0xde, 0x1a, 0xcf,
	0xed, 0x3c, 0x29, 0xe2, 0x11, 0xe9, 0x30, 0x3f, 0x13, 0xf8, 0xee, 0xed, 0x21, 0x27, 0x1b,
	0x23, 0xdf, 0xea, 0xe6, 0xd8, 0xf3, 0x26, 0x32, 0xfb, 0xfe, 0x19, 0xe1, 0x1f, 0xbd, 0xed,
	0xe6, 0x46, 0x0f, 0xf4, 0xcf, 0x1f, 0xe5, 0xf6, 0x11, 0x15, 0x11, 0x36, 0xf0, 0x1f, 0x27,
	0xe3, 0x1a, 0x0f, 0x3f, 0x31, 0x01, 0xad, 0xcf, 0x27, 0xd9, 0x37, 0x12, 0xd7, 0xcd, 0x38,
	0xf6, 0x30, 0xf5, 0x90, 0xee, 0x3b, 0xed, 0xfd, 0xcc, 0xcf, 0x11, 0xcc, 0xd8, 0xe8, 0x2d,
	0xe9, 0x01, 0xd2, 0xcf, 0x24, 0xef, 0xb4, 0xff, 0xf4, 0x02, 0xf2, 0x19, 0x38, 0x31, 0x1d,
	0x28, 0x27, 0x2c, 0xe4, 0xcd, 0xfe, 0xfb, 0xd6, 0xef, 0x14, 0x23, 0xef, 0xf8, 0x25, 0xc5,
	0x43, 0xdd, 0x00, 0xc6, 0x09, 0xed, 0x06, 0xa4, 0xd6, 0xc3, 0x2f, 0xbb, 0x1a, 0xce, 0xf3,
	0x3c, 0x1c, 0x31, 0xb0, 0xd2, 0xbf, 0xde, 0x2a, 0x27, 0xd0, 0x2c, 0xe6, 0xd3, 0xed, 0x10,
	0xde, 0xfc, 0x1e, 0x3d, 0xed, 0xf3, 0xe0, 0xd2, 0x35, 0x30, 0x38, 0xef, 0xb0, 0xd8, 0xfe,
	0xc7, 0x34, 0xcd, 0xeb, 0xdf, 0xea, 0x13, 0xdd, 0xc9, 0x15, 0xd1, 0xe2, 0x09, 0xd5, 0xc9,
	0xef, 0xf2, 0x06, 0xcd, 0xc9, 0x18, 0xae, 0x3a, 0x19, 0xb3, 0x1b, 0xc3, 0xfc, 0xc2, 0x18,
	0xf0, 0x24, 0x07, 0xdc, 0xd5, 0xf7, 0xe7, 0x37, 0xd5, 0x30, 0x0d, 0x12, 0xd8, 0x1f, 0x04,
	0x26, 0x07, 0xcb, 0x01, 0xd5, 0xf1, 0xdc, 0xf2, 0x3f, 0x06, 0xd7, 0xbf, 0xea, 0x23, 0x14,
	0x21, 0xd9, 0x23, 0xce, 0x32, 0xe6, 0xf8, 0xea, 0xba, 0xbe, 0x0e, 0x1a, 0xf9, 0xec, 0xce,
	0xe1, 0xf3, 0xc9, 0x3d, 0xff, 0xf5, 0xed, 0x05, 0x25, 0xf5, 0x08, 0xf3, 0xde, 0x1d, 0xd9,
	0x06, 0xe9, 0xf8, 0x0a, 0x00, 0xfe, 0xd3, 0xe2, 0xd1, 0x25, 0xef, 0x26, 0x02, 0xea, 0xe6,
	0x1b, 0x24, 0xe9, 0xd8, 0x2a, 0xe7, 0x07, 0xce, 0xcd, 0x01, 0xd5, 0x2b, 0xfa, 0x05, 0xde,
	0x22, 0x05, 0xdb, 0xd9, 0x30, 0xf6, 0xfc, 0x26, 0xb7, 0xf9, 0x04, 0x26, 0x31, 0x0a, 0x39,
	0xca, 0xe9, 0xd8, 0xef, 0x26, 0xfe, 0xed, 0xfa, 0xc5, 0x09, 0xbf, 0x2b, 0xdc, 0x32, 0x3c,
	0x27, 0x28, 0xfc, 0xce, 0xfc, 0xe2, 0xcf, 0xd9, 0xf1, 0xff, 0x0b, 0xc5, 0x3c, 0x24, 0x23,
	0xcd, 0xf8, 0xea, 0xd7, 0x0f, 0xeb, 0xf6, 0xfc, 0xea, 0xd8, 0x05, 0xda, 0x18, 0x35, 0xef,
	0xe3, 0xf3, 0xb7, 0x1b, 0x1f, 0xe9, 0xcf, 0x1b, 0x20, 0xda, 0x1d, 0x1d, 0x3a, 0xc2, 0xf4,
	0x00, 0x14, 0x0d, 0xec, 0xd7, 0xf0, 0x38, 0x26, 0x2d, 0x07, 0xe1, 0xe6, 0xe0, 0xba, 0xed,
	0xc4, 0xdf, 0xff, 0x2d, 0x12, 0xea, 0x04, 0x1d, 0xc9, 0x2b, 0x1d, 0x00, 0x35, 0xc2, 0xf8,
	0x3e, 0xd0, 0x1e, 0xf3, 0xb6, 0xdb, 0x0c, 0xdd, 0xc6, 0x28, 0xea, 0xb5, 0xd5, 0x34, 0x19,
	0xc9, 0x12, 0xdf, 0x11, 0xf0, 0x1d, 0xd7, 0xe4, 0xd2, 0xf4, 0xe9, 0x26, 0x06, 0xc9, 0xeb,
	0x1e, 0x20, 0xd9, 0xc8, 0xd7, 0xd0, 0xfa, 0xbb, 0x01, 0x37, 0xec, 0xe6, 0xda, 0x1d, 0xe6,
	0xe5, 0x21, 0x03, 0x13, 0xc0, 0x04, 0xcd, 0xd3, 0xb8, 0xe5, 0xcb, 0xba, 0x06, 0xda, 0x35,
	0xd9, 0xef, 0xd9, 0xf4, 0xe0, 0xf4, 0xf7, 0x01, 0xe6, 0xe1, 0xe3, 0x05, 0x06, 0xe4, 0x01,
	0xe8, 0x05, 0x27, 0xfa, 0xfa, 0xb4, 0xe4, 0x3a, 0x15, 0x2c, 0x1a, 0x28, 0xf9, 0xcf, 0xd6,
	0x24, 0x01, 0xe1, 0xe6, 0xe2, 0xe0, 0xe1, 0xf3, 0xc1, 0x42, 0xea, 0x22, 0xe9, 0x2d, 0xef,
	0xec, 0xc9, 0xde, 0x2f, 0x2a, 0x19, 0xf6, 0x12, 0x2e, 0x00, 0x2a, 0xeb, 0xf4, 0x2f, 0x0a,
	0xfc, 0x3b, 0xfe, 0x10, 0x24, 0xe3, 0x0d, 0x36, 0x01, 0xcc, 0xd1, 0xd9, 0x38, 0xeb, 0xde,
	0x04, 0x1f, 0x2f, 0x0a, 0x06, 0xe3, 0x12, 0xdc, 0xff, 0xb9, 0x8d, 0x1d, 0x41, 0xdc, 0xcc,
	0xbc, 0xf7, 0xfa, 0xd6, 0xfc, 0x10, 0x00, 0xe7, 0xd0, 0x09, 0xf9, 0xc6, 0xfc, 0xde, 0xca,
	0x1a, 0x35, 0x18, 0x0a, 0x30, 0xe6, 0xd1, 0xe1, 0xe5, 0xca, 0xca, 0x1a, 0x2a, 0x25, 0xfc,
	0x21, 0xf6, 0xf6, 0x24, 0x0f, 0x12, 0x05, 0xee, 0xfb, 0xd8, 0xc3, 0xcd, 0x2f, 0x27, 0xfa,
	0x13, 0x14, 0x01, 0x15, 0xdc, 0xaf, 0xcd, 0xef, 0x33, 0x0a, 0xee, 0x4a, 0x35, 0x1f, 0x03,
	0xe9, 0x16, 0x09, 0xed, 0x04, 0xb2, 0xfd, 0xf6, 0xdf, 0x3a, 0xe4, 0xc5, 0x2c, 0xe1, 0x10,
	0x0e, 0xf5, 0xfb, 0x1d, 0xff, 0x06, 0xe1, 0xf9, 0x32, 0x0a, 0x0a, 0x1f, 0xe5, 0xd6, 0xc2,
	0xf9, 0xcb, 0xe1, 0xc5, 0xd7, 0x2d, 0x00, 0xdc, 0x11, 0xaf, 0xcf, 0xc4, 0x11, 0xfa, 0x3d,
	0xe3, 0xce, 0x03, 0x1f, 0x0a, 0xcc, 0xce, 0x34, 0xd3, 0xda, 0xdc, 0x15, 0xda, 0xf5, 0xba,
	0xad, 0x20, 0x2f, 0xee, 0x41, 0xf6, 0xd9, 0x19, 0x15, 0xe9, 0x23, 0x34, 0xfb, 0x41, 0x20,
	0xe3, 0xf1, 0x05, 0x0e, 0x04, 0xca, 0x26, 0xc7, 0x0c, 0xf8, 0xe4, 0xdf, 0xcc, 0xd0, 0xda,
	0x08, 0x3f, 0xdc, 0x38, 0xf1, 0x27, 0xcd, 0x25, 0xd0, 0xca, 0xbc, 0xd2, 0x27, 0x1b, 0xe0,
	0x25, 0x01, 0xec, 0xe3, 0x42, 0x18, 0x93, 0x02, 0xe4, 0xdc, 0x3a, 0xb9, 0x02, 0xbf, 0xcc,
	0xfa, 0x23, 0xe3, 0x07, 0xd8, 0xca, 0x1d, 0xe4, 0xe0, 0x45, 0xf6, 0xe5, 0xf0, 0x15, 0xf6,
	0xe0, 0xf4, 0x0a, 0x0b, 0xde, 0xed, 0x12, 0x3c, 0xd6, 0xb4, 0xfa, 0xad, 0xc5, 0x41, 0xf0,
	0xe3, 0x26, 0xe8, 0x2a, 0xcb, 0xe3, 0xe7, 0xe3, 0x06, 0xe6, 0x00, 0xc3, 0x04, 0x2c, 0xf7,
	0x05, 0x24, 0xb4, 0x12, 0x03, 0xd3, 0x07, 0x19, 0xbc, 0x00, 0x1e, 0xd2, 0x49, 0xe9, 0xb0,
	0x27, 0xe8, 0xc8, 0xe4, 0x37, 0xd0, 0x07, 0xcc, 0xb4, 0xf9, 0xfc, 0x15, 0xec, 0xda, 0xfe,
	0x2b, 0x30, 0x34, 0xfc, 0x2f, 0xea, 0xd4, 0xc2, 0xd2, 0xc2, 0x17, 0xf7, 0x15, 0x2c, 0x2a,
	0x0f, 0xf7, 0x36, 0xe7, 0xe3, 0xcd, 0x3f, 0xc7, 0xe8, 0x20, 0xd6, 0xf2, 0xdd, 0xcf, 0xf4,
	0x1c, 0xfa, 0x08, 0x05, 0x33, 0x35, 0x07, 0xe0, 0xf8, 0xdd, 0x42, 0xfc, 0x17, 0xc4, 0xc4,
	0x35, 0xf0, 0xc4, 0x1b, 0x0a, 0x3e, 0xf4, 0x2c, 0xcb, 0xff, 0xd6, 0xdb, 0x07, 0xe6, 0xc7,
	0xe7, 0x0e, 0xd9, 0xb4, 0xba, 0x00, 0x31, 0xfb, 0x07, 0xed, 0xc3, 0xe4, 0xeb, 0x21, 0xd2,
	0xdc, 0xf6, 0x35, 0xc5, 0xad, 0x37, 0x2c, 0xd6, 0xe8, 0x0c, 0x2a, 0xdc, 0xdc, 0x0b, 0x19,
	0x11, 0x1c, 0x09, 0xd6, 0x13, 0xea, 0x06, 0xc0, 0xdc, 0xe2, 0x2f, 0x03, 0xf0, 0xfd, 0xdb,
	0x34, 0xfe, 0x27, 0xd8, 0xfc, 0xbd, 0x02, 0x19, 0xdf, 0xee, 0x02, 0xc5, 0xcb, 0xd0, 0xca,
	0x18, 0x17, 0xe4, 0xc9, 0x23, 0x26, 0xe8, 0x1c, 0x36, 0x23, 0x09, 0x2d, 0xed, 0xf6, 0x17,
	0x30, 0xff, 0xdc, 0x2d, 0xf8, 0x10, 0x03, 0xc5, 0xc9, 0xe9, 0x28, 0x35, 0x0d, 0x20, 0xc4,
	0x0d, 0xe7, 0x00, 0x40, 0xf0, 0xc5, 0xd8, 0x07, 0xcc, 0xfb, 0xbf, 0xa7, 0x35, 0xf3, 0x2e,
	0xbb, 0xfa, 0xf2, 0x23, 0xf4, 0xf5, 0xc4, 0x33, 0x1f, 0x01, 0x04, 0x0c, 0x14, 0xcb, 0x2f,
	0x22, 0xcc, 0x1c, 0xe7, 0x1e, 0x06, 0x20, 0x07, 0x18, 0xbf, 0xd3, 0xdd, 0xd4, 0x23, 0xfa,
	0x13, 0xc0, 0xe4, 0xd1, 0xdb, 0x2e, 0x30, 0xd6, 0xd7, 0x13, 0x32, 0xbf, 0x37, 0x11, 0xc0,
	0xc8, 0x05, 0xc2, 0x08, 0xd6, 0x08, 0xac, 0x28, 0x06, 0x2d, 0xc0, 0x0b, 0x1a, 0x03, 0x21,
	0x0a, 0xcd, 0x0f, 0xda, 0xcc, 0xfb, 0xcb, 0x1d, 0xe0, 0x2a, 0x13, 0x2e, 0xd0, 0xd6, 0xc4,
	0x25, 0x2c, 0xff, 0xde, 0xd1, 0xc9, 0xe5, 0x0d, 0x25, 0x13, 0xbe, 0x07, 0xc6, 0x31, 0xc5,
	0xd6, 0x09, 0xe7, 0xde, 0xe2, 0xbc, 0xe7, 0xd6, 0xf7, 0xda, 0xe7, 0x35, 0x1c, 0x11, 0xf4,
	0xee, 0xd8, 0xe4, 0xe8, 0x15, 0xf5, 0x2c, 0xfc, 0x1d, 0x31, 0xe2, 0x19, 0xee, 0x16, 0xdb,
	0xef, 0xbf, 0xf7, 0x0e, 0x00, 0xeb, 0xe1, 0x07, 0x39, 0x10, 0x2b, 0x15, 0xfb, 0xe9, 0xbe,
	0xf1, 0x17, 0x39, 0xee, 0xf4, 0xd8, 0xdb, 0xf7, 0xd5, 0xcc, 0xc9, 0xcc, 0xcd, 0xe8, 0xca,
	0x22, 0x20, 0x1d, 0xb1, 0x09, 0x0f, 0xfd, 0xd7, 0xe9, 0xc9, 0x1a, 0xc9, 0x07, 0x2f, 0x08,
	0x2c, 0x03, 0x35, 0x07, 0xb7, 0xec, 0xe2, 0xc6, 0x35, 0xc7, 0x0d, 0xe6, 0x36, 0x18, 0xd1,
	0x31, 0x0f, 0xf6, 0xbe, 0xce, 0x3f, 0x32, 0xe0, 0x31, 0x12, 0xc4, 0xc6, 0xe2, 0x28, 0x04,
	0xd9, 0x09, 0xe9, 0xfb, 0xe5, 0xc5, 0xcd, 0xf5, 0xef, 0xf3, 0xed, 0xd1, 0x19, 0xfb, 0xfe,
	0xcb, 0x34, 0xdd, 0x09, 0xe7, 0xe1, 0xcc, 0xe6, 0x37, 0xea, 0xe0, 0xc2, 0xb6, 0xfb, 0x1b,
	0xc3, 0xc4, 0xf8, 0x13, 0xf5, 0x21, 0x08, 0xc9, 0xf8, 0x06, 0x34, 0xe4, 0xd4, 0x3b, 0xe9,
	0xef, 0x33, 0x2a, 0x2b, 0xd4, 0x0a, 0x25, 0x01, 0x0b, 0x00, 0xbe, 0xfc, 0x18, 0x12, 0x17,
	0xd6, 0xf5, 0xe0, 0x08, 0xeb, 0x15, 0xf1, 0xf4, 0xca, 0xee, 0xf8, 0x02, 0x0f, 0x38, 0xf9,
	0x22, 0x22, 0xdd, 0xfd, 0x29, 0x36, 0xf3, 0x13, 0x39, 0xc1, 0x21, 0xf0, 0xf6, 0x35, 0x1c,
	0x27, 0x1a, 0xf5, 0xee, 0xf3, 0x15, 0x0c, 0xd9, 0xfe, 0x1f, 0xcd, 0xed, 0x12, 0xd9, 0xdc,
	0xd3, 0x11, 0xf8, 0xf0, 0xde, 0x0d, 0x1b, 0xd6, 0xd2, 0x02, 0xeb, 0x25, 0xe8, 0xf8, 0x19,
	0xcf, 0xf7, 0x39, 0x1c, 0xef, 0x19, 0x23, 0x00, 0xfc, 0xe0, 0xdd, 0xcf, 0x1c, 0xf8, 0xf1,
	0x18, 0x2c, 0xdf, 0x2e, 0x39, 0xfe, 0xf8, 0x1b, 0x1c, 0xeb, 0xee, 0xe4, 0xd3, 0xe9, 0x38,
	0x20, 0x00, 0xe7, 0xc8, 0x15, 0xd2, 0xd3, 0xe3, 0xd9, 0x25, 0x2b, 0xce, 0xca, 0xe6, 0x21,
	0x18, 0xdf, 0x20, 0x29, 0xf5, 0xb8, 0xd6, 0x12, 0x3b, 0x02, 0xc2, 0xdd, 0xeb, 0xcb, 0x2e,
	0xeb, 0xc7, 0x13, 0x21, 0xd2, 0xea, 0xc3, 0xf4, 0xe2, 0x12, 0xf4, 0xfe, 0xff, 0x04, 0x00,
	0x00, 0x00, 0x00, 0x02, 0x00, 0x00, 0xd2, 0xfd, 0xff, 0xff, 0xde, 0x06, 0x00, 0x00, 0xb3,
	0xf7, 0xff, 0xff, 0x0e, 0x0c, 0x00, 0x00, 0x4a, 0x13, 0x00, 0x00, 0x9c, 0xfa, 0xff, 0xff,
	0x7a, 0x02, 0x00, 0x00, 0x29, 0x09, 0x00, 0x00, 0x6c, 0x11, 0x00, 0x00, 0x00, 0x03, 0x00,
	0x00, 0x28, 0x0b, 0x00, 0x00, 0xca, 0x0a, 0x00, 0x00, 0xbc, 0x05, 0x00, 0x00, 0x4e, 0x06,
	0x00, 0x00, 0xa4, 0x02, 0x00, 0x00, 0xc7, 0x00, 0x00, 0x00, 0x16, 0xf8, 0xff, 0xff, 0xb4,
	0x09, 0x00, 0x00, 0xca, 0x17, 0x00, 0x00, 0x35, 0xfa, 0xff, 0xff, 0xcf, 0x05, 0x00, 0x00,
	0xc9, 0x02, 0x00, 0x00, 0x8c, 0xfe, 0xff, 0xff, 0x53, 0xff, 0xff, 0xff, 0x7f, 0xfc, 0xff,
	0xff, 0x36, 0xf9, 0xff, 0xff, 0x46, 0x0d, 0x00, 0x00, 0xc1, 0xf6, 0xff, 0xff, 0x93, 0x04,
	0x00, 0x00, 0x36, 0x17, 0x00, 0x00, 0x7e, 0x13, 0x00, 0x00, 0x5b, 0x05, 0x00, 0x00, 0xcf,
	0x10, 0x00, 0x00, 0xb7, 0x18, 0x00, 0x00, 0x1a, 0xff, 0xff, 0xff, 0xec, 0x04, 0x00, 0x00,
	0x28, 0x13, 0x00, 0x00, 0xfe, 0x13, 0x00, 0x00, 0x54, 0x0a, 0x00, 0x00, 0xa2, 0xfe, 0xff,
	0xff, 0x1c, 0xfc, 0xff, 0xff, 0xb1, 0x01, 0x00, 0x00, 0xe9, 0x04, 0x00, 0x00, 0xd4, 0x08,
	0x00, 0x00, 0x80, 0xfd, 0xff, 0xff, 0x93, 0xfd, 0xff, 0xff, 0x99, 0x07, 0x00, 0x00, 0x02,
	0x0e, 0x00, 0x00, 0x9d, 0x09, 0x00, 0x00, 0x01, 0x04, 0x00, 0x00, 0x39, 0xfa, 0xff, 0xff,
	0x61, 0x14, 0x00, 0x00, 0x25, 0x14, 0x00, 0x00, 0x08, 0x03, 0x00, 0x00, 0x70, 0xfa, 0xff,
	0xff, 0x7e, 0xf5, 0xff, 0xff, 0xfb, 0x09, 0x00, 0x00, 0x81, 0x11, 0x00, 0x00, 0x34, 0xf7,
	0xff, 0xff, 0x12, 0x10, 0x00, 0x00, 0x62, 0x06, 0x00, 0x00, 0x7d, 0x03, 0x00, 0x00, 0xeb,
	0x02, 0x00, 0x00, 0xfd, 0xf8, 0xff, 0xff, 0x05, 0x0d, 0x00, 0x00, 0x26, 0x0b, 0x00, 0x00,
	0x08, 0xf8, 0xff, 0xff, 0xb7, 0x10, 0x00, 0x00, 0xc0, 0x06, 0x00, 0x00, 0xd6, 0xff, 0xff,
	0xff, 0x33, 0x03, 0x00, 0x00, 0x44, 0x01, 0x00, 0x00, 0x19, 0x04, 0x00, 0x00, 0xb3, 0x0d,
	0x00, 0x00, 0x49, 0xff, 0xff, 0xff, 0xde, 0xff, 0xff, 0xff, 0xf1, 0x0e, 0x00, 0x00, 0x6a,
	0x07, 0x00, 0x00, 0xed, 0xf4, 0xff, 0xff, 0xa5, 0x0e, 0x00, 0x00, 0x37, 0x0a, 0x00, 0x00,
	0x48, 0x02, 0x00, 0x00, 0x1a, 0x07, 0x00, 0x00, 0x41, 0x0f, 0x00, 0x00, 0xbb, 0x05, 0x00,
	0x00, 0xe0, 0x0c, 0x00, 0x00, 0x17, 0x03, 0x00, 0x00, 0x84, 0xfd, 0xff, 0xff, 0x9a, 0x0a,
	0x00, 0x00, 0x2d, 0xfc, 0xff, 0xff, 0xc7, 0x04, 0x00, 0x00, 0x1d, 0x0f, 0x00, 0x00, 0x77,
	0x0d, 0x00, 0x00, 0x15, 0xfc, 0xff, 0xff, 0x9b, 0x07, 0x00, 0x00, 0xea, 0x03, 0x00, 0x00,
	0xe4, 0xf8, 0xff, 0xff, 0x57, 0x0d, 0x00, 0x00, 0xcf, 0x01, 0x00, 0x00, 0x38, 0xff, 0xff,
	0xff, 0x1b, 0x00, 0x00, 0x00, 0xc0, 0x09, 0x00, 0x00, 0x61, 0x13, 0x00, 0x00, 0xa8, 0x0a,
	0x00, 0x00, 0x5a, 0x08, 0x00, 0x00, 0xac, 0x00, 0x00, 0x00, 0x2c, 0xfc, 0xff, 0xff, 0x86,
	0x0b, 0x00, 0x00, 0xc3, 0xfe, 0xff, 0xff, 0x76, 0x07, 0x00, 0x00, 0xfa, 0xfa, 0xff, 0xff,
	0x65, 0x10, 0x00, 0x00, 0x3a, 0x01, 0x00, 0x00, 0x19, 0x03, 0x00, 0x00, 0x28, 0x00, 0x00,
	0x00, 0x83, 0x09, 0x00, 0x00, 0xbc, 0x0c, 0x00, 0x00, 0xcf, 0xfc, 0xff, 0xff, 0x88, 0x06,
	0x00, 0x00, 0x17, 0x0a, 0x00, 0x00, 0xa7, 0x03, 0x00, 0x00, 0x9d, 0x0f, 0x00, 0x00, 0xca,
	0xfe, 0xff, 0xff, 0x92, 0x08, 0x00, 0x00, 0xbc, 0x03, 0x00, 0x00, 0xf7, 0xfc, 0xff, 0xff,
	0xb6, 0x0a, 0x00, 0x00, 0x7e, 0x05, 0x00, 0x00, 0x1e, 0xf6, 0xfe, 0xff, 0x04, 0x00, 0x00,
	0x00, 0x00, 0x08, 0x00, 0x00, 0xc8, 0x43, 0x0a, 0x19, 0x53, 0x09, 0xd4, 0x04, 0xfe, 0xf2,
	0xf6, 0x17, 0x33, 0x13, 0xf5, 0x1c, 0x37, 0x02, 0x42, 0xff, 0xc0, 0x28, 0x01, 0x1b, 0xc8,
	0xb9, 0x0e, 0xf0, 0xdb, 0xdd, 0xf5, 0x01, 0x10, 0x03, 0x18, 0x0f, 0x0e, 0xfb, 0xf5, 0x1e,
	0x4a, 0x16, 0x21, 0x37, 0x11, 0x15, 0xf1, 0x35, 0xf0, 0x24, 0x25, 0xed, 0x28, 0xc3, 0xa3,
	0xf7, 0xce, 0x37, 0x45, 0xf8, 0x0e, 0xf7, 0x23, 0xf9, 0xde, 0x1e, 0xeb, 0xf9, 0x0f, 0xcb,
	0x3d, 0xf2, 0xf5, 0xf4, 0xcf, 0xd8, 0xe3, 0x5d, 0x31, 0x14, 0x07, 0x10, 0x00, 0xff, 0xd5,
	0xea, 0x13, 0xee, 0xdc, 0xf2, 0x0c, 0x24, 0x38, 0xe7, 0x25, 0xfb, 0xdf, 0x0c, 0x21, 0xff,
	0x0b, 0x21, 0x00, 0x41, 0xc4, 0x3e, 0xcb, 0x0e, 0xf4, 0x02, 0xfe, 0xaf, 0x06, 0x25, 0xeb,
	0xcc, 0x16, 0x3c, 0x10, 0x27, 0x1e, 0x16, 0xc7, 0xc6, 0x12, 0x2d, 0xe5, 0xb8, 0x43, 0xd7,
	0x08, 0x05, 0x2a, 0x10, 0x1f, 0x9e, 0x00, 0x0a, 0xeb, 0xdf, 0xf3, 0x04, 0x23, 0x33, 0x28,
	0xfe, 0xed, 0xc7, 0x04, 0x32, 0xf3, 0xe0, 0x23, 0xd8, 0xde, 0xfb, 0x06, 0xf7, 0xcb, 0xce,
	0xe7, 0xdc, 0x06, 0xfb, 0xf7, 0x04, 0x18, 0x1f, 0x16, 0xfd, 0x1c, 0xc7, 0xed, 0x36, 0xfa,
	0xdf, 0x42, 0xd2, 0x29, 0xe9, 0xe0, 0x03, 0x27, 0xc7, 0x06, 0x02, 0x28, 0x17, 0xf2, 0x17,
	0x06, 0x02, 0xda, 0x05, 0x09, 0xf5, 0x15, 0xec, 0x1c, 0x37, 0x18, 0x26, 0xfd, 0xdb, 0xdc,
	0x22, 0xd4, 0xe8, 0xe5, 0xf4, 0xff, 0xbf, 0xf5, 0x40, 0xdc, 0x4e, 0x00, 0x13, 0x0f, 0xe4,
	0x3c, 0xd9, 0x48, 0xed, 0x3a, 0x12, 0xfb, 0x25, 0xea, 0x09, 0x00, 0xfd, 0x3d, 0x17, 0x14,
	0xfe, 0xcf, 0x40, 0xf3, 0x19, 0xf3, 0x0e, 0xe0, 0x18, 0xe2, 0x0a, 0xee, 0xed, 0x20, 0x16,
	0x31, 0xd3, 0x3a, 0x19, 0x23, 0xee, 0xef, 0xd9, 0xfc, 0x2b, 0xf2, 0xd2, 0xce, 0x0e, 0x04,
	0xe9, 0xf9, 0x28, 0x0c, 0x28, 0xe1, 0x01, 0x04, 0x0d, 0x04, 0xe1, 0xe5, 0x24, 0x09, 0xf8,
	0xed, 0x26, 0xef, 0xe7, 0xff, 0x32, 0xe6, 0xdc, 0xed, 0x46, 0xfd, 0xbd, 0x25, 0x06, 0x01,
	0x33, 0xb8, 0x0f, 0x30, 0xaf, 0xbb, 0x22, 0xec, 0x04, 0x06, 0x10, 0xe4, 0x05, 0xd4, 0x1c,
	0xf0, 0x39, 0xfa, 0xfe, 0x2a, 0x15, 0xd0, 0xeb, 0xfd, 0x13, 0xff, 0xe8, 0x31, 0xfe, 0x27,
	0x0e, 0xdd, 0xe7, 0x09, 0x4b, 0x08, 0x09, 0xf4, 0x13, 0xea, 0xd0, 0xe4, 0xe5, 0xfa, 0x12,
	0x06, 0xe6, 0x16, 0x14, 0xeb, 0xf2, 0xd7, 0xcb, 0x07, 0x02, 0xe4, 0xfe, 0x19, 0x4e, 0x07,
	0xd8, 0xe5, 0x24, 0x12, 0x05, 0x00, 0x39, 0xf9, 0x4a, 0x0c, 0x2e, 0xc9, 0x12, 0x28, 0x43,
	0xef, 0xf6, 0x1b, 0x28, 0x39, 0xeb, 0x33, 0xf7, 0xd4, 0xf2, 0x37, 0x01, 0x12, 0xc1, 0x31,
	0x50, 0xfc, 0xee, 0x17, 0xf4, 0x20, 0x3d, 0xe3, 0x03, 0xee, 0x0a, 0x52, 0xff, 0x40, 0x11,
	0x04, 0x11, 0x3d, 0x2c, 0xd7, 0x0d, 0x0e, 0x00, 0xd4, 0xa3, 0x2e, 0x35, 0x28, 0x22, 0xdc,
	0xe2, 0xf5, 0xa8, 0x0c, 0xa2, 0x22, 0x26, 0xd1, 0x2f, 0x1b, 0xf8, 0xf8, 0x0b, 0xf7, 0x01,
	0xff, 0x0f, 0x33, 0x2a, 0x10, 0x26, 0x1c, 0x14, 0xf0, 0x36, 0xfd, 0xdc, 0x0d, 0x1d, 0xf0,
	0x03, 0xf5, 0x0a, 0xf4, 0x0f, 0x1e, 0xf1, 0x08, 0x08, 0x20, 0xf3, 0x33, 0x44, 0x27, 0xd9,
	0x0f, 0xe2, 0xe9, 0x11, 0x02, 0x2e, 0x19, 0xde, 0x12, 0xce, 0x1c, 0xc9, 0xd9, 0x06, 0x24,
	0xe6, 0xcb, 0xf6, 0x2d, 0x2b, 0x05, 0xcb, 0x37, 0x01, 0xc3, 0x33, 0x15, 0x21, 0x3f, 0x11,
	0xf3, 0xb3, 0xc6, 0xfb, 0x5e, 0xe0, 0xf4, 0xd5, 0xe1, 0xe3, 0x1f, 0xc8, 0xec, 0x16, 0xf8,
	0x3e, 0xe7, 0x21, 0x23, 0x54, 0x29, 0x2c, 0xff, 0x02, 0x18, 0xa1, 0x26, 0xe9, 0xda, 0xeb,
	0x1a, 0xe3, 0x0b, 0xff, 0xe3, 0xe9, 0xf8, 0x11, 0xc9, 0xe9, 0x25, 0xb5, 0x28, 0x11, 0x2e,
	0x0b, 0x22, 0xda, 0x2e, 0xcc, 0x20, 0x1a, 0x16, 0x21, 0xfd, 0xfa, 0x14, 0x2f, 0x38, 0x47,
	0x0f, 0x43, 0x27, 0x26, 0xf3, 0xea, 0x09, 0xea, 0x37, 0x3b, 0x1c, 0x20, 0x0d, 0x09, 0x16,
	0x0c, 0xe1, 0x15, 0x20, 0x11, 0xe8, 0xce, 0xed, 0x15, 0xdd, 0xf5, 0xef, 0xfe, 0x17, 0xfb,
	0x1e, 0xe9, 0xc6, 0xb7, 0xfc, 0x49, 0xcc, 0x00, 0xcc, 0x09, 0x1e, 0x05, 0xea, 0x0f, 0x21,
	0xcf, 0x16, 0xe7, 0x16, 0xea, 0x3b, 0xc9, 0xcb, 0xf7, 0x28, 0x42, 0x27, 0x31, 0xc4, 0x24,
	0x23, 0x08, 0xc0, 0xcb, 0x28, 0x0c, 0xd7, 0x07, 0xe3, 0x14, 0x04, 0x42, 0x04, 0x00, 0x0c,
	0x29, 0xfe, 0x1b, 0x22, 0x07, 0x13, 0xfd, 0xf8, 0x0b, 0xd5, 0xdf, 0x3e, 0x0c, 0xd5, 0x2b,
	0x31, 0x1e, 0xee, 0x06, 0xeb, 0xf4, 0x04, 0xdd, 0xfd, 0x12, 0xe2, 0xeb, 0x39, 0xdb, 0xe6,
	0x06, 0xfe, 0x4e, 0xf1, 0x03, 0x3f, 0x05, 0x49, 0x2b, 0xac, 0xe3, 0xf2, 0xcf, 0x03, 0xd6,
	0x0d, 0xfa, 0x13, 0x44, 0xf2, 0xf9, 0x30, 0x30, 0x24, 0x2b, 0xee, 0x39, 0xdf, 0xb7, 0x0f,
	0x19, 0xd9, 0xd3, 0x24, 0xe7, 0x16, 0x0f, 0x28, 0xdc, 0xf5, 0x09, 0xd5, 0x16, 0x2a, 0xc0,
	0x2c, 0x0c, 0x16, 0xe7, 0x1d, 0xc2, 0x09, 0xf6, 0xfd, 0xef, 0x25, 0x06, 0xfd, 0x15, 0x06,
	0x35, 0x23, 0x18, 0x47, 0xd6, 0x3b, 0x21, 0xf8, 0xf8, 0x0c, 0x24, 0xee, 0x09, 0x06, 0xb6,
	0xe6, 0x27, 0xd4, 0x0a, 0xf5, 0xf7, 0xe6, 0x0a, 0x30, 0xec, 0xfe, 0xd3, 0x10, 0xea, 0x30,
	0xec, 0x16, 0xd4, 0xf0, 0xcc, 0x0a, 0xbd, 0xec, 0x18, 0x17, 0xc8, 0xf3, 0xfa, 0x1d, 0xcd,
	0xe1, 0xdd, 0xcc, 0xff, 0xf7, 0xeb, 0xfb, 0xe2, 0x1b, 0x0c, 0xe1, 0xed, 0xd8, 0xfc, 0xf0,
	0xc6, 0x09, 0x0a, 0xe6, 0xdd, 0xf6, 0xf1, 0x11, 0xf2, 0xfa, 0x2d, 0x09, 0xfb, 0x25, 0x22,
	0x27, 0xf1, 0x03, 0x0f, 0xc5, 0x37, 0x01, 0x0a, 0x20, 0x2d, 0x04, 0x23, 0xef, 0x1b, 0x34,
	0xef, 0xe9, 0x00, 0xd8, 0xd8, 0xe2, 0x14, 0xfc, 0xcf, 0x0e, 0x18, 0xbc, 0xde, 0xea, 0xc3,
	0xf4, 0x2b, 0xb4, 0x31, 0xc3, 0x06, 0xf4, 0xc4, 0xff, 0x04, 0x0c, 0x42, 0x1f, 0x1e, 0x1e,
	0x13, 0xe7, 0x11, 0xbf, 0xf2, 0xd6, 0xdd, 0x01, 0xae, 0x0f, 0x2b, 0x25, 0x1e, 0xc7, 0x0a,
	0x37, 0x2b, 0x1b, 0xf7, 0xb1, 0x33, 0xf5, 0x23, 0xfb, 0xf2, 0x12, 0xe6, 0x2e, 0x01, 0x2d,
	0xd3, 0xdd, 0x2b, 0xdd, 0x13, 0x12, 0xfc, 0xfb, 0xdf, 0xed, 0xc8, 0x2d, 0x0d, 0xfc, 0xe4,
	0x2c, 0x1d, 0xec, 0xf5, 0x3e, 0xc7, 0x11, 0x40, 0xf6, 0x09, 0x2e, 0x09, 0xe9, 0xc7, 0x17,
	0xc3, 0xde, 0x04, 0x23, 0x05, 0x47, 0xc4, 0xf5, 0x07, 0xea, 0x02, 0x17, 0xe9, 0xd8, 0x10,
	0x00, 0xd1, 0x50, 0x1b, 0x1d, 0xda, 0x05, 0xf5, 0xf0, 0xf8, 0x03, 0xed, 0x08, 0xc1, 0x23,
	0x08, 0x13, 0x1e, 0xee, 0x2f, 0xcd, 0xed, 0xf7, 0x0d, 0x1a, 0xdd, 0x25, 0x0e, 0xf0, 0x3e,
	0xf6, 0xfa, 0xf6, 0x07, 0xde, 0x0d, 0x3f, 0xda, 0xf6, 0xf9, 0xda, 0xd7, 0xef, 0x1c, 0x16,
	0x01, 0xf9, 0x00, 0xed, 0xdc, 0x1b, 0xce, 0x3a, 0x08, 0xf1, 0xe2, 0xc6, 0x1e, 0xe8, 0xd0,
	0xb7, 0x09, 0xd7, 0xe5, 0x29, 0xc6, 0x18, 0xf3, 0x1c, 0xf9, 0x37, 0x19, 0x09, 0x1b, 0x1b,
	0xf8, 0xc7, 0x0f, 0xbe, 0xc5, 0x2c, 0xfe, 0xdc, 0x06, 0x0b, 0xe5, 0xee, 0xe3, 0xfc, 0xd9,
	0x1a, 0x36, 0x1c, 0x09, 0x14, 0xfe, 0xe7, 0xda, 0x42, 0xe8, 0xcf, 0xe0, 0x1e, 0xcc, 0xf0,
	0x20, 0xdc, 0x06, 0x1e, 0x1a, 0x11, 0xf5, 0x1a, 0xda, 0xfc, 0x24, 0x16, 0xd6, 0xe4, 0x05,
	0x32, 0xf9, 0x31, 0xea, 0xfa, 0xe5, 0xea, 0xdf, 0x31, 0x1a, 0x2c, 0x1e, 0x42, 0x03, 0xd9,
	0xd2, 0x1f, 0xd3, 0x15, 0x02, 0xf7, 0x0c, 0xc1, 0xf9, 0xf1, 0x32, 0x06, 0xb7, 0x00, 0x24,
	0x27, 0xe7, 0x16, 0xe6, 0x2a, 0xb1, 0x1d, 0xf0, 0x41, 0xfb, 0xdb, 0xfc, 0xf0, 0x47, 0xfa,
	0xe0, 0xf6, 0x10, 0xf4, 0xd7, 0xfa, 0xde, 0x09, 0xf4, 0xb3, 0x25, 0x11, 0xc7, 0x1c, 0xd3,
	0x2d, 0xe4, 0x0a, 0x42, 0xf6, 0x3e, 0xe5, 0x3d, 0x2c, 0xd9, 0x3c, 0xfd, 0x0a, 0x05, 0x31,
	0x0d, 0xdd, 0x22, 0xe7, 0xd8, 0xdd, 0xec, 0xdf, 0xf0, 0xe8, 0x07, 0x0d, 0x24, 0x25, 0xf9,
	0x14, 0x21, 0xda, 0xd8, 0xfb, 0xf8, 0x23, 0xd8, 0x27, 0x1d, 0xe7, 0xf6, 0x2f, 0xfb, 0x29,
	0x05, 0xf3, 0x0e, 0x0c, 0x05, 0xcb, 0xcf, 0x1e, 0x13, 0xfb, 0x1c, 0xdc, 0xf4, 0x0d, 0x37,
	0xf2, 0xb1, 0xb3, 0x25, 0xd6, 0x18, 0x52, 0x2a, 0x09, 0xe5, 0x05, 0xd6, 0x20, 0xe1, 0xe8,
	0x0b, 0x04, 0xf4, 0xa5, 0x1b, 0x00, 0xef, 0xf3, 0xf3, 0x25, 0xec, 0xc9, 0xc9, 0xda, 0x05,
	0x33, 0x30, 0x0f, 0x31, 0x1b, 0x22, 0xfd, 0xde, 0xde, 0xef, 0xdc, 0x31, 0x0b, 0xd7, 0x19,
	0x1c, 0xef, 0x0b, 0xf7, 0x22, 0x38, 0x15, 0xbc, 0x06, 0x15, 0xd6, 0x0a, 0x09, 0xcd, 0x39,
	0xe5, 0x16, 0xc5, 0x45, 0xf2, 0x13, 0x00, 0x13, 0xeb, 0x0a, 0xc2, 0x44, 0xd0, 0xbb, 0xde,
	0xd4, 0xd1, 0xec, 0xce, 0x3b, 0xee, 0xe1, 0x12, 0xe5, 0x23, 0x4c, 0x42, 0x29, 0x1c, 0x02,
	0xf8, 0xf1, 0xda, 0xe1, 0xbd, 0xe9, 0x40, 0x29, 0xf2, 0x04, 0xda, 0x1f, 0x07, 0xdc, 0x2c,
	0x32, 0x1c, 0xf0, 0x1e, 0xe6, 0x06, 0xff, 0xdd, 0xf7, 0x39, 0x12, 0x3b, 0xd2, 0x28, 0x18,
	0x01, 0x2a, 0x1b, 0xdb, 0x0b, 0xe0, 0xec, 0x10, 0x14, 0xef, 0xe1, 0xed, 0x15, 0xc9, 0x13,
	0x45, 0x0d, 0x05, 0xe7, 0xfc, 0x00, 0x07, 0x27, 0xda, 0x14, 0x25, 0xe8, 0x48, 0x18, 0x23,
	0x30, 0xcc, 0xe5, 0x25, 0xde, 0x12, 0xc8, 0x01, 0x14, 0x0c, 0x18, 0x20, 0xd0, 0x21, 0x12,
	0xe1, 0x48, 0x09, 0xe5, 0x2b, 0xe4, 0x0c, 0x49, 0x1a, 0xd0, 0xfe, 0x10, 0xf2, 0xfd, 0x2a,
	0xfa, 0xdb, 0x20, 0x2e, 0xd4, 0xf0, 0x0c, 0x22, 0xe6, 0xd7, 0x09, 0xe0, 0x25, 0x14, 0x09,
	0x10, 0xda, 0xca, 0xf3, 0x27, 0xc1, 0x08, 0x3f, 0x0d, 0x23, 0xf8, 0x00, 0x15, 0x1a, 0xe8,
	0x04, 0x13, 0x1a, 0xce, 0x14, 0x04, 0xeb, 0x0b, 0x9f, 0xd9, 0xe6, 0xd7, 0xfc, 0xbe, 0xe1,
	0x0d, 0xef, 0xff, 0x0b, 0xe1, 0xde, 0x11, 0x0b, 0xf4, 0xc7, 0x00, 0xfd, 0x22, 0xe5, 0xe0,
	0xe5, 0xe2, 0xfc, 0xeb, 0xfb, 0xe5, 0xe3, 0xfc, 0x11, 0xfd, 0xdc, 0x2d, 0x26, 0x10, 0x2a,
	0xeb, 0xfd, 0xde, 0xed, 0xee, 0xff, 0xd6, 0x02, 0x02, 0x02, 0xee, 0x10, 0x3a, 0x16, 0xc4,
	0x3b, 0x13, 0xd1, 0xfc, 0x04, 0x00, 0x0c, 0x0e, 0xe8, 0xe4, 0x27, 0x4b, 0x25, 0xd4, 0x08,
	0xd2, 0x10, 0xf4, 0xe6, 0xf9, 0xea, 0x39, 0x2c, 0xde, 0x14, 0xec, 0xe1, 0xe6, 0x25, 0x10,
	0xfb, 0x24, 0x0d, 0xf0, 0xef, 0x20, 0xea, 0xec, 0x0e, 0xe8, 0x02, 0xfa, 0x09, 0xe1, 0xc1,
	0x18, 0xe5, 0xf4, 0xfa, 0xf8, 0x2b, 0xd7, 0xcb, 0x03, 0x2f, 0xe2, 0x2b, 0xe9, 0x18, 0xdd,
	0xea, 0x0a, 0x16, 0x0c, 0x24, 0xe5, 0x46, 0xc9, 0xdb, 0x0b, 0xdd, 0x10, 0x12, 0xfa, 0x04,
	0x00, 0xd0, 0x1a, 0xe7, 0x52, 0x0a, 0x22, 0x3b, 0xe8, 0x14, 0xe5, 0xda, 0xd8, 0x23, 0xcc,
	0x43, 0xe7, 0xb7, 0x0a, 0xc5, 0xed, 0x0b, 0x28, 0xd2, 0x0e, 0xe4, 0x21, 0x32, 0x01, 0x1c,
	0x1c, 0x0c, 0x02, 0xe1, 0xf1, 0xec, 0x11, 0x24, 0x10, 0xe5, 0xe7, 0xdc, 0x1c, 0x19, 0x27,
	0x0f, 0xc2, 0xf0, 0x0a, 0x07, 0xe9, 0xd2, 0xe4, 0xef, 0xc6, 0xe2, 0xc6, 0xec, 0xc6, 0x01,
	0xce, 0x24, 0xfe, 0x0c, 0xfb, 0x06, 0x10, 0xeb, 0xf2, 0xdc, 0x35, 0xd1, 0x09, 0x34, 0xfd,
	0xe4, 0x06, 0x07, 0xf6, 0x10, 0x0e, 0xe8, 0xfb, 0x29, 0xf0, 0xf3, 0x0c, 0x3a, 0x13, 0x24,
	0x03, 0xde, 0xd9, 0x15, 0xca, 0x15, 0x08, 0xf3, 0x43, 0x1f, 0x15, 0xd2, 0xff, 0xe6, 0x1c,
	0xee, 0x12, 0x17, 0x0d, 0x38, 0x15, 0xd1, 0x01, 0x44, 0x11, 0xc9, 0x29, 0xfc, 0xfd, 0x38,
	0xba, 0xed, 0x26, 0x2b, 0x3d, 0xf7, 0x33, 0xc1, 0xf0, 0x0c, 0x23, 0x04, 0x03, 0x03, 0x2b,
	0x53, 0xcd, 0x09, 0xeb, 0x1e, 0x20, 0xc0, 0x0f, 0xd5, 0xf8, 0xe1, 0xd6, 0xd2, 0x9b, 0xe6,
	0x1e, 0xf8, 0x29, 0xef, 0x0f, 0x07, 0xfb, 0xd4, 0xf6, 0xeb, 0x00, 0xf7, 0x2d, 0x5c, 0xfe,
	0xeb, 0x34, 0x0d, 0x17, 0xd3, 0x12, 0xef, 0xc2, 0xe3, 0xf9, 0xeb, 0x2b, 0xda, 0xed, 0xf5,
	0x3a, 0x09, 0x29, 0x42, 0x02, 0xd0, 0xce, 0xf8, 0x06, 0x2a, 0x40, 0xe9, 0xe8, 0xf5, 0xe2,
	0x4f, 0x4d, 0x09, 0x38, 0xf9, 0x0e, 0xd5, 0x23, 0xdb, 0x03, 0xef, 0xf2, 0x1a, 0x13, 0xe4,
	0x20, 0x0e, 0x37, 0xfb, 0x29, 0x07, 0x0f, 0x2a, 0x33, 0x4e, 0xd1, 0x16, 0x34, 0xf0, 0x2f,
	0xfb, 0xec, 0x29, 0x0a, 0x0f, 0x37, 0xc9, 0x29, 0x25, 0x1e, 0xef, 0xd8, 0xee, 0x0a, 0x26,
	0x1f, 0xd8, 0xdc, 0x2b, 0x05, 0x24, 0xe0, 0x1f, 0x00, 0x10, 0xfe, 0xe9, 0x07, 0x27, 0xea,
	0xd2, 0xd0, 0x0f, 0xde, 0x20, 0xdd, 0x02, 0xfa, 0x3d, 0xc8, 0x47, 0xf9, 0xef, 0xe7, 0x0b,
	0xa5, 0xe2, 0xf0, 0xce, 0x19, 0xbb, 0x34, 0xfa, 0xec, 0xd2, 0x26, 0xdd, 0x54, 0xf7, 0xec,
	0xa9, 0x38, 0xa4, 0x26, 0xdd, 0xf2, 0x2e, 0xd3, 0x07, 0x1e, 0x30, 0x40, 0xe4, 0x27, 0xfb,
	0xf4, 0xce, 0x02, 0x27, 0x06, 0xfb, 0xde, 0x2a, 0x2d, 0xd8, 0x1e, 0x0b, 0xe8, 0x15, 0x1a,
	0x09, 0xe4, 0x19, 0xf3, 0xa4, 0xf3, 0x09, 0x22, 0x02, 0xf5, 0x47, 0x06, 0xd7, 0x06, 0x38,
	0xfc, 0xfa, 0x30, 0x01, 0x08, 0xe9, 0xef, 0x27, 0xfa, 0xcf, 0x09, 0xff, 0x46, 0x18, 0x05,
	0x25, 0x0c, 0x44, 0xd2, 0x07, 0x14, 0xfd, 0xf8, 0xeb, 0x27, 0xfb, 0x0e, 0x23, 0xfa, 0xde,
	0x19, 0x06, 0x21, 0xf3, 0xef, 0x2c, 0x11, 0xd4, 0xe0, 0xfe, 0x29, 0x34, 0xea, 0xf1, 0x05,
	0x39, 0xea, 0x11, 0x14, 0x00, 0x10, 0xf1, 0x32, 0xed, 0x02, 0xd9, 0x30, 0xcb, 0x03, 0xfc,
	0xda, 0xcb, 0x18, 0x35, 0x5a, 0x1a, 0x0b, 0xed, 0x2f, 0x20, 0x4f, 0x08, 0x41, 0xcd, 0xe3,
	0x01, 0x3b, 0x23, 0x08, 0x15, 0xf0, 0xe1, 0xa8, 0xfb, 0x10, 0xd5, 0x0f, 0xdf, 0xb7, 0xef,
	0x04, 0xca, 0x09, 0xcb, 0xf4, 0xf9, 0x0a, 0xf4, 0xad, 0xbe, 0x1c, 0x92, 0x31, 0xdc, 0xe0,
	0xed, 0x1c, 0xdd, 0xd5, 0xf9, 0xda, 0xd6, 0x1a, 0x40, 0xeb, 0x3a, 0x08, 0xf1, 0xfb, 0xd7,
	0xe5, 0x14, 0x15, 0xf3, 0x1f, 0xfe, 0xfb, 0x04, 0xf2, 0xe7, 0xf9, 0x11, 0xe4, 0xce, 0x25,
	0x04, 0xe3, 0x16, 0x2a, 0xdb, 0x14, 0x16, 0x08, 0xf7, 0xe3, 0x36, 0x17, 0x09, 0xc2, 0xaf,
	0x0f, 0xe2, 0xfe, 0xfe, 0x14, 0xd4, 0x3b, 0x09, 0xc1, 0x07, 0xef, 0x1f, 0x09, 0x28, 0xd5,
	0xb8, 0xfa, 0x14, 0xec, 0xef, 0xf5, 0x17, 0x00, 0xfb, 0x06, 0x7f, 0xca, 0xfd, 0x14, 0x19,
	0xf2, 0x22, 0xde, 0xe0, 0xcb, 0xf4, 0x4e, 0xdf, 0x52, 0x1f, 0xbf, 0xfb, 0xcf, 0x55, 0x01,
	0xf5, 0x15, 0xfd, 0x05, 0xd6, 0x0b, 0xf6, 0xfa, 0xec, 0xe3, 0xf7, 0xf1, 0x3a, 0x04, 0xcb,
	0xd1, 0x14, 0xd6, 0x1a, 0xc4, 0xb7, 0xdc, 0xcd, 0x14, 0xc1, 0x1d, 0xcd, 0xd6, 0x2a, 0xfe,
	0xfe, 0xff, 0x04, 0x00, 0x00, 0x00, 0x40, 0x00, 0x00, 0x00, 0x01, 0x00, 0x00, 0x00, 0xea,
	0xff, 0xff, 0xff, 0x0a, 0x00, 0x00, 0x00, 0xfc, 0xff, 0xff, 0xff, 0xf9, 0xff, 0xff, 0xff,
	0x01, 0x00, 0x00, 0x00, 0x1a, 0x00, 0x00, 0x00, 0x03, 0x00, 0x00, 0x00, 0xf7, 0xff, 0xff,
	0xff, 0x04, 0x00, 0x00, 0x00, 0xdd, 0xff, 0xff, 0xff, 0xed, 0xff, 0xff, 0xff, 0x0c, 0x00,
	0x00, 0x00, 0x1a, 0x00, 0x00, 0x00, 0x03, 0x00, 0x00, 0x00, 0xe2, 0xff, 0xff, 0xff, 0x76,
	0xfe, 0xfe, 0xff, 0x04, 0x00, 0x00, 0x00, 0x00, 0x78, 0x00, 0x00, 0xfc, 0x09, 0x0e, 0xf9,
	0x2f, 0x7f, 0x0b, 0x42, 0x11, 0x14, 0xed, 0xfc, 0x06, 0xf4, 0x0d, 0xf4, 0x0a, 0xff, 0xee,
	0xfd, 0xef, 0x26, 0x0a, 0xca, 0xbd, 0xe7, 0x59, 0x19, 0xcf, 0xe0, 0x13, 0x07, 0x19, 0x07,
	0x2a, 0x36, 0x17, 0x06, 0xf5, 0xeb, 0x30, 0x1a, 0x26, 0xed, 0x14, 0x0c, 0xf7, 0xf7, 0x0c,
	0xd7, 0xe6, 0xeb, 0xf2, 0x04, 0xd9, 0xf2, 0xfc, 0xde, 0xf5, 0xe2, 0x02, 0x11, 0xfd, 0xd5,
	0x0d, 0x16, 0x01, 0xf0, 0x11, 0xe7, 0x1b, 0xfc, 0x25, 0xd5, 0x0c, 0x01, 0x14, 0xe7, 0xf8,
	0xf9, 0xe5, 0xd8, 0x08, 0x1d, 0xf2, 0x15, 0xf8, 0xf6, 0x1e, 0xf1, 0xda, 0xe7, 0x14, 0xfb,
	0x07, 0x04, 0xfd, 0x03, 0x08, 0xe4, 0x4c, 0x03, 0x03, 0xfb, 0x1a, 0x06, 0xec, 0xed, 0x07,
	0x1c, 0xf4, 0xf4, 0xf0, 0x33, 0xf0, 0xfd, 0x23, 0x08, 0x2c, 0x1b, 0xf1, 0xf3, 0x0d, 0x04,
	0x10, 0x34, 0x19, 0x33, 0xfa, 0x10, 0xf3, 0x03, 0x07, 0x05, 0xfa, 0xf2, 0x07, 0x0f, 0xf5,
	0x08, 0xda, 0x0f, 0xf9, 0xed, 0xf5, 0xf6, 0x3d, 0x16, 0xf0, 0xfb, 0xfd, 0x05, 0x10, 0xf9,
	0x15, 0x0c, 0x0b, 0x03, 0xfe, 0xed, 0x1e, 0x0e, 0x17, 0x09, 0x14, 0x0f, 0x09, 0xf2, 0xfd,
	0xe2, 0xea, 0xf0, 0xf3, 0x00, 0xe4, 0x04, 0x00, 0xf7, 0xea, 0xf9, 0x01, 0x0b, 0xee, 0xeb,
	0xfd, 0x02, 0xfb, 0xf5, 0x04, 0xf4, 0x09, 0xf6, 0x10, 0xda, 0x00, 0x06, 0x0b, 0xf5, 0xfb,
	0x02, 0xe9, 0xef, 0xf4, 0x0e, 0xf4, 0x0f, 0xde, 0xf5, 0x24, 0xef, 0xe7, 0xf6, 0x10, 0xf4,
	0x19, 0x06, 0x03, 0xfa, 0x03, 0xee, 0x1d, 0x0b, 0x14, 0xfb, 0x05, 0xfd, 0xf1, 0xf2, 0xf3,
	0xfe, 0xf8, 0x05, 0x04, 0x14, 0xf3, 0xff, 0x11, 0xfe, 0x36, 0xfe, 0xfd, 0xfc, 0xfc, 0x03,
	0x16, 0x11, 0x1e, 0x3a, 0x01, 0x11, 0xfe, 0x04, 0xfb, 0x02, 0x09, 0xf8, 0x04, 0x02, 0xf3,
	0x0f, 0xea, 0x09, 0x07, 0xe1, 0xe3, 0x08, 0x37, 0x1d, 0xe8, 0xea, 0x0a, 0xf8, 0xff, 0x07,
	0x11, 0x07, 0x25, 0x0c, 0x05, 0xf9, 0x2b, 0x19, 0x1c, 0x0b, 0x15, 0x10, 0x03, 0xf0, 0xfc,
	0xe4, 0xe4, 0xe7, 0x09, 0x0c, 0xf5, 0xe9, 0x00, 0xf5, 0xef, 0xf6, 0xfc, 0x08, 0xf5, 0xf2,
	0xf4, 0xf9, 0xf8, 0xfb, 0x09, 0xf4, 0x25, 0xf3, 0xf7, 0xe6, 0x0d, 0x1a, 0xfa, 0xf7, 0xf1,
	0x0a, 0xff, 0xee, 0xf8, 0x12, 0xec, 0x06, 0xf5, 0xf3, 0x13, 0xf8, 0xf4, 0x0a, 0x0b, 0xfc,
	0x0c, 0x09, 0xfd, 0xfa, 0xf6, 0xfb, 0x0e, 0x0b, 0x13, 0xfd, 0x0d, 0x03, 0xdf, 0xf7, 0xfd,
	0xff, 0x05, 0x07, 0xfe, 0x0c, 0x01, 0x11, 0xfe, 0x08, 0x16, 0x14, 0xf5, 0xf5, 0x04, 0x02,
	0x1c, 0x12, 0x0c, 0x33, 0x10, 0x14, 0xf2, 0x0c, 0x0a, 0x08, 0x0a, 0xfe, 0x05, 0x05, 0xf0,
	0x07, 0xea, 0xf5, 0xf7, 0xef, 0xf5, 0xe8, 0x33, 0x16, 0xe1, 0xff, 0xfa, 0xf8, 0xf9, 0x07,
	0x0c, 0x09, 0x14, 0xf5, 0xf9, 0xe8, 0x14, 0x11, 0x1e, 0xf5, 0x18, 0x0a, 0x03, 0xeb, 0xf8,
	0xf3, 0xf5, 0xd6, 0x0d, 0xec, 0xe9, 0xfb, 0xf4, 0xfd, 0xf5, 0xfb, 0x07, 0xfb, 0x0b, 0xf4,
	0xe4, 0xf8, 0xf7, 0x06, 0x02, 0xf3, 0x0d, 0xf5, 0xff, 0xed, 0x17, 0x07, 0xed, 0xf6, 0x00,
	0xf5, 0x03, 0xff, 0xff, 0x1a, 0xf1, 0xf1, 0xea, 0xe4, 0x16, 0xdf, 0xe9, 0x0c, 0x0f, 0xff,
	0x06, 0xfa, 0xf3, 0xec, 0x10, 0xf4, 0x01, 0x0f, 0x0d, 0x05, 0xfe, 0xf5, 0xfd, 0x02, 0xfe,
	0x10, 0xfd, 0xfa, 0xfc, 0x17, 0xfe, 0xfc, 0x14, 0xfd, 0x30, 0x13, 0x07, 0xf1, 0x13, 0x01,
	0x05, 0x1a, 0xfc, 0x32, 0xf9, 0x17, 0x05, 0xf6, 0x05, 0x07, 0x0e, 0xfe, 0x01, 0x09, 0xf3,
	0xfd, 0xec, 0xff, 0x07, 0xf0, 0xf2, 0xe7, 0x24, 0x17, 0xe8, 0xf3, 0x1e, 0x00, 0xea, 0x03,
	0x14, 0x15, 0x2b, 0xfe, 0x06, 0xf5, 0x07, 0x13, 0x19, 0xf9, 0x17, 0xfc, 0x07, 0xef, 0xf0,
	0xe0, 0xfc, 0xe8, 0x0a, 0xfb, 0xf5, 0xee, 0x06, 0xfe, 0xf4, 0x06, 0xfc, 0x01, 0x06, 0xf0,
	0xfd, 0x11, 0x06, 0x0c, 0x15, 0x06, 0x1f, 0xf5, 0xf6, 0xf0, 0x10, 0x06, 0xff, 0xf6, 0xfc,
	0x0e, 0xf2, 0xfe, 0x0c, 0x11, 0xec, 0xfd, 0xfd, 0xe6, 0x17, 0xeb, 0xec, 0x02, 0xf8, 0xf0,
	0xfe, 0x0b, 0xf9, 0xed, 0x01, 0xe9, 0x0c, 0x18, 0x1d, 0xf3, 0x05, 0xf1, 0xe5, 0x0f, 0xf2,
	0x00, 0xf5, 0xef, 0x07, 0x15, 0xf3, 0x06, 0x10, 0x03, 0x24, 0x18, 0xf3, 0xe8, 0x0d, 0xfb,
	0x0b, 0x02, 0x05, 0x44, 0x00, 0x11, 0xfb, 0x06, 0x04, 0x09, 0x0d, 0xfa, 0xfe, 0x11, 0xea,
	0x05, 0xec, 0xfc, 0xf2, 0xdc, 0xf1, 0xf5, 0x2d, 0x1b, 0xe6, 0xfd, 0x1c, 0x01, 0xf9, 0xff,
	0x1b, 0x0e, 0x15, 0x0a, 0x05, 0xee, 0x12, 0x0c, 0x0e, 0xf7, 0x0e, 0xfd, 0xf4, 0xf1, 0x05,
	0xeb, 0xfc, 0xdc, 0xfa, 0xf3, 0xfd, 0x03, 0x04, 0xf2, 0xf9, 0x01, 0xe6, 0x01, 0x13, 0xea,
	0xf4, 0xfd, 0xf4, 0x0f, 0x0c, 0xed, 0x03, 0x05, 0xf5, 0xf0, 0x06, 0x04, 0x04, 0x02, 0xef,
	0xfe, 0x0c, 0x02, 0x05, 0x17, 0xfa, 0xfd, 0xea, 0xed, 0x0f, 0xf3, 0xec, 0xfb, 0x02, 0x11,
	0xec, 0x0c, 0x0f, 0x0c, 0x0f, 0xf0, 0x06, 0x20, 0x08, 0x05, 0x07, 0xff, 0xfb, 0xf8, 0xf3,
	0x06, 0xfa, 0xf6, 0x00, 0x1d, 0xf6, 0x0e, 0x07, 0xf3, 0x1a, 0x1c, 0xf6, 0xee, 0xfb, 0xf7,
	0x21, 0x0f, 0x04, 0x3f, 0x07, 0x10, 0xfd, 0x02, 0x0f, 0xfe, 0x07, 0xf7, 0x04, 0x12, 0xe7,
	0xfd, 0xe9, 0xf5, 0xf5, 0xed, 0xf2, 0xee, 0x22, 0x16, 0xe4, 0xf8, 0x0f, 0xfc, 0xf3, 0x09,
	0x0c, 0x21, 0x18, 0xfc, 0xf3, 0xe7, 0x0b, 0xfe, 0x1c, 0xf5, 0x0e, 0x04, 0xfe, 0xf2, 0x04,
	0xed, 0xfb, 0xec, 0xf9, 0xff, 0xfb, 0xf1, 0x03, 0xfd, 0xfd, 0xfc, 0xfb, 0xf7, 0x11, 0xed,
	0xf3, 0xf8, 0x05, 0xf8, 0x08, 0xfa, 0x29, 0x03, 0xf1, 0xec, 0x1e, 0x08, 0x0a, 0xef, 0xeb,
	0x07, 0xee, 0x06, 0x0d, 0x13, 0x00, 0xef, 0xfa, 0xee, 0xfe, 0xfd, 0xf4, 0x0d, 0x03, 0x08,
	0xf4, 0x05, 0x04, 0xfd, 0xee, 0xf0, 0x0e, 0x26, 0x0e, 0x03, 0x0e, 0x04, 0xea, 0xfc, 0xfb,
	0x06, 0xf8, 0x10, 0xdd, 0x08, 0xed, 0x06, 0x05, 0x01, 0x27, 0x0c, 0xfc, 0xf2, 0x11, 0xfb,
	0x13, 0xfd, 0x08, 0x47, 0x0d, 0x1a, 0xfd, 0x00, 0x0c, 0x01, 0x0f, 0x01, 0x00, 0x0a, 0xdf,
	0xfa, 0xea, 0xfe, 0x0d, 0xde, 0xed, 0xee, 0x22, 0x18, 0xda, 0x01, 0x15, 0x07, 0xe7, 0x16,
	0x19, 0x0b, 0x16, 0x01, 0xfa, 0xf2, 0x10, 0x0a, 0x13, 0xf2, 0x0c, 0x0b, 0xfb, 0xf2, 0x08,
	0xe1, 0x06, 0xdd, 0x04, 0xfd, 0xfc, 0xf9, 0xfe, 0x02, 0x0f, 0xee, 0xee, 0x08, 0x14, 0xe5,
	0xec, 0xf6, 0x04, 0xf9, 0x06, 0xf3, 0x0a, 0xfd, 0xe6, 0xf0, 0x0e, 0xfe, 0xf4, 0xf3, 0xeb,
	0xfc, 0xf5, 0xf6, 0x11, 0x02, 0xf3, 0xf9, 0xf7, 0xe8, 0xfe, 0xec, 0xea, 0xf8, 0x0e, 0x12,
	0x0c, 0xfd, 0x0e, 0xfe, 0x10, 0xf3, 0xf1, 0x19, 0x04, 0x06, 0x15, 0x11, 0xf4, 0x0d, 0xeb,
	0xff, 0xfc, 0xee, 0xdc, 0x12, 0x01, 0x0a, 0x05, 0x0c, 0x12, 0x26, 0xe3, 0xe2, 0x05, 0xf4,
	0x0c, 0x0d, 0xfc, 0x49, 0x02, 0x20, 0xf2, 0xfe, 0x13, 0x00, 0x0e, 0xf4, 0x08, 0x1c, 0xf4,
	0xf0, 0xe8, 0xf7, 0x05, 0xda, 0xef, 0xee, 0x17, 0x14, 0xe7, 0xf7, 0x07, 0xf4, 0xea, 0x10,
	0x1c, 0x00, 0x0f, 0xfa, 0xff, 0xee, 0x13, 0x0e, 0x17, 0xee, 0x04, 0xf5, 0xf5, 0xe7, 0x0a,
	0xfa, 0x05, 0xff, 0x0c, 0x06, 0x02, 0x08, 0xff, 0x0a, 0x03, 0x00, 0x07, 0x07, 0x14, 0xed,
	0xe6, 0x12, 0x01, 0xf8, 0x10, 0xf9, 0x04, 0xf2, 0xeb, 0xe8, 0x1b, 0x01, 0x07, 0xf3, 0xe5,
	0xfe, 0xf3, 0xec, 0x10, 0x07, 0xfa, 0xf6, 0xe7, 0xf3, 0x07, 0x04, 0xed, 0x0b, 0x12, 0xf7,
	0x12, 0x03, 0xfc, 0xf5, 0x01, 0x08, 0x04, 0x1e, 0x0a, 0x05, 0x08, 0x00, 0xfa, 0x00, 0x02,
	0x05, 0x05, 0xfd, 0xe9, 0x15, 0xfc, 0x00, 0x0c, 0x09, 0x15, 0x16, 0xfc, 0xf0, 0xf9, 0xf7,
	0x1c, 0x0c, 0x08, 0x39, 0x05, 0x16, 0xfd, 0x0a, 0x0a, 0x04, 0x01, 0xfd, 0x01, 0x0b, 0xe1,
	0xfa, 0xe0, 0xf1, 0xfe, 0xe3, 0xeb, 0xef, 0x1b, 0x1d, 0xe9, 0x03, 0x1f, 0x00, 0xf5, 0x00,
	0x13, 0x11, 0x14, 0x05, 0x03, 0xf8, 0x18, 0x12, 0x03, 0xfb, 0x0e, 0x09, 0x04, 0xe8, 0x06,
	0xeb, 0xfd, 0xf0, 0x03, 0x00, 0xeb, 0xf4, 0x06, 0x05, 0x12, 0xe8, 0xe8, 0x05, 0x06, 0xf5,
	0xed, 0xf9, 0xfe, 0xfa, 0xff, 0xf9, 0x04, 0xf9, 0xf1, 0xef, 0x15, 0xfb, 0xf9, 0x03, 0xed,
	0xee, 0xf2, 0xe8, 0x27, 0x0c, 0x01, 0xe7, 0xfc, 0xe5, 0x01, 0xf9, 0xf1, 0xfe, 0x12, 0x00,
	0x03, 0x00, 0x12, 0x02, 0x08, 0xf6, 0xf8, 0x29, 0x1a, 0x0b, 0x0c, 0xf1, 0x01, 0x08, 0xee,
	0xf5, 0x00, 0xfe, 0xf4, 0x11, 0xfc, 0xf7, 0x0e, 0x0c, 0x20, 0x1a, 0xfd, 0xf5, 0x04, 0xf3,
	0x0c, 0xfe, 0x0b, 0x39, 0x0a, 0x22, 0xfd, 0x01, 0x10, 0x09, 0x15, 0xf1, 0x12, 0x1a, 0xe6,
	0xeb, 0xec, 0xf6, 0x07, 0xdd, 0xf0, 0xeb, 0x1a, 0x12, 0xe0, 0xf5, 0x03, 0x08, 0x01, 0xfb,
	0x1e, 0xf2, 0x22, 0xf2, 0xfd, 0xe1, 0x0a, 0x1d, 0x09, 0xfb, 0x06, 0xfe, 0xf3, 0xff, 0xfa,
	0xf4, 0xf2, 0xec, 0x05, 0xfd, 0xf8, 0xf0, 0xfd, 0x01, 0x03, 0xf4, 0xff, 0x14, 0xfe, 0xe8,
	0xf8, 0x03, 0xff, 0xfd, 0xff, 0x01, 0xfd, 0xf4, 0x05, 0xf2, 0x0c, 0xf6, 0xf8, 0xf6, 0x00,
	0x01, 0xf6, 0xe6, 0x0b, 0x09, 0x07, 0x04, 0x04, 0xe8, 0x04, 0x03, 0xeb, 0xfa, 0x0d, 0xec,
	0x08, 0x0b, 0x0b, 0x10, 0x05, 0xfd, 0x01, 0x22, 0x10, 0x09, 0xf7, 0x0c, 0xf9, 0x0b, 0xf2,
	0x05, 0x05, 0xfd, 0xf2, 0xfd, 0xf1, 0x03, 0xf8, 0x07, 0x18, 0x1c, 0xf6, 0xf3, 0x00, 0x02,
	0x12, 0xf9, 0xfe, 0x36, 0x09, 0x14, 0x0f, 0xf8, 0x04, 0x03, 0x1b, 0x03, 0x02, 0x17, 0xea,
	0xe7, 0xe6, 0x02, 0xfd, 0xe2, 0xf7, 0x01, 0x18, 0x12, 0xe9, 0x0b, 0x04, 0x02, 0x02, 0xed,
	0x24, 0x00, 0x07, 0xfd, 0x09, 0xe9, 0xff, 0x0b, 0x06, 0xde, 0x06, 0xf9, 0x00, 0xed, 0x0b,
	0xdd, 0xef, 0xee, 0x07, 0x0f, 0xf4, 0xfc, 0xed, 0xf8, 0x03, 0xf8, 0xfc, 0x06, 0x07, 0xfe,
	0xfb, 0xf8, 0x12, 0xfe, 0x10, 0xf4, 0x00, 0xf7, 0xf7, 0xf2, 0x0f, 0xfb, 0x01, 0xf9, 0xed,
	0xf1, 0x02, 0xf2, 0x14, 0xff, 0xf3, 0x0d, 0xee, 0xe6, 0xf2, 0xf2, 0xf1, 0xf7, 0x12, 0xf7,
	0x11, 0xf4, 0x11, 0x00, 0x02, 0xfd, 0x05, 0x17, 0x06, 0xfc, 0x0d, 0xf9, 0xf7, 0x0c, 0xf7,
	0xfe, 0xfa, 0xff, 0xea, 0x0e, 0x02, 0x02, 0xf4, 0xf2, 0x20, 0x14, 0x08, 0xf5, 0x10, 0xfb,
	0x0f, 0x0d, 0x11, 0x2a, 0x17, 0x27, 0xf7, 0x0b, 0x05, 0x02, 0x0e, 0xf3, 0x07, 0x12, 0xdf,
	0xfa, 0xe4, 0xfe, 0x02, 0xdb, 0xef, 0xf5, 0x1d, 0x14, 0xfd, 0x05, 0x0c, 0xfe, 0x01, 0xee,
	0x18, 0x02, 0x0b, 0xf3, 0xfe, 0xe7, 0x15, 0x1e, 0x0a, 0xda, 0x04, 0x03, 0xf9, 0xeb, 0x08,
	0xf2, 0xf5, 0xe3, 0x03, 0x01, 0xee, 0x01, 0x03, 0x01, 0xfb, 0xf1, 0xf1, 0xf9, 0x03, 0xfc,
	0xea, 0xfb, 0x04, 0xf7, 0x07, 0xe7, 0x12, 0xfa, 0xf9, 0xfb, 0x0e, 0x01, 0x0f, 0xfe, 0xfa,
	0xf4, 0xf9, 0xf8, 0x12, 0x07, 0xfc, 0xf6, 0xe9, 0xff, 0x11, 0xe4, 0xf6, 0x01, 0x0c, 0xfa,
	0xf7, 0xf8, 0x07, 0x05, 0x12, 0xee, 0x0d, 0x0b, 0x0c, 0x08, 0x03, 0xeb, 0x10, 0x10, 0xf1,
	0xf5, 0x06, 0xfa, 0xf5, 0x02, 0xef, 0x0b, 0x15, 0x06, 0x27, 0x1a, 0x03, 0xf9, 0x04, 0xf8,
	0x15, 0xf9, 0x05, 0x3a, 0x14, 0x1a, 0x06, 0x00, 0x00, 0x07, 0x23, 0xf9, 0x0c, 0x0c, 0xe6,
	0xed, 0xe7, 0xfa, 0x0e, 0xd5, 0xef, 0x06, 0x13, 0x20, 0xe2, 0x02, 0x12, 0x17, 0x05, 0xf9,
	0x11, 0xf8, 0x0c, 0xf6, 0x00, 0xf5, 0x12, 0x16, 0x0e, 0xdb, 0x02, 0x04, 0xf7, 0x01, 0x00,
	0xe7, 0xff, 0xec, 0x13, 0x12, 0xee, 0xfe, 0xe8, 0x03, 0x11, 0xfc, 0xfc, 0x05, 0xff, 0xf3,
	0x00, 0x10, 0x05, 0xfd, 0x00, 0xe8, 0x01, 0x08, 0xf5, 0xf3, 0xfa, 0xf6, 0x0d, 0x06, 0xf8,
	0xed, 0xfe, 0xf7, 0x0a, 0x04, 0xf7, 0xf9, 0x05, 0xf8, 0x0c, 0xf9, 0xec, 0x04, 0x07, 0xed,
	0x0d, 0x05, 0xf7, 0xfa, 0x13, 0xe6, 0xf4, 0xff, 0xfb, 0x0c, 0x04, 0xfb, 0x23, 0x05, 0xf9,
	0xfe, 0xf6, 0x04, 0xea, 0x01, 0x06, 0x04, 0x13, 0xfe, 0x1a, 0x1b, 0x1a, 0x04, 0x05, 0xfe,
	0x14, 0x01, 0x13, 0x3c, 0x09, 0x09, 0xfb, 0x0b, 0x01, 0xf6, 0x12, 0x06, 0xf8, 0x06, 0xd7,
	0xf0, 0xdc, 0xfd, 0x09, 0xd8, 0xf6, 0xfe, 0x14, 0x1b, 0xe6, 0x03, 0x2b, 0x07, 0x0a, 0xfd,
	0x05, 0xf5, 0x06, 0xfb, 0xfd, 0xef, 0x01, 0x0e, 0x08, 0xd6, 0xf5, 0x01, 0x0a, 0x01, 0xf0,
	0xda, 0x00, 0xee, 0xf9, 0x16, 0xfb, 0x19, 0xfa, 0x03, 0x07, 0xeb, 0xf6, 0x01, 0xf2, 0x00,
	0x07, 0xf3, 0xff, 0xf5, 0x00, 0xf1, 0x06, 0xf9, 0xef, 0x04, 0x0f, 0xf7, 0x02, 0xf7, 0xe0,
	0xf7, 0xfc, 0xf7, 0x11, 0x03, 0xf0, 0xf8, 0xf7, 0x04, 0x0b, 0xf5, 0xdd, 0x01, 0x15, 0xec,
	0xf9, 0x06, 0x00, 0xfe, 0xf8, 0xf7, 0x05, 0x0a, 0x09, 0x03, 0x11, 0xff, 0x12, 0xfa, 0x08,
	0x09, 0xf6, 0x03, 0xff, 0xf3, 0xea, 0x06, 0x0d, 0xf4, 0x2a, 0x12, 0x32, 0x00, 0xf4, 0x0d,
	0x3c, 0x09, 0x01, 0x53, 0x2b, 0x1e, 0xff, 0xff, 0x04, 0xfc, 0x16, 0x08, 0x0b, 0x0b, 0xc7,
	0xfd, 0xd2, 0xfc, 0xfc, 0xbd, 0xe0, 0xf3, 0x1a, 0x22, 0xe6, 0xfa, 0x3a, 0x0a, 0x08, 0xdf,
	0x22, 0xfd, 0xfa, 0x01, 0x06, 0xf5, 0x1a, 0x2f, 0x1d, 0xeb, 0x03, 0x08, 0x11, 0xf3, 0x08,
	0xe1, 0x06, 0xe6, 0xed, 0x03, 0xdc, 0x22, 0x02, 0x09, 0x15, 0xd2, 0xd8, 0x05, 0xf6, 0xfd,
	0xff, 0xfb, 0x04, 0xf0, 0x13, 0xfb, 0x04, 0xee, 0xf4, 0xec, 0x18, 0x05, 0x0f, 0xe8, 0xce,
	0xd6, 0xf2, 0xec, 0x09, 0xf6, 0xf4, 0xf0, 0x09, 0xef, 0x06, 0x12, 0xd9, 0x0f, 0x19, 0x02,
	0x08, 0x0d, 0x15, 0xf8, 0xec, 0xea, 0x2f, 0x03, 0x02, 0x24, 0x0e, 0xf5, 0x23, 0xfa, 0xf7,
	0x00, 0xf6, 0x04, 0x0a, 0xff, 0xe6, 0xfa, 0x07, 0xea, 0x3d, 0x11, 0xf5, 0x29, 0xfe, 0x54,
	0x03, 0x23, 0xe6, 0x3b, 0xdd, 0xca, 0xea, 0xf4, 0xf3, 0x07, 0x21, 0x31, 0x06, 0xff, 0xf5,
	0xe8, 0x09, 0x23, 0x25, 0xd0, 0xb4, 0x08, 0xe6, 0xf6, 0xdf, 0xf1, 0x1f, 0x08, 0x19, 0xff,
	0xe9, 0x0c, 0xfe, 0x2d, 0xf3, 0x04, 0x11, 0x20, 0xe8, 0xfa, 0x18, 0xe4, 0xef, 0xe3, 0x19,
	0xdf, 0xf0, 0xff, 0x0e, 0x02, 0xf3, 0x15, 0xd5, 0xf0, 0x10, 0xf8, 0xdd, 0x1d, 0xf0, 0xf2,
	0x10, 0xeb, 0xed, 0xee, 0xfe, 0x1d, 0x09, 0x15, 0x0d, 0xf7, 0xe4, 0xf9, 0x12, 0x0e, 0x03,
	0x16, 0x14, 0xdc, 0x07, 0xda, 0x0f, 0x19, 0xf7, 0xd5, 0xfd, 0xfd, 0xe4, 0x18, 0xc3, 0x06,
	0xee, 0xef, 0x0f, 0xe8, 0xe6, 0x1b, 0xec, 0x28, 0xf0, 0xf9, 0x01, 0x18, 0x4e, 0x10, 0x05,
	0x0e, 0x04, 0xcf, 0x15, 0x31, 0xea, 0x0a, 0x19, 0xed, 0x12, 0x0c, 0x0c, 0x1a, 0x0d, 0x28,
	0x0a, 0x13, 0x00, 0x2b, 0xf5, 0xd4, 0xea, 0x02, 0xf1, 0x0b, 0x15, 0x16, 0x07, 0x06, 0xdf,
	0xea, 0x09, 0x16, 0x18, 0xc7, 0xeb, 0x0d, 0xe1, 0xfc, 0xe4, 0xfa, 0x17, 0x06, 0xff, 0x11,
	0xfc, 0xf1, 0x0b, 0x1e, 0xf2, 0x05, 0x08, 0x01, 0xf8, 0xf7, 0x09, 0xeb, 0x04, 0xed, 0x15,
	0xf2, 0x03, 0x00, 0x2b, 0xf1, 0x09, 0xf4, 0xf4, 0x04, 0x08, 0x07, 0xf6, 0xfd, 0xd7, 0xf8,
	0x02, 0xec, 0xe3, 0xf5, 0xfa, 0x0b, 0x08, 0x14, 0x09, 0xf9, 0xdd, 0x08, 0x13, 0x02, 0x01,
	0x17, 0x01, 0xe7, 0xfe, 0xf3, 0x13, 0x02, 0x10, 0xda, 0xef, 0xee, 0xe4, 0x18, 0xd2, 0x05,
	0xf1, 0xe6, 0x17, 0xf9, 0xf2, 0x27, 0xfd, 0x23, 0x0c, 0xe5, 0xf7, 0x11, 0x22, 0x16, 0x04,
	0x11, 0x0b, 0xec, 0x17, 0x13, 0x04, 0xe9, 0x0c, 0xe5, 0x14, 0x0b, 0x07, 0x10, 0x0a, 0x21,
	0x08, 0x0d, 0xf9, 0x1d, 0xec, 0xde, 0xf7, 0xf0, 0xfa, 0x01, 0x11, 0x17, 0x16, 0x05, 0xeb,
	0xe2, 0xfa, 0x29, 0x04, 0xd9, 0xf4, 0x14, 0xfb, 0xf6, 0xee, 0xfd, 0x16, 0x11, 0x05, 0x04,
	0xee, 0xf6, 0xfb, 0x19, 0xf2, 0xf2, 0x06, 0x10, 0xed, 0xf3, 0x0a, 0xe8, 0x00, 0xed, 0x11,
	0xf7, 0x0b, 0xef, 0x13, 0x00, 0x04, 0x0b, 0xf8, 0xfb, 0x01, 0xff, 0xe5, 0xf7, 0xeb, 0x11,
	0x17, 0xfa, 0xfc, 0x01, 0xf2, 0x0b, 0x06, 0x19, 0x0f, 0x05, 0xea, 0xfc, 0x13, 0x08, 0x18,
	0x06, 0xfe, 0xf4, 0x1a, 0xff, 0x12, 0x07, 0xf6, 0xe3, 0xed, 0xff, 0xea, 0x19, 0xcc, 0x13,
	0xe8, 0xfe, 0x0a, 0x08, 0x07, 0x13, 0xf6, 0x16, 0xf2, 0xfa, 0x07, 0x10, 0x1b, 0x27, 0x26,
	0xee, 0xf7, 0xe9, 0x08, 0x09, 0xfd, 0xfd, 0x13, 0xf3, 0xf7, 0x00, 0xff, 0x03, 0xfe, 0x27,
	0xf8, 0x00, 0xf8, 0x28, 0x02, 0xe0, 0xf8, 0x00, 0xf7, 0x06, 0x1c, 0x15, 0x08, 0x07, 0xe7,
	0xfc, 0xfb, 0x09, 0x19, 0xe2, 0xe9, 0x0d, 0xf2, 0xf1, 0xf7, 0xf0, 0x16, 0x0f, 0x07, 0x0a,
	0xfd, 0xf9, 0xfb, 0x01, 0xff, 0xf7, 0xfe, 0x0d, 0xed, 0x05, 0x00, 0xe6, 0x06, 0xf1, 0xf9,
	0xf2, 0xf7, 0xfd, 0x00, 0xf5, 0xf8, 0x02, 0xf3, 0x0a, 0x1d, 0x0f, 0xe4, 0x07, 0xe3, 0x0f,
	0xfe, 0xf0, 0xf5, 0x04, 0x09, 0x17, 0x05, 0x1f, 0x06, 0x0e, 0xee, 0x05, 0x0f, 0x0d, 0x0d,
	0x11, 0x06, 0xe4, 0x18, 0xfb, 0x0f, 0x00, 0x15, 0xe9, 0xec, 0x02, 0xe2, 0x0a, 0xdd, 0x0e,
	0xd7, 0xea, 0x0d, 0xf7, 0xf3, 0x19, 0xfd, 0x22, 0x04, 0xe3, 0x0c, 0x23, 0x23, 0x12, 0x03,
	0xfc, 0x01, 0xff, 0x0c, 0x00, 0x07, 0xfe, 0x1e, 0xe4, 0xfa, 0x0e, 0x01, 0x13, 0x1a, 0x2a,
	0xf3, 0x0a, 0xea, 0x31, 0x03, 0xdd, 0xeb, 0x04, 0x02, 0xfa, 0x06, 0x18, 0x0b, 0xfd, 0xfd,
	0xf3, 0xfd, 0x1f, 0x14, 0xd8, 0xf2, 0x11, 0x03, 0xf1, 0xef, 0x04, 0x10, 0x07, 0x12, 0x02,
	0xf5, 0xf7, 0xef, 0x17, 0xfc, 0xef, 0xf9, 0x0e, 0xf8, 0xfb, 0x08, 0xec, 0x0a, 0xe1, 0xfb,
	0xfe, 0x00, 0xfc, 0xf4, 0xfc, 0x12, 0x0e, 0xf5, 0x07, 0xf8, 0x05, 0xf2, 0x08, 0x17, 0x0a,
	0x0e, 0xf8, 0x0a, 0xff, 0x02, 0x00, 0xef, 0x01, 0xfd, 0xff, 0xec, 0x06, 0x0f, 0xfa, 0x10,
	0x07, 0x19, 0xe5, 0x1c, 0xff, 0x06, 0x11, 0x24, 0xe2, 0x0a, 0xe2, 0xe8, 0x12, 0xe1, 0x05,
	0xd5, 0xea, 0xee, 0x02, 0x06, 0x12, 0xf8, 0x0f, 0x09, 0xe7, 0x02, 0x1f, 0x1c, 0x1d, 0x18,
	0xfc, 0x00, 0xfe, 0x04, 0xfb, 0xe9, 0xf3, 0x16, 0xd7, 0x07, 0x0d, 0x12, 0x00, 0x20, 0x2c,
	0x04, 0xff, 0xe6, 0x25, 0xfe, 0xe3, 0xf8, 0x04, 0xf2, 0xfe, 0x1c, 0x14, 0x0c, 0xfa, 0xea,
	0xef, 0x0d, 0x1b, 0x08, 0xf2, 0xec, 0x0c, 0xef, 0xee, 0xfb, 0xfb, 0x0c, 0x08, 0x01, 0x10,
	0x04, 0x0e, 0xf4, 0x10, 0x16, 0xe7, 0xf3, 0x14, 0xf4, 0xfd, 0x00, 0xe4, 0xfc, 0xdf, 0x10,
	0xf7, 0xff, 0x01, 0xfa, 0x04, 0x01, 0x18, 0x04, 0x02, 0x0d, 0x13, 0xe9, 0x10, 0x09, 0x15,
	0xf5, 0xf3, 0xf7, 0xf4, 0x06, 0x0e, 0x00, 0x02, 0xf2, 0x06, 0xe6, 0xf8, 0x05, 0x12, 0x19,
	0x13, 0x01, 0xea, 0x17, 0xfc, 0x09, 0xf5, 0x1c, 0xe5, 0xeb, 0xe7, 0xde, 0xfa, 0xdb, 0xfd,
	0xd1, 0xf4, 0x05, 0xe9, 0x0d, 0x19, 0xf2, 0x26, 0x03, 0xe9, 0x07, 0x1c, 0x2a, 0x05, 0x13,
	0x06, 0xf9, 0xee, 0x0e, 0x0c, 0xfc, 0x0b, 0x09, 0xeb, 0x01, 0x11, 0x11, 0x08, 0x0e, 0x16,
	0xed, 0x00, 0xe5, 0x29, 0xee, 0xdc, 0xf0, 0x09, 0xff, 0x01, 0x13, 0x17, 0x11, 0x0c, 0xe5,
	0x03, 0xff, 0x06, 0x05, 0xe1, 0xe8, 0x11, 0xfe, 0xff, 0xf5, 0xfb, 0x0e, 0x0b, 0x0f, 0x0d,
	0xea, 0x04, 0xf5, 0x13, 0xf3, 0xf7, 0xe7, 0x08, 0xfa, 0x03, 0xfb, 0xf0, 0x0b, 0xd9, 0x01,
	0xfd, 0xff, 0xec, 0xf7, 0xf8, 0xfc, 0x08, 0x08, 0x02, 0x05, 0x18, 0xf1, 0x16, 0x11, 0x07,
	0xfd, 0x04, 0xf9, 0xf7, 0x05, 0x11, 0xfb, 0xfd, 0xfa, 0xfd, 0xf7, 0xf4, 0xf8, 0xf2, 0x0e,
	0x03, 0x0d, 0xd6, 0x1b, 0xfd, 0x10, 0x1a, 0x22, 0xf8, 0xf8, 0xd8, 0xef, 0xfb, 0xea, 0x01,
	0xd9, 0xe5, 0x09, 0xf6, 0x0d, 0x18, 0xec, 0x23, 0x00, 0xee, 0xfe, 0x20, 0x17, 0x0d, 0xfb,
	0x06, 0xee, 0xfd, 0x0b, 0xfc, 0xfc, 0xff, 0x05, 0xdb, 0x05, 0x11, 0x0f, 0x0b, 0x05, 0x24,
	0xf0, 0x04, 0xf8, 0x27, 0xf6, 0xe4, 0xfc, 0x03, 0xf7, 0xfd, 0x0b, 0x14, 0xfd, 0x02, 0xf5,
	0xfe, 0x05, 0x14, 0xfd, 0xe3, 0xfe, 0xf5, 0x05, 0xec, 0xf4, 0xf8, 0x18, 0x0e, 0x02, 0x13,
	0xfe, 0x03, 0xf7, 0x15, 0x05, 0xf4, 0xfa, 0x21, 0xfb, 0xf7, 0xf1, 0xec, 0xf9, 0xdc, 0x0d,
	0xf8, 0xfc, 0xfd, 0x01, 0xfe, 0x04, 0x08, 0x02, 0x05, 0x09, 0x19, 0xf5, 0x0f, 0x0c, 0xf9,
	0x06, 0x08, 0xff, 0x09, 0x0b, 0x0d, 0xfd, 0x15, 0xf4, 0x00, 0xfa, 0xfd, 0x11, 0x03, 0x04,
	0x11, 0x0c, 0xd8, 0x07, 0xf7, 0xff, 0x00, 0x18, 0xf1, 0xf7, 0xe3, 0xe1, 0x17, 0xeb, 0x00,
	0xe9, 0xf7, 0xfd, 0xee, 0x02, 0x0c, 0x00, 0x32, 0xfb, 0xde, 0xfc, 0x1d, 0x10, 0x18, 0x03,
	0xfc, 0xea, 0xfe, 0x0e, 0x0a, 0xf5, 0xf5, 0x12, 0xe8, 0x0c, 0x06, 0x0e, 0xfa, 0x17, 0x2c,
	0xf7, 0xf1, 0xfa, 0x29, 0xf1, 0xd9, 0xf7, 0xfe, 0xfb, 0xfc, 0x04, 0x12, 0x08, 0x00, 0xe6,
	0x07, 0x0e, 0x1e, 0x01, 0xce, 0xe4, 0x0a, 0x09, 0xf9, 0xf2, 0xf6, 0x1a, 0x05, 0x02, 0x02,
	0xff, 0x0f, 0xfa, 0x1f, 0x00, 0x03, 0x01, 0x14, 0xf1, 0xfd, 0xec, 0xfc, 0xfb, 0xe4, 0x07,
	0xf4, 0x05, 0xf6, 0xf6, 0xf4, 0xf8, 0x00, 0xfe, 0xf6, 0xf9, 0xfc, 0xf4, 0x20, 0x19, 0x12,
	0x09, 0xec, 0x01, 0x0d, 0x07, 0x0a, 0x0a, 0xf7, 0xfd, 0xf9, 0xf4, 0xff, 0x03, 0xf4, 0x15,
	0x08, 0x07, 0xe5, 0xfb, 0xf3, 0x05, 0x0c, 0x1f, 0xf1, 0xf1, 0xe6, 0xd5, 0x08, 0xe7, 0x11,
	0xe2, 0xea, 0x05, 0x00, 0x09, 0x1d, 0xf2, 0x2d, 0xfd, 0xed, 0x02, 0x1e, 0x15, 0x09, 0xfe,
	0x07, 0xf6, 0x0e, 0xf1, 0x06, 0x00, 0xff, 0x0a, 0xd5, 0x00, 0x14, 0x0d, 0x11, 0x06, 0x1b,
	0xf5, 0x03, 0xf5, 0x39, 0xec, 0xe5, 0xf3, 0x00, 0xed, 0xef, 0xfb, 0x04, 0x03, 0xfd, 0xe1,
	0x05, 0x04, 0x1d, 0xfc, 0xe9, 0xf8, 0x00, 0xfa, 0xf0, 0xec, 0x00, 0x01, 0x03, 0x0c, 0x13,
	0xf9, 0x07, 0x0b, 0x08, 0x10, 0xf4, 0xf5, 0x11, 0x02, 0xff, 0xef, 0xfd, 0xfc, 0xe8, 0x12,
	0xf9, 0xfc, 0xfa, 0xef, 0xfd, 0xf6, 0xf6, 0xfa, 0xfe, 0x07, 0x01, 0xf9, 0x1f, 0xfc, 0x0b,
	0xfd, 0x00, 0x02, 0xfa, 0x0d, 0x25, 0x09, 0x13, 0x0c, 0xf0, 0xf8, 0xfe, 0x18, 0xec, 0x09,
	0x12, 0x04, 0xdc, 0xfa, 0xf8, 0xff, 0x11, 0x19, 0xf7, 0xe8, 0xdf, 0xdc, 0x16, 0xf1, 0x05,
	0xe0, 0x01, 0x06, 0xf3, 0xfd, 0x1c, 0xe0, 0x14, 0xf2, 0xe2, 0x0c, 0x1c, 0x05, 0x17, 0xfa,
	0x0d, 0xf9, 0x08, 0x10, 0x0e, 0xf1, 0xff, 0x04, 0xe5, 0x0a, 0x01, 0x10, 0xfc, 0x0a, 0x1c,
	0x06, 0x0a, 0xfd, 0x2f, 0xf1, 0xdf, 0xf0, 0xfd, 0xee, 0xf3, 0x10, 0x15, 0x02, 0x07, 0xe9,
	0xf5, 0x00, 0x1b, 0xf8, 0xbb, 0xef, 0x04, 0x02, 0xf3, 0xf7, 0xf2, 0x02, 0x0a, 0xed, 0x11,
	0xfa, 0xf6, 0x06, 0x16, 0x03, 0xf9, 0x02, 0x04, 0xf3, 0xf7, 0xe7, 0xf2, 0x01, 0xe7, 0x09,
	0x09, 0xf0, 0x0d, 0xfa, 0x00, 0x02, 0x0e, 0xfd, 0x02, 0x12, 0x0c, 0xe4, 0x12, 0x12, 0x07,
	0xf4, 0x02, 0x0f, 0x03, 0x0d, 0x1d, 0xfe, 0x10, 0xf9, 0xed, 0xf2, 0xf6, 0x05, 0x07, 0x12,
	0x0a, 0xfc, 0xe4, 0x0b, 0xf6, 0xfe, 0x12, 0x1c, 0xf4, 0xe8, 0xf1, 0xd5, 0x01, 0xee, 0xe8,
	0xef, 0xf2, 0x09, 0xfd, 0x08, 0x18, 0xef, 0x16, 0x07, 0xe1, 0x09, 0x1c, 0x11, 0x16, 0x11,
	0xfe, 0xf9, 0x02, 0xfa, 0xfe, 0x08, 0xfb, 0x04, 0xe5, 0x06, 0x03, 0x19, 0x09, 0xff, 0x1f,
	0xfe, 0xea, 0x01, 0x21, 0x0a, 0xe4, 0xf4, 0xf4, 0xf8, 0xf3, 0x0b, 0x08, 0x05, 0xfc, 0xda,
	0xfc, 0x04, 0x0e, 0xf1, 0xd1, 0xf3, 0xf3, 0x07, 0xf8, 0x01, 0xf4, 0x06, 0xfd, 0x0c, 0x14,
	0x05, 0x0e, 0xfd, 0xff, 0x0b, 0x07, 0x05, 0x0b, 0xf7, 0xfb, 0xeb, 0xee, 0xeb, 0xde, 0xf8,
	0x03, 0xf6, 0xec, 0xfc, 0xff, 0xf7, 0xfc, 0xfb, 0xf9, 0x0a, 0xf6, 0xec, 0x0f, 0x13, 0xf8,
	0x05, 0xf6, 0x0f, 0xff, 0x13, 0x20, 0x05, 0x2d, 0x03, 0x01, 0x00, 0xfa, 0x01, 0xff, 0x12,
	0x10, 0xfd, 0xeb, 0xfd, 0xe7, 0xf5, 0x08, 0x21, 0xff, 0xf4, 0xe4, 0xd2, 0x01, 0xf8, 0x02,
	0xe6, 0x06, 0x07, 0xfa, 0x06, 0x1c, 0xf4, 0x24, 0x03, 0xdd, 0x06, 0x23, 0x0c, 0x19, 0xff,
	0x03, 0xfb, 0x07, 0x0a, 0x17, 0x00, 0xff, 0xf0, 0xe8, 0xff, 0xff, 0x0b, 0x0d, 0x01, 0x19,
	0x07, 0xf2, 0x04, 0x1d, 0x0d, 0xd2, 0xf1, 0xf5, 0xf4, 0xfe, 0x02, 0x05, 0x08, 0xf5, 0xcb,
	0xfc, 0x0b, 0x0e, 0xf3, 0xe2, 0xfe, 0x01, 0x0f, 0xf9, 0xfe, 0x0b, 0x09, 0x06, 0x02, 0x0a,
	0x06, 0x0e, 0x02, 0x00, 0x00, 0x05, 0x0d, 0x02, 0xf3, 0xf9, 0xed, 0xf0, 0xe4, 0xdb, 0x0c,
	0x05, 0x00, 0xf6, 0x03, 0xfc, 0x04, 0x04, 0xfd, 0x04, 0x05, 0x05, 0xde, 0x27, 0x01, 0xf6,
	0x02, 0xfe, 0x06, 0xe9, 0x1b, 0x26, 0x01, 0x18, 0xf4, 0xf9, 0xf1, 0xf4, 0x0a, 0xee, 0x0d,
	0x1a, 0x09, 0xeb, 0xf6, 0xf4, 0x01, 0x01, 0x13, 0xee, 0xf1, 0xe9, 0xd3, 0x01, 0xe6, 0x0d,
	0xe9, 0xe9, 0x07, 0xf5, 0x01, 0x12, 0xf2, 0x19, 0x1d, 0xd2, 0x11, 0x28, 0x11, 0x26, 0x10,
	0xff, 0x05, 0xfe, 0xfa, 0x07, 0x02, 0xfb, 0xff, 0xe5, 0xf5, 0xfb, 0x0e, 0x00, 0xfd, 0x18,
	0x02, 0xf7, 0xf7, 0x13, 0xf9, 0xd1, 0xf7, 0x01, 0x0a, 0xeb, 0x07, 0x13, 0xf8, 0xf9, 0xdd,
	0xf6, 0x0c, 0x0d, 0xf5, 0xd3, 0xfd, 0xf7, 0xf5, 0xf9, 0xfb, 0x09, 0xfd, 0x02, 0xff, 0x08,
	0x0e, 0x0a, 0x0d, 0x0b, 0xf2, 0xf9, 0x0e, 0x00, 0xef, 0xf6, 0xee, 0xfe, 0xd6, 0xd3, 0x07,
	0xfd, 0x03, 0xfd, 0x0e, 0xf6, 0x00, 0x0c, 0xf7, 0xee, 0xfa, 0x02, 0xe9, 0x18, 0x08, 0xfa,
	0xf7, 0xfa, 0x18, 0xef, 0x08, 0x28, 0x03, 0x1b, 0xef, 0x05, 0xfa, 0x01, 0x17, 0xf9, 0x0d,
	0x04, 0xfd, 0xf3, 0xfa, 0xfa, 0xf0, 0x0f, 0x10, 0xf8, 0xfd, 0xed, 0xe8, 0xef, 0x02, 0xfe,
	0xf9, 0xec, 0x07, 0x04, 0xfa, 0xfa, 0xfd, 0x16, 0x0a, 0xdc, 0x15, 0x11, 0x16, 0x14, 0x11,
	0x04, 0xfa, 0xfc, 0xfb, 0x0e, 0xe9, 0xfb, 0x07, 0x01, 0x10, 0x03, 0x02, 0x07, 0xfc, 0x27,
	0xf9, 0xfc, 0x0e, 0x17, 0xfb, 0xd6, 0xfa, 0xf4, 0xf8, 0xec, 0x08, 0x0a, 0x08, 0xf4, 0xc5,
	0xfc, 0x0c, 0x08, 0xe6, 0xd8, 0xfa, 0x09, 0x02, 0xfb, 0xff, 0xf4, 0x08, 0xf6, 0x0a, 0x0d,
	0x04, 0x17, 0x17, 0x02, 0xf8, 0x01, 0x0a, 0xf1, 0xf1, 0xd8, 0xfb, 0xed, 0xf0, 0xce, 0xf8,
	0xff, 0x02, 0x00, 0x1c, 0xfb, 0xe9, 0x13, 0x02, 0xf6, 0x06, 0xe5, 0xe9, 0x14, 0xfc, 0xe0,
	0x05, 0xfd, 0x0e, 0x06, 0x0d, 0x1a, 0x04, 0x13, 0xfa, 0xff, 0x00, 0x09, 0x14, 0xf0, 0x00,
	0x0a, 0xe8, 0xea, 0xf1, 0x02, 0xe4, 0x0e, 0x05, 0xfb, 0x0f, 0xf6, 0xbf, 0xf4, 0xe3, 0x0f,
	0xf3, 0xfd, 0xfd, 0xf0, 0x0a, 0xfb, 0xf1, 0x03, 0x05, 0xd9, 0x18, 0x1f, 0x21, 0x14, 0xfe,
	0x06, 0xf8, 0xff, 0x0e, 0xfd, 0xea, 0xf6, 0x0c, 0xf3, 0x07, 0x08, 0xec, 0xf2, 0xf9, 0x1c,
	0x1b, 0xec, 0x19, 0x2f, 0xe9, 0xd7, 0xeb, 0xe9, 0x06, 0xd4, 0xff, 0x18, 0xfe, 0xf8, 0x9f,
	0x0c, 0x0c, 0x03, 0xf4, 0xb9, 0xf2, 0xff, 0x09, 0x0f, 0xfc, 0x00, 0x01, 0xef, 0x04, 0x13,
	0xf9, 0x0b, 0x00, 0x06, 0xf3, 0x16, 0x1a, 0xf3, 0xe8, 0xc8, 0xff, 0xf3, 0xeb, 0xc0, 0x11,
	0xf6, 0x04, 0x00, 0x01, 0xfb, 0xf0, 0x17, 0x12, 0xfd, 0x04, 0xe8, 0xd0, 0x18, 0xf0, 0xe7,
	0xe9, 0xf8, 0x1b, 0x02, 0x02, 0x2c, 0x08, 0x03, 0xf4, 0xc7, 0xe7, 0x08, 0x1c, 0xda, 0xfc,
	0x07, 0xea, 0xd9, 0x14, 0xe8, 0xe9, 0x13, 0x1e, 0xff, 0xfa, 0xe8, 0xba, 0xf0, 0xeb, 0x2c,
	0xed, 0xeb, 0x03, 0xfc, 0xe4, 0xf6, 0xe5, 0x12, 0x00, 0xda, 0xfb, 0x23, 0x1a, 0x02, 0xed,
	0x01, 0xf5, 0x01, 0x07, 0x0b, 0x08, 0x03, 0x01, 0xf6, 0x18, 0xfb, 0xfb, 0xf3, 0x05, 0xfe,
	0x13, 0xb0, 0x03, 0xf4, 0x06, 0xfd, 0xea, 0xec, 0xf0, 0xf7, 0x20, 0xef, 0x0f, 0x27, 0x08,
	0x11, 0x00, 0xdc, 0x1d, 0x0b, 0x40, 0x23, 0xc7, 0x1a, 0xeb, 0xf6, 0xff, 0xef, 0x0a, 0xf1,
	0xff, 0xfd, 0x58, 0xd2, 0x09, 0x1f, 0xf5, 0x16, 0xd9, 0xf4, 0xfb, 0xe1, 0x02, 0x16, 0xf3,
	0xfa, 0x1d, 0x04, 0x27, 0x05, 0x04, 0xfb, 0xca, 0xe5, 0x09, 0xed, 0x0c, 0xf1, 0x22, 0xf5,
	0x0d, 0x01, 0xe8, 0xf6, 0x1b, 0x00, 0x06, 0x0d, 0xf8, 0xe7, 0x0a, 0xed, 0xfc, 0x04, 0xd4,
	0xd4, 0x17, 0x03, 0x1e, 0xfb, 0x08, 0x17, 0xcd, 0xef, 0xf0, 0xf4, 0x0c, 0x11, 0xcb, 0x08,
	0xfd, 0x04, 0x1b, 0xfd, 0x11, 0x08, 0xf7, 0x2b, 0x00, 0x14, 0xfc, 0x06, 0xff, 0xf4, 0xfe,
	0xbc, 0xf3, 0xee, 0x07, 0x0c, 0x0f, 0x19, 0x04, 0xc4, 0x10, 0x04, 0xfc, 0x04, 0xf1, 0x03,
	0xfd, 0xe7, 0xf5, 0xf2, 0x06, 0xf7, 0xeb, 0xe6, 0xf5, 0xff, 0x1d, 0xe5, 0x08, 0x15, 0xf5,
	0x08, 0xf2, 0xe8, 0x25, 0xf6, 0x15, 0x18, 0xf4, 0x16, 0xf5, 0x03, 0x01, 0xec, 0x03, 0xe8,
	0xf5, 0x05, 0x1f, 0xfa, 0x04, 0x10, 0xf0, 0x17, 0xf0, 0x1d, 0xfc, 0xf4, 0xf5, 0x0a, 0xff,
	0xfb, 0x12, 0xfe, 0x15, 0xf6, 0xff, 0xfe, 0xed, 0xf8, 0x06, 0xfa, 0x07, 0xfa, 0x07, 0x03,
	0x00, 0x02, 0xee, 0xff, 0x1d, 0x0e, 0x06, 0x09, 0xf0, 0xf2, 0x11, 0xfa, 0xf8, 0x0a, 0xdc,
	0xf3, 0x18, 0xf1, 0x16, 0x05, 0xfd, 0x12, 0xdf, 0xed, 0x08, 0xfc, 0x02, 0xfe, 0xe1, 0xf8,
	0xf5, 0x01, 0x14, 0xf0, 0x0d, 0x07, 0x10, 0x1e, 0xee, 0x17, 0xfd, 0x0a, 0xeb, 0x0a, 0xf2,
	0xe2, 0x0b, 0xec, 0xfe, 0x13, 0x06, 0x00, 0xf3, 0xd8, 0x02, 0x02, 0x05, 0x0d, 0x03, 0xfa,
	0xf9, 0xdb, 0xf5, 0xf9, 0xf8, 0x0a, 0xf6, 0xfe, 0xf2, 0x01, 0x1e, 0xf2, 0x11, 0x1d, 0x01,
	0x02, 0xfe, 0xe2, 0xfe, 0xf9, 0xfc, 0x05, 0xfe, 0x1b, 0xfc, 0xfe, 0x01, 0xe3, 0x16, 0x0d,
	0xfb, 0x01, 0x02, 0xf2, 0xff, 0x20, 0xe5, 0x01, 0xe5, 0xfe, 0x06, 0xf6, 0xf8, 0x0a, 0xfd,
	0xf4, 0x16, 0xf3, 0x13, 0x10, 0xee, 0xe5, 0xf6, 0xf0, 0x0e, 0xf7, 0x09, 0xf5, 0x06, 0xfe,
	0x07, 0xf7, 0x06, 0xef, 0x06, 0x03, 0x00, 0x18, 0x00, 0xda, 0x07, 0xee, 0xfc, 0xf9, 0xdd,
	0xf7, 0x16, 0xee, 0x02, 0x01, 0xfd, 0xfb, 0xfc, 0x04, 0x0c, 0xfb, 0x05, 0xfe, 0xf5, 0x0a,
	0xea, 0xf2, 0xfd, 0xe9, 0x03, 0x00, 0x06, 0xff, 0xf6, 0x19, 0x01, 0xfd, 0x09, 0x0d, 0x0d,
	0xf0, 0xfa, 0xf6, 0xfa, 0x0a, 0xf1, 0x0d, 0xf1, 0xee, 0x0f, 0x09, 0xf4, 0x00, 0x08, 0xfd,
	0x1c, 0xdb, 0xe7, 0xf8, 0xfe, 0xf3, 0xf5, 0xed, 0xf8, 0x02, 0x20, 0xef, 0x02, 0x0f, 0xfa,
	0xf7, 0xf0, 0xe5, 0xee, 0x08, 0x06, 0x1a, 0xf8, 0x0e, 0xfb, 0x08, 0x07, 0xeb, 0x04, 0x08,
	0x1c, 0xfb, 0x02, 0xff, 0xf0, 0x0f, 0xf5, 0x06, 0xf1, 0x07, 0x10, 0xe2, 0x06, 0x0f, 0x0f,
	0xf5, 0x11, 0xf3, 0x18, 0x00, 0xf1, 0xed, 0xf9, 0xf7, 0xfb, 0x08, 0x00, 0xfa, 0x10, 0xff,
	0x03, 0xfe, 0x09, 0xf5, 0xfe, 0x1e, 0xf5, 0xff, 0x11, 0xeb, 0xf6, 0xe9, 0x18, 0x05, 0xe6,
	0x05, 0x06, 0xdd, 0x03, 0xf1, 0xf6, 0xf2, 0xfe, 0x13, 0x06, 0xfa, 0x15, 0xff, 0xe1, 0x04,
	0xf1, 0x14, 0x15, 0xf9, 0xec, 0x0b, 0x0a, 0x08, 0xdc, 0x01, 0x0f, 0x04, 0xeb, 0xfd, 0xfe,
	0xec, 0x0c, 0xec, 0x01, 0x03, 0xec, 0x0a, 0x06, 0xe4, 0x05, 0x0b, 0xe9, 0x13, 0x0e, 0x04,
	0x0d, 0xf0, 0xd7, 0x09, 0x03, 0xf5, 0xf5, 0xf1, 0xe8, 0xfb, 0x11, 0xf3, 0x05, 0x0a, 0xf9,
	0x09, 0xf6, 0xe6, 0x0f, 0x12, 0x07, 0x16, 0x04, 0x12, 0xfe, 0xf9, 0xfb, 0xe7, 0x00, 0xe4,
	0x14, 0x0d, 0x1b, 0xe7, 0xf0, 0x12, 0xe6, 0x0f, 0x01, 0xfc, 0xfe, 0xea, 0xfe, 0xfe, 0x1a,
	0xf1, 0x0f, 0x09, 0x12, 0x08, 0xec, 0xfb, 0xe5, 0x00, 0x22, 0x06, 0x07, 0xf9, 0x07, 0x08,
	0xfb, 0x01, 0x06, 0xfc, 0x01, 0x0e, 0xef, 0x09, 0x07, 0xe8, 0xf9, 0xe8, 0x07, 0x08, 0xeb,
	0x02, 0x00, 0xe9, 0x07, 0xf8, 0xf8, 0x0f, 0xf6, 0xff, 0x06, 0xef, 0x04, 0xff, 0xfc, 0xf9,
	0xfa, 0x08, 0xf5, 0x00, 0xff, 0xf6, 0x03, 0x08, 0xeb, 0x15, 0x04, 0x12, 0xe8, 0x12, 0x08,
	0xf1, 0x0b, 0xe1, 0xfa, 0x12, 0xed, 0x0f, 0xee, 0xef, 0xff, 0x00, 0xf2, 0xfe, 0x07, 0x0d,
	0x11, 0xf0, 0xd7, 0xf7, 0x02, 0x07, 0x08, 0xeb, 0xf4, 0x00, 0x13, 0xef, 0x14, 0x22, 0xed,
	0x00, 0xe3, 0xee, 0xf6, 0x07, 0xf5, 0x0a, 0xf2, 0x08, 0xf5, 0x07, 0x03, 0xfb, 0x0a, 0xe7,
	0x09, 0xf3, 0x0a, 0xe6, 0xec, 0x01, 0x02, 0x0d, 0xea, 0x0a, 0x0b, 0xe9, 0x0a, 0x1b, 0x01,
	0xf1, 0x07, 0xfd, 0x0c, 0x19, 0xfd, 0xff, 0xe7, 0xf0, 0x02, 0xfc, 0x1c, 0xed, 0x0a, 0xf7,
	0xf9, 0xf6, 0x0d, 0xf0, 0x04, 0x10, 0xea, 0x14, 0x04, 0xf0, 0xfe, 0xf0, 0x0b, 0x0b, 0xe8,
	0x07, 0x09, 0xe5, 0x02, 0x02, 0xf6, 0x0d, 0xf6, 0x16, 0x12, 0xea, 0x17, 0xfd, 0x07, 0x11,
	0xff, 0xfb, 0x03, 0x02, 0xef, 0x10, 0x11, 0x0d, 0xe1, 0x15, 0x0b, 0xfb, 0xe7, 0x0e, 0x07,
	0xf2, 0x07, 0xcd, 0xfe, 0x03, 0xf4, 0x14, 0x0e, 0xd9, 0x12, 0x07, 0xeb, 0xf8, 0x11, 0x0b,
	0x0d, 0xed, 0xf0, 0xff, 0xef, 0xf6, 0xe7, 0xf5, 0xe1, 0x0b, 0x05, 0xfe, 0x0b, 0x13, 0x06,
	0xff, 0x00, 0x04, 0xfa, 0x11, 0x18, 0x15, 0xf5, 0x04, 0x02, 0xf5, 0xf7, 0xf4, 0x16, 0xf8,
	0x04, 0x05, 0x19, 0xe7, 0xe6, 0x0d, 0xf0, 0x20, 0xed, 0xf5, 0xf6, 0xe6, 0x09, 0x1b, 0xf4,
	0xf9, 0x03, 0x0d, 0x0a, 0x05, 0xd0, 0xe9, 0xf4, 0xfa, 0x0e, 0xfc, 0x13, 0xf0, 0x10, 0x10,
	0x0f, 0xfe, 0xfc, 0xf1, 0x0a, 0x0d, 0xea, 0x13, 0xf4, 0xfe, 0xfc, 0xe6, 0x04, 0x0b, 0xeb,
	0x08, 0x04, 0xef, 0x1a, 0xff, 0x06, 0x0b, 0xeb, 0x00, 0x13, 0xed, 0x04, 0x02, 0x03, 0x08,
	0xf0, 0x05, 0x09, 0xfb, 0x0c, 0xfd, 0x18, 0xf7, 0xeb, 0x04, 0x05, 0x0e, 0xf4, 0x16, 0xfa,
	0xec, 0x04, 0xd4, 0x00, 0x0d, 0xee, 0xfe, 0xfe, 0xd7, 0x0e, 0xf4, 0xf4, 0x01, 0x0f, 0x17,
	0xfb, 0xe2, 0xdf, 0xed, 0xf7, 0xf3, 0xf5, 0xe8, 0xe2, 0xed, 0x17, 0xfb, 0x08, 0x0f, 0xf3,
	0x06, 0xf3, 0xf5, 0xf8, 0x09, 0x0b, 0xfa, 0xea, 0x01, 0xf8, 0x09, 0x00, 0xf7, 0x11, 0xed,
	0x13, 0xfc, 0x22, 0xf4, 0xe6, 0x0c, 0xe9, 0x13, 0xea, 0x08, 0x00, 0xeb, 0x09, 0x21, 0xfa,
	0xff, 0x04, 0x06, 0xed, 0xfd, 0xee, 0xf4, 0xe5, 0xfd, 0xf5, 0x08, 0x16, 0xfb, 0xf1, 0x0b,
	0xf5, 0x06, 0x0b, 0xf6, 0x0a, 0x13, 0xe2, 0x15, 0xfa, 0xeb, 0xf1, 0xe9, 0x01, 0xeb, 0xee,
	0xf6, 0x02, 0xee, 0x0c, 0x06, 0xfc, 0xf5, 0xe4, 0xf8, 0x1b, 0xf3, 0x07, 0x0f, 0xe8, 0xf8,
	0xf5, 0x03, 0x10, 0xe9, 0xfd, 0x06, 0xf9, 0x17, 0xe3, 0x0b, 0x03, 0x04, 0xee, 0x0f, 0xf5,
	0x05, 0x0d, 0xdd, 0x0e, 0x02, 0xf6, 0x05, 0xf5, 0xea, 0x03, 0xfe, 0xe2, 0x08, 0xfc, 0xfb,
	0x09, 0xe2, 0xeb, 0x00, 0x06, 0xf6, 0xf8, 0xec, 0xf4, 0xf7, 0x11, 0xf4, 0x0e, 0x12, 0xfa,
	0x0a, 0xf9, 0xf7, 0xff, 0x10, 0x08, 0xf6, 0xf7, 0x0d, 0xfb, 0xf3, 0x0f, 0xfe, 0x11, 0xf0,
	0x0a, 0xed, 0x17, 0xf9, 0xfa, 0xfb, 0xed, 0x0c, 0xfa, 0x10, 0xf2, 0xe8, 0x1a, 0x17, 0x02,
	0xf4, 0xff, 0x09, 0xfc, 0xfe, 0xfa, 0xf7, 0xe4, 0x0b, 0xfd, 0x00, 0x06, 0xf7, 0x00, 0x19,
	0x0c, 0xfb, 0x14, 0xef, 0x08, 0x0e, 0xf1, 0x17, 0xec, 0x0c, 0xfd, 0xf1, 0xf2, 0xea, 0xf9,
	0xf2, 0xfa, 0xf7, 0xf6, 0xff, 0xf8, 0x0f, 0xea, 0x00, 0x0b, 0xf8, 0x18, 0x14, 0xfc, 0xf6,
	0xf6, 0x04, 0xf8, 0xee, 0xf2, 0xea, 0x0f, 0x15, 0xfb, 0x05, 0xfd, 0xff, 0xea, 0x0b, 0xfa,
	0xe5, 0x10, 0xe6, 0x00, 0x01, 0xf0, 0xf9, 0x0f, 0xd5, 0x09, 0xe4, 0xf2, 0xfe, 0x0b, 0x03,
	0xfa, 0xdc, 0xdf, 0xec, 0xf7, 0xeb, 0xf7, 0xfa, 0xf6, 0xea, 0x18, 0xf5, 0xfd, 0x1e, 0xfb,
	0x04, 0xf1, 0xea, 0x01, 0x0b, 0x00, 0x0e, 0xf3, 0x09, 0x01, 0x10, 0xfb, 0x08, 0x19, 0xfa,
	0x02, 0x02, 0x31, 0xe7, 0xe3, 0xfc, 0xeb, 0x18, 0xeb, 0x06, 0x00, 0xed, 0x06, 0x10, 0xfa,
	0x10, 0x04, 0x11, 0xfe, 0x16, 0xe4, 0x07, 0xe6, 0xfc, 0xf9, 0xfa, 0x19, 0x08, 0xf9, 0x0d,
	0x1b, 0xf2, 0x04, 0xf5, 0x0f, 0xfa, 0xf1, 0x0d, 0xf6, 0x08, 0xe9, 0xfc, 0xf2, 0xfe, 0x04,
	0xf5, 0xfb, 0xf6, 0x05, 0xf0, 0xfe, 0x01, 0xec, 0xf6, 0x0f, 0xf3, 0xfa, 0x0a, 0xf6, 0x0e,
	0xf9, 0x05, 0xf7, 0x08, 0xfb, 0x08, 0xfc, 0x0f, 0xec, 0x14, 0xf7, 0x08, 0xf8, 0x1e, 0xf9,
	0xfc, 0x02, 0xec, 0x03, 0x08, 0xfd, 0x03, 0x06, 0xde, 0x01, 0xde, 0xee, 0x12, 0x1a, 0x11,
	0xfe, 0xdf, 0xf0, 0xf4, 0xf4, 0xec, 0xf9, 0xee, 0xe0, 0xeb, 0x1a, 0xf6, 0xfd, 0x11, 0xfc,
	0x04, 0xfd, 0xe8, 0xf6, 0x0d, 0x03, 0xf1, 0xef, 0x04, 0x06, 0x08, 0x03, 0xf3, 0x0c, 0xf0,
	0xfb, 0xff, 0x0c, 0xea, 0xf1, 0xf4, 0x06, 0x1c, 0xe8, 0x0d, 0xe5, 0xf6, 0x1a, 0x0f, 0xee,
	0x06, 0x05, 0xf8, 0xeb, 0x06, 0xec, 0xf8, 0xe0, 0xf3, 0x02, 0xfb, 0x0b, 0xf9, 0xfe, 0x02,
	0x20, 0xee, 0x06, 0xe5, 0x05, 0x0b, 0xf2, 0x0a, 0xf9, 0x1f, 0xf4, 0xf6, 0xec, 0xef, 0xf5,
	0xea, 0x08, 0xe5, 0xf5, 0xf3, 0xf4, 0x11, 0xfe, 0x09, 0x06, 0x0e, 0x07, 0x1c, 0xf5, 0xf8,
	0xde, 0xff, 0xf7, 0xfc, 0x06, 0xf2, 0x0b, 0x1c, 0xe8, 0xfb, 0x00, 0xfc, 0xfc, 0x0e, 0xe9,
	0xff, 0x07, 0xf4, 0x05, 0x02, 0xf0, 0x04, 0xfc, 0xd5, 0xf7, 0xdb, 0xeb, 0x06, 0x01, 0xff,
	0xfe, 0xe2, 0xdd, 0xf3, 0x0e, 0xef, 0xf2, 0xf4, 0xfc, 0xfb, 0x09, 0xf8, 0x0a, 0x20, 0xff,
	0x10, 0x05, 0xdc, 0xfe, 0xf4, 0xf9, 0xfe, 0xfb, 0x04, 0x08, 0xf8, 0x04, 0xf6, 0x11, 0xf6,
	0xf3, 0xfe, 0x03, 0xe8, 0x0d, 0x01, 0x18, 0x1e, 0xe7, 0x10, 0xeb, 0xe7, 0x1b, 0x1d, 0xee,
	0x0e, 0x04, 0x01, 0xf5, 0xfc, 0xee, 0x08, 0xd8, 0x01, 0xf4, 0xf2, 0x2e, 0xff, 0x04, 0x13,
	0x20, 0x06, 0xfe, 0xf6, 0x10, 0x0d, 0x0a, 0x10, 0xf2, 0x11, 0x00, 0xf9, 0xfe, 0xf6, 0x07,
	0xe4, 0xf6, 0xd6, 0xf8, 0x0b, 0xf4, 0xff, 0xe8, 0x00, 0xfe, 0xed, 0xfe, 0x0c, 0xf3, 0x0a,
	0xf0, 0x03, 0xff, 0x09, 0xfb, 0xf6, 0x17, 0x19, 0x15, 0xfe, 0x04, 0x09, 0xed, 0xfc, 0xda,
	0xf1, 0x06, 0xf5, 0x02, 0x11, 0x00, 0x05, 0xff, 0xe5, 0xf2, 0xcf, 0xef, 0x28, 0x1d, 0x0b,
	0x0a, 0xee, 0xec, 0xf4, 0xfc, 0xf4, 0xf4, 0x07, 0xdb, 0xef, 0x10, 0x00, 0xf7, 0x28, 0xf5,
	0x0e, 0x01, 0xe9, 0xf9, 0x0c, 0x08, 0xec, 0xec, 0x08, 0xf8, 0x04, 0xf4, 0xf0, 0x10, 0xf2,
	0x05, 0x08, 0x20, 0xfa, 0x0c, 0xf3, 0x0c, 0x32, 0xf3, 0x15, 0xe0, 0xf1, 0x11, 0x08, 0xec,
	0x09, 0xfe, 0x0d, 0xfe, 0xfa, 0xf5, 0x04, 0xeb, 0xfc, 0x00, 0xf3, 0x21, 0x00, 0x07, 0x0a,
	0x0c, 0xf5, 0xfe, 0xe9, 0x01, 0x0c, 0xfa, 0x24, 0xfb, 0x0f, 0xee, 0xfd, 0xfa, 0xf1, 0x0f,
	0xf0, 0x16, 0xf6, 0xef, 0x09, 0xee, 0x02, 0xfe, 0xf6, 0x01, 0xe2, 0x05, 0x07, 0xf3, 0x06,
	0x06, 0x0f, 0xed, 0x01, 0xfb, 0x0a, 0x20, 0x0a, 0xf2, 0xfc, 0xf6, 0xf4, 0xfd, 0x04, 0xea,
	0xf2, 0x00, 0xf0, 0xef, 0xfa, 0xeb, 0xf8, 0xf0, 0xef, 0xf5, 0xda, 0xf9, 0x20, 0x15, 0xf9,
	0x03, 0xeb, 0xd4, 0xe8, 0x09, 0xe9, 0xf0, 0x06, 0xe8, 0x03, 0x08, 0xf5, 0xed, 0x29, 0x03,
	0x05, 0x0e, 0xef, 0xfb, 0xee, 0x03, 0xf5, 0xf2, 0x0d, 0x01, 0x18, 0x02, 0xf4, 0x0e, 0xfb,
	0x07, 0xfc, 0x12, 0xeb, 0x00, 0xec, 0x15, 0x2c, 0xf8, 0x08, 0xed, 0xeb, 0x29, 0x0b, 0xf3,
	0x09, 0x07, 0x0a, 0xfe, 0xfb, 0x06, 0xfc, 0xdb, 0xef, 0xf8, 0xf8, 0x11, 0xeb, 0xef, 0xed,
	0x26, 0x0b, 0xf1, 0xdf, 0xfc, 0x02, 0xf8, 0x04, 0xf5, 0x13, 0xfa, 0xe4, 0xe6, 0xf7, 0x00,
	0xed, 0x00, 0xe3, 0xf2, 0x0c, 0xf9, 0x08, 0xfc, 0x07, 0x11, 0xe3, 0xf6, 0x03, 0x08, 0xff,
	0xfe, 0x12, 0x01, 0xf9, 0xf7, 0xee, 0x1b, 0x16, 0xff, 0x04, 0x02, 0x00, 0xfd, 0xee, 0xea,
	0xf7, 0x05, 0xe5, 0xf8, 0x10, 0xf4, 0x02, 0x09, 0xe4, 0x07, 0xed, 0x06, 0x05, 0x12, 0xee,
	0x0d, 0xef, 0xe8, 0xea, 0x12, 0xdd, 0xeb, 0x03, 0xde, 0xf6, 0x04, 0x04, 0x0a, 0x18, 0xf3,
	0x01, 0xff, 0xeb, 0xf9, 0x07, 0x06, 0xfe, 0xf9, 0xff, 0x04, 0x1e, 0x16, 0xef, 0x15, 0xee,
	0xff, 0x05, 0x0d, 0xe9, 0x00, 0xf3, 0xf7, 0x36, 0xe1, 0xfe, 0xed, 0xee, 0x2a, 0x2a, 0xf5,
	0xf8, 0xf4, 0x1c, 0xed, 0xfa, 0x08, 0x02, 0xf0, 0xea, 0xeb, 0xfa, 0x15, 0xf6, 0xf6, 0x08,
	0x0f, 0xef, 0x08, 0xe3, 0xf8, 0x0f, 0xe9, 0x02, 0xf0, 0xf5, 0xfd, 0xf6, 0xf4, 0xf2, 0x03,
	0xfa, 0x20, 0xe2, 0xe4, 0x0a, 0xfd, 0x06, 0xfd, 0xfd, 0xf3, 0xfe, 0xf1, 0xf6, 0xe7, 0xf9,
	0x0a, 0x05, 0xf5, 0xed, 0xf3, 0x0f, 0x09, 0x23, 0x03, 0x1e, 0x06, 0xfa, 0x0e, 0xf9, 0xf3,
	0xe9, 0x01, 0xf5, 0xf6, 0x0a, 0xdf, 0xfd, 0x09, 0xe8, 0xf1, 0xed, 0xf2, 0x28, 0x21, 0x0a,
	0x28, 0xf7, 0xed, 0xe4, 0x01, 0xd7, 0xdb, 0xf2, 0xd6, 0xee, 0x08, 0xef, 0xfb, 0x47, 0xf7,
	0x14, 0x0c, 0xe3, 0xe5, 0x12, 0x0b, 0x01, 0xdd, 0x05, 0xf2, 0x1a, 0x13, 0xf6, 0x19, 0xf3,
	0xe0, 0x08, 0x09, 0xfe, 0xf0, 0x07, 0x08, 0x4d, 0xdd, 0x20, 0x02, 0xf2, 0x1c, 0x29, 0xe4,
	0x00, 0x07, 0x09, 0xeb, 0xf5, 0xff, 0x09, 0xf7, 0xf3, 0x04, 0xe9, 0x2f, 0x00, 0x06, 0x0c,
	0x28, 0xfd, 0x1e, 0xee, 0xfb, 0x0d, 0xf2, 0xf8, 0xe1, 0xe9, 0x0b, 0xe3, 0x01, 0x09, 0xe6,
	0xf5, 0x25, 0xed, 0xeb, 0x14, 0xf0, 0x06, 0xf1, 0xf3, 0x09, 0xea, 0x17, 0xf3, 0xe3, 0x0f,
	0xee, 0x09, 0xfd, 0xf0, 0xf4, 0x01, 0x13, 0x15, 0xf5, 0x40, 0x04, 0xec, 0x00, 0xf6, 0x0b,
	0xe9, 0xee, 0xf9, 0x04, 0x08, 0xdc, 0xf3, 0x13, 0xd8, 0xfa, 0xdf, 0x0c, 0xea, 0xf5, 0xf3,
	0xf8, 0x4b, 0x2c, 0x14, 0xe9, 0xf8, 0xfd, 0xff, 0xe8, 0x03, 0x20, 0x0f, 0x15, 0xf1, 0xfe,
	0xe6, 0xbf, 0xfb, 0xe6, 0x07, 0xf2, 0x02, 0x2a, 0x00, 0x16, 0xd9, 0xff, 0x01, 0x34, 0xf0,
	0xec, 0x22, 0xec, 0xf6, 0xec, 0x01, 0x24, 0x3b, 0xef, 0xf3, 0x0f, 0x07, 0x2b, 0xe9, 0xf8,
	0x2f, 0x0a, 0x29, 0x06, 0x03, 0x16, 0xee, 0x25, 0xf8, 0xf5, 0xef, 0xf4, 0x19, 0xef, 0xe4,
	0xe8, 0xe2, 0xff, 0xf8, 0xfb, 0xf7, 0xf5, 0xf6, 0x19, 0x0f, 0xf0, 0x04, 0x0a, 0x1b, 0x06,
	0x0a, 0xf1, 0xd7, 0xe8, 0xfe, 0xde, 0xfd, 0x15, 0x27, 0x10, 0xec, 0xe0, 0x05, 0xb4, 0x21,
	0xf7, 0xe7, 0x1a, 0xee, 0xf7, 0x20, 0xf1, 0x22, 0xfb, 0xe2, 0x02, 0x07, 0xb9, 0x15, 0xd7,
	0x03, 0xee, 0xc8, 0x21, 0x12, 0xee, 0x11, 0xfa, 0x24, 0x1a, 0xff, 0xf8, 0xed, 0xf2, 0xff,
	0xf9, 0x26, 0x1e, 0x22, 0xef, 0xfe, 0xed, 0xfd, 0xf0, 0xf4, 0x2a, 0x0f, 0x08, 0xff, 0x21,
	0xfc, 0xd6, 0xf7, 0xf5, 0x14, 0x01, 0x09, 0x1a, 0xe3, 0x0d, 0xef, 0x0d, 0xfc, 0x30, 0xe5,
	0xf8, 0xfc, 0x0a, 0xe9, 0xf7, 0xf6, 0x09, 0x22, 0xf5, 0x06, 0x12, 0x01, 0x1c, 0xe1, 0xfc,
	0x1e, 0x01, 0x16, 0x14, 0xfc, 0x16, 0xfc, 0x0e, 0xf6, 0xff, 0xf1, 0xfd, 0xf6, 0xeb, 0xf3,
	0x0b, 0x02, 0x07, 0xf1, 0x0d, 0x02, 0xe7, 0x01, 0x05, 0x03, 0xed, 0xf9, 0x03, 0x03, 0x08,
	0x02, 0x08, 0xeb, 0xff, 0xf7, 0xee, 0xf6, 0x09, 0x16, 0xf6, 0xff, 0xd8, 0x04, 0xea, 0x03,
	0x00, 0xfc, 0x08, 0xf7, 0xf9, 0x0f, 0xec, 0x3a, 0x0f, 0xf1, 0xf5, 0x01, 0xd3, 0x1d, 0xd4,
	0xfd, 0xfc, 0x01, 0x28, 0x0b, 0x03, 0xfd, 0xf6, 0x19, 0x01, 0x01, 0x03, 0xf8, 0x0a, 0xfa,
	0xff, 0x22, 0x1d, 0x16, 0xe4, 0xef, 0x01, 0xeb, 0xef, 0xfe, 0x14, 0x10, 0x0f, 0xf8, 0x0f,
	0xf3, 0xda, 0xf0, 0xec, 0x17, 0x0e, 0x0a, 0x2a, 0xef, 0x07, 0xe9, 0x0b, 0xf7, 0x0c, 0x01,
	0xf9, 0x07, 0x00, 0xf5, 0xed, 0x00, 0xfc, 0x1d, 0xf4, 0x0c, 0x0d, 0x17, 0x21, 0xfb, 0x00,
	0x0d, 0x0c, 0x1a, 0x19, 0xf1, 0x08, 0x02, 0xf7, 0x08, 0xfd, 0xf5, 0x09, 0x01, 0xf4, 0xf7,
	0x07, 0x00, 0xfc, 0xfc, 0x11, 0x0c, 0xe2, 0x14, 0x06, 0x1a, 0xf2, 0x0d, 0xff, 0x17, 0x04,
	0x10, 0x11, 0xee, 0x02, 0xfb, 0xe6, 0xf2, 0x09, 0x12, 0x0a, 0x03, 0xda, 0x19, 0xdf, 0x00,
	0x01, 0xfc, 0x02, 0xe9, 0xf7, 0x13, 0xe8, 0x2c, 0x07, 0x04, 0xf7, 0x08, 0xd9, 0x24, 0xee,
	0xff, 0x0d, 0xe4, 0x2c, 0x0a, 0x1c, 0x04, 0xff, 0x0e, 0x02, 0xf0, 0xfd, 0xfe, 0x08, 0xff,
	0x04, 0x0f, 0x1b, 0x1e, 0xe8, 0xed, 0xfb, 0xf1, 0xee, 0x01, 0x11, 0x04, 0x03, 0xfd, 0x06,
	0xf0, 0xe4, 0xf9, 0xff, 0x1f, 0x0f, 0x0e, 0x14, 0xf3, 0x0a, 0xe2, 0x04, 0xfb, 0x13, 0xe9,
	0x0a, 0xf6, 0xff, 0xf6, 0xeb, 0xfb, 0xf8, 0x28, 0xfe, 0x00, 0x0d, 0x17, 0x17, 0xf0, 0xfd,
	0x14, 0x03, 0x0e, 0x15, 0xfd, 0x06, 0x05, 0x0d, 0x06, 0xf9, 0x02, 0x0b, 0x00, 0xff, 0x11,
	0x06, 0xe0, 0x0b, 0xf5, 0x0c, 0xef, 0xf9, 0x13, 0x05, 0x02, 0xf4, 0x15, 0xff, 0x16, 0x0d,
	0x0e, 0x0b, 0xe4, 0x08, 0xed, 0xeb, 0x00, 0x0e, 0x11, 0xf8, 0xfb, 0xeb, 0xfd, 0xdf, 0x15,
	0xf5, 0xf8, 0x15, 0xe9, 0xfb, 0x19, 0xdf, 0x1a, 0x1a, 0xf7, 0x04, 0x04, 0xec, 0x2a, 0xfe,
	0xe4, 0x06, 0xf5, 0x0d, 0x0d, 0xfc, 0x06, 0xe7, 0x12, 0x0d, 0xec, 0x01, 0xf9, 0xfa, 0xff,
	0x02, 0x1e, 0x25, 0x1f, 0xf1, 0x08, 0xf5, 0xf1, 0xf0, 0x09, 0x2b, 0x04, 0x09, 0xf0, 0x07,
	0xf7, 0xd0, 0x01, 0xf2, 0x19, 0x11, 0x0b, 0x1b, 0xf6, 0x00, 0xef, 0x17, 0xf9, 0x07, 0xff,
	0xf9, 0x04, 0xeb, 0xea, 0xef, 0xf3, 0xea, 0x12, 0x0a, 0x15, 0x0a, 0x2b, 0x13, 0x06, 0x04,
	0x1b, 0x09, 0x11, 0x14, 0xe9, 0x04, 0x0c, 0x01, 0xfb, 0x0d, 0xff, 0x15, 0xfd, 0xf3, 0x11,
	0x12, 0xe9, 0x16, 0xf6, 0x0e, 0x03, 0xf2, 0x1b, 0x0f, 0xf3, 0xfb, 0x12, 0xf1, 0xfe, 0x11,
	0x0b, 0x0c, 0xf8, 0xfd, 0xf2, 0xf7, 0x02, 0x17, 0x0e, 0x05, 0x01, 0xe1, 0xf0, 0xfd, 0x16,
	0x11, 0x0c, 0x20, 0x03, 0xf6, 0x1f, 0xe4, 0x23, 0x0e, 0xfa, 0x16, 0xf7, 0xdb, 0x06, 0xf7,
	0xe5, 0x05, 0xf7, 0x0f, 0xfb, 0xf3, 0xfc, 0xfc, 0x06, 0x09, 0xe7, 0x00, 0xf7, 0x04, 0x02,
	0xfd, 0x1b, 0x2b, 0x1e, 0xf0, 0xee, 0xfd, 0xf5, 0xf1, 0x05, 0x1c, 0x0f, 0x0c, 0x00, 0x0c,
	0xff, 0xdc, 0xf6, 0xfc, 0x05, 0x0c, 0x1a, 0x23, 0xf6, 0x0f, 0xe7, 0x0e, 0xff, 0x1a, 0x01,
	0x00, 0xf4, 0xf1, 0xee, 0xfe, 0xf9, 0xfa, 0x1f, 0x0d, 0xfd, 0x13, 0x1b, 0x1d, 0x05, 0x0a,
	0x13, 0x07, 0x01, 0x18, 0xf7, 0xfe, 0x0b, 0x01, 0x07, 0xfd, 0xf1, 0x05, 0x03, 0xef, 0x1c,
	0x03, 0xe5, 0x06, 0x02, 0x13, 0x02, 0x03, 0x31, 0x03, 0x0d, 0xed, 0x0c, 0xfb, 0x13, 0x04,
	0xf1, 0x15, 0xf1, 0x14, 0xed, 0xef, 0xf2, 0x1c, 0x05, 0x0d, 0xf0, 0xe0, 0x05, 0xde, 0x16,
	0x0c, 0xfa, 0x0e, 0xe7, 0xfc, 0x19, 0xee, 0x24, 0x11, 0x03, 0x1d, 0x01, 0xe0, 0x14, 0xf7,
	0xe1, 0x00, 0xf1, 0x1d, 0x0e, 0xe9, 0xf5, 0xfe, 0xf1, 0x03, 0xfd, 0x05, 0x08, 0x01, 0x00,
	0xfa, 0x19, 0x10, 0x2c, 0xfa, 0xf4, 0xfc, 0xf5, 0xea, 0xff, 0x1c, 0x17, 0x10, 0xf0, 0x0e,
	0xf7, 0xeb, 0x00, 0xed, 0x03, 0x06, 0x1c, 0x0e, 0xfb, 0x01, 0xee, 0x1d, 0x01, 0x23, 0xea,
	0xee, 0xef, 0xfa, 0xeb, 0xff, 0xfb, 0xeb, 0x15, 0x02, 0x02, 0x10, 0x19, 0x10, 0xf2, 0x03,
	0x1b, 0x0f, 0x0e, 0x1b, 0xeb, 0x00, 0x1c, 0xf7, 0xff, 0xf7, 0x02, 0x08, 0x0e, 0x00, 0x25,
	0x08, 0xea, 0x07, 0xfd, 0x1d, 0x02, 0xfc, 0x16, 0xfe, 0x00, 0xff, 0x1b, 0xf2, 0x02, 0x11,
	0x0c, 0x19, 0xf6, 0x10, 0xe5, 0x01, 0xf2, 0x14, 0xfe, 0x01, 0xeb, 0xe3, 0x0c, 0xe8, 0x1c,
	0x14, 0x06, 0x12, 0xe4, 0x08, 0x04, 0xea, 0x26, 0x0a, 0x04, 0x12, 0x09, 0xed, 0x19, 0xfa,
	0xcc, 0x07, 0xe9, 0x17, 0x08, 0xe2, 0x10, 0x04, 0xf4, 0x0a, 0xe6, 0x00, 0xfc, 0x09, 0xfb,
	0x07, 0x15, 0x1c, 0x1c, 0xfc, 0xf2, 0xfd, 0xf1, 0xf7, 0x14, 0x16, 0xf9, 0x0a, 0x02, 0x10,
	0x0c, 0xd8, 0x05, 0xfe, 0xfb, 0x17, 0x27, 0x1e, 0xf7, 0x06, 0xeb, 0x11, 0xf7, 0x28, 0xf1,
	0xea, 0xed, 0xfa, 0xe6, 0xff, 0xfe, 0xe9, 0x1e, 0x02, 0x10, 0x09, 0x0b, 0x05, 0x00, 0xf8,
	0x25, 0x14, 0xff, 0x15, 0xef, 0x0b, 0x01, 0xef, 0x0d, 0x15, 0x06, 0x00, 0x0d, 0x0d, 0x28,
	0x0b, 0xeb, 0x08, 0x0a, 0x0d, 0x0b, 0x0e, 0x21, 0x04, 0x00, 0xf5, 0x07, 0x00, 0x01, 0x0d,
	0x08, 0x03, 0xe3, 0x11, 0xe7, 0xf2, 0x01, 0x14, 0xf7, 0xfd, 0xf8, 0xde, 0xf7, 0xda, 0x0c,
	0xf6, 0xee, 0x0c, 0xf7, 0x1d, 0x1a, 0xff, 0x2f, 0x17, 0x10, 0x08, 0xfd, 0xe0, 0x08, 0xf0,
	0xea, 0x03, 0xf4, 0x0d, 0x10, 0xf7, 0x01, 0x03, 0x04, 0x09, 0xf4, 0x05, 0xfa, 0xf5, 0xff,
	0x01, 0x1d, 0x14, 0x1b, 0xf9, 0xf7, 0xf9, 0xfd, 0xf3, 0xf8, 0x24, 0x10, 0x09, 0xec, 0x10,
	0x00, 0xe1, 0xf1, 0x03, 0x01, 0x24, 0x21, 0x1d, 0xf1, 0x07, 0xea, 0x08, 0xfa, 0x1c, 0x00,
	0xeb, 0xed, 0xeb, 0xe4, 0xf2, 0x01, 0xf5, 0x1e, 0x1a, 0x06, 0x04, 0xfe, 0x14, 0xf1, 0x0d,
	0x1e, 0xfa, 0x0f, 0xf9, 0xe8, 0x05, 0xff, 0xff, 0xfe, 0xf7, 0x01, 0x03, 0xfa, 0x06, 0x0b,
	0x13, 0xeb, 0x03, 0xf6, 0x05, 0xf5, 0x07, 0x09, 0x17, 0x0e, 0xec, 0x00, 0xef, 0x12, 0x15,
	0x0f, 0xfe, 0x07, 0x00, 0xd7, 0xf2, 0x08, 0x19, 0xf7, 0xf2, 0xf3, 0xdb, 0xf6, 0xdf, 0x1a,
	0xf8, 0xe4, 0x00, 0xd2, 0x07, 0x0e, 0xfc, 0x36, 0x1d, 0x11, 0x0c, 0x03, 0xdd, 0x1f, 0xf1,
	0xed, 0xf2, 0xfa, 0x06, 0x10, 0xf4, 0x05, 0xfb, 0x0e, 0x11, 0xe6, 0x08, 0xfd, 0x0a, 0x01,
	0x11, 0x21, 0x1d, 0x12, 0xf2, 0xe5, 0xfa, 0xf9, 0xf9, 0x00, 0x26, 0x0c, 0x13, 0xf3, 0x08,
	0x0b, 0xe2, 0x01, 0x0a, 0x0f, 0x19, 0x28, 0x07, 0xee, 0x0a, 0xf1, 0x0c, 0xf2, 0x1e, 0xf9,
	0xe7, 0xfe, 0xe9, 0xeb, 0x16, 0xf8, 0xf3, 0x29, 0xfb, 0xfe, 0xf5, 0x0c, 0x12, 0xfc, 0xfd,
	0x2a, 0xfc, 0xf8, 0x07, 0xfc, 0x0f, 0x0e, 0xef, 0x03, 0xed, 0x0a, 0x05, 0x07, 0xf3, 0x1f,
	0x12, 0xde, 0x03, 0x07, 0x1e, 0xf7, 0xfd, 0x1a, 0x06, 0xfc, 0xf2, 0x0a, 0x04, 0x0c, 0xfe,
	0x0c, 0x06, 0xfa, 0xf7, 0xea, 0xf2, 0xf7, 0x19, 0x03, 0xee, 0x08, 0xc8, 0x05, 0xdc, 0x2b,
	0xfe, 0xeb, 0x10, 0xde, 0x15, 0x02, 0xfc, 0x3c, 0x0a, 0x00, 0x06, 0xfe, 0xfa, 0x04, 0xef,
	0xe8, 0xfe, 0xeb, 0x15, 0x13, 0xf1, 0x09, 0x06, 0x0b, 0xff, 0xe6, 0x04, 0xf6, 0xfb, 0x00,
	0x00, 0x20, 0x0d, 0x1a, 0xf6, 0xe7, 0x02, 0x0e, 0xee, 0xfb, 0x1c, 0x00, 0x12, 0xe6, 0x10,
	0x16, 0xe6, 0xf7, 0xfa, 0x16, 0x1b, 0x1e, 0x0c, 0xfe, 0x14, 0xf4, 0x1f, 0x05, 0x27, 0xfc,
	0xd6, 0xf8, 0xfa, 0xf3, 0x10, 0x08, 0xf5, 0x22, 0x0e, 0x12, 0xfe, 0x00, 0x1c, 0xf2, 0xfc,
	0x19, 0x10, 0x08, 0x0a, 0xf1, 0x14, 0x11, 0xf8, 0x05, 0xfa, 0xf3, 0xfe, 0x0c, 0x0b, 0x1f,
	0x01, 0xe9, 0x01, 0xf8, 0x03, 0xf7, 0x06, 0x09, 0xfc, 0x05, 0xf9, 0x00, 0xf1, 0x04, 0x04,
	0x02, 0x13, 0xe7, 0xf7, 0x02, 0xe6, 0xf2, 0x2c, 0x10, 0xd7, 0xfb, 0xc0, 0xea, 0xde, 0x1c,
	0x10, 0xfc, 0xff, 0xea, 0x0d, 0x0d, 0x05, 0x23, 0x1b, 0x02, 0xfb, 0xfc, 0xe5, 0x25, 0xe9,
	0xe4, 0xf1, 0xf7, 0x0e, 0xff, 0x1d, 0x04, 0x0a, 0x08, 0x06, 0xe5, 0x06, 0xfe, 0xf8, 0x08,
	0xfc, 0x2a, 0x08, 0x18, 0xe7, 0xf3, 0x01, 0x00, 0xfd, 0xf6, 0x12, 0x01, 0x09, 0xf9, 0xfd,
	0x07, 0xe0, 0xf1, 0xf3, 0x15, 0x19, 0x0e, 0x18, 0xec, 0x03, 0xf0, 0x13, 0x05, 0x2a, 0x03,
	0xe1, 0x06, 0xf3, 0xeb, 0x01, 0xef, 0xef, 0x16, 0x14, 0x0a, 0xfb, 0x19, 0x08, 0xfd, 0x03,
	0x1a, 0x08, 0x06, 0x06, 0xf5, 0x15, 0x0e, 0xec, 0x01, 0xea, 0x0d, 0x0c, 0x11, 0xe1, 0x0c,
	0x19, 0xf7, 0x0a, 0xff, 0x05, 0xee, 0x08, 0x14, 0xfa, 0x09, 0xf0, 0xfb, 0xf6, 0xf7, 0x05,
	0xfc, 0x0b, 0xfe, 0xea, 0xf1, 0xf5, 0x03, 0x1c, 0xfd, 0xe6, 0x04, 0xd5, 0x0a, 0xe5, 0x2b,
	0xfc, 0xec, 0x14, 0xe8, 0x10, 0x1b, 0x12, 0x27, 0x17, 0x12, 0xf8, 0xf1, 0xef, 0x10, 0xf9,
	0xf9, 0xf7, 0xf3, 0x10, 0x15, 0x04, 0xfb, 0xf3, 0xfb, 0xf9, 0xeb, 0xf2, 0xfd, 0xf2, 0xf9,
	0x14, 0x1d, 0x11, 0x11, 0xf9, 0xf1, 0x0b, 0xf6, 0xee, 0x0a, 0x22, 0xff, 0x0b, 0xdb, 0x02,
	0x0a, 0xef, 0x00, 0xf7, 0x13, 0x0a, 0x1e, 0x0c, 0xf8, 0x12, 0xe0, 0x1e, 0xf6, 0x24, 0x06,
	0xe2, 0x08, 0xfe, 0xea, 0x14, 0xfa, 0xe3, 0x0f, 0x07, 0x12, 0xfe, 0x05, 0x2c, 0xf6, 0x0d,
	0x25, 0xf6, 0xf8, 0x0d, 0xee, 0x13, 0x11, 0xfe, 0x05, 0xf6, 0x0b, 0x10, 0x0f, 0xf6, 0x03,
	0x1b, 0xfa, 0xfb, 0x10, 0x06, 0xe6, 0xf1, 0x16, 0xfc, 0xff, 0xf4, 0xf6, 0xf8, 0x13, 0x14,
	0x00, 0x06, 0xf6, 0xed, 0xe2, 0xf7, 0x10, 0x0b, 0x0b, 0xec, 0xfe, 0xcd, 0xea, 0xf2, 0x29,
	0xeb, 0xf6, 0xfd, 0xf3, 0xf4, 0x21, 0x08, 0x1e, 0xf5, 0xfa, 0xf9, 0xfe, 0xea, 0x1e, 0xe3,
	0xfa, 0xee, 0xe9, 0x0d, 0x01, 0x02, 0x06, 0x03, 0x0f, 0xf6, 0xf7, 0xf0, 0x03, 0x03, 0xf5,
	0x00, 0x2d, 0x14, 0x16, 0xfa, 0xe9, 0xf6, 0xfc, 0xfe, 0x05, 0x16, 0x07, 0x19, 0xdb, 0x1d,
	0x0c, 0xe3, 0xfa, 0xf5, 0x2c, 0x0b, 0x1e, 0x06, 0xea, 0xfd, 0xe7, 0x1f, 0xf5, 0x1e, 0x05,
	0xf9, 0x16, 0xf6, 0xde, 0x1d, 0xf8, 0xed, 0x14, 0xfe, 0x16, 0xef, 0x08, 0x1b, 0xee, 0x0a,
	0x15, 0xfa, 0x08, 0x05, 0xf3, 0x05, 0x0f, 0xed, 0xfb, 0x04, 0x07, 0xfe, 0x04, 0xe5, 0x12,
	0x1c, 0xea, 0xff, 0x04, 0x09, 0xf3, 0xf7, 0x15, 0xff, 0xf6, 0xe6, 0xed, 0xfd, 0x05, 0x14,
	0x17, 0x1c, 0xe8, 0xfc, 0xe2, 0xfc, 0xf5, 0x23, 0x15, 0xea, 0xeb, 0xe5, 0xf5, 0xea, 0x37,
	0xfc, 0x03, 0xff, 0xfc, 0xf1, 0x08, 0x11, 0x15, 0x0f, 0xef, 0xe8, 0xf5, 0xec, 0x16, 0xf5,
	0x00, 0xf2, 0xe7, 0x0f, 0x06, 0x0f, 0x06, 0x00, 0x09, 0x08, 0xee, 0xfa, 0xfb, 0xfd, 0x05,
	0xf5, 0x0b, 0x0b, 0xfb, 0xf9, 0xfa, 0x00, 0x00, 0x01, 0x1a, 0x1d, 0x06, 0x16, 0xe0, 0x16,
	0x01, 0xf5, 0x00, 0xe4, 0x31, 0x0c, 0x11, 0x21, 0xe8, 0x0a, 0xe6, 0x22, 0xf5, 0x29, 0x09,
	0xf9, 0xfd, 0xf2, 0xfc, 0x05, 0xf5, 0x01, 0x1f, 0x0a, 0x2b, 0xf1, 0x09, 0x0c, 0xf3, 0x20,
	0x25, 0xff, 0xfa, 0xf4, 0xf4, 0x03, 0x1b, 0x03, 0xfb, 0xff, 0x13, 0x06, 0x0b, 0xe7, 0x17,
	0x29, 0xf7, 0x0c, 0x18, 0xec, 0xeb, 0x03, 0x14, 0xff, 0x03, 0xf6, 0xf0, 0x0a, 0xf1, 0x08,
	0xfc, 0x1b, 0xe6, 0xeb, 0xe4, 0xf8, 0x0b, 0x29, 0x05, 0xe8, 0xee, 0xde, 0x04, 0x08, 0x3d,
	0x01, 0xf8, 0x16, 0xe8, 0xfd, 0xff, 0x06, 0x1d, 0x17, 0xf0, 0xf8, 0x08, 0xe8, 0x1f, 0x06,
	0x0e, 0xfa, 0xe1, 0x15, 0xf5, 0x0d, 0x09, 0x03, 0xfc, 0x1a, 0xf4, 0xe0, 0xef, 0x21, 0xf9,
	0x00, 0x26, 0x0e, 0xef, 0xf7, 0xe1, 0x01, 0x00, 0x0a, 0x0a, 0x27, 0x0f, 0x18, 0xd1, 0x18,
	0x14, 0xf7, 0xea, 0xdd, 0x3d, 0x19, 0x0c, 0x1e, 0xde, 0x12, 0xda, 0x35, 0xf5, 0x3a, 0x06,
	0x06, 0xf8, 0xfd, 0xfa, 0x0a, 0xe3, 0xf8, 0x25, 0xf1, 0x2e, 0xf0, 0x0a, 0x25, 0xeb, 0x19,
	0x2d, 0xf1, 0x01, 0xf4, 0x0a, 0x14, 0x12, 0xf2, 0x06, 0x1a, 0x2a, 0xed, 0x02, 0x04, 0x0d,
	0x2c, 0xea, 0x2e, 0x0d, 0x09, 0xfc, 0xe1, 0x15, 0xf6, 0x13, 0xee, 0xea, 0x1e, 0x05, 0x1d,
	0x27, 0x1b, 0xd7, 0xee, 0xed, 0xf8, 0x11, 0x26, 0x22, 0xeb, 0x0f, 0xc3, 0x0f, 0xeb, 0x2a,
	0xec, 0xf2, 0x09, 0xf1, 0xe1, 0x08, 0x0b, 0x2a, 0x1c, 0x03, 0xf7, 0x03, 0xec, 0x16, 0xf7,
	0xf2, 0xf7, 0xdf, 0x0a, 0xfd, 0x10, 0xf5, 0xf4, 0x0a, 0x0e, 0xeb, 0x08, 0xf8, 0xd9, 0xf4,
	0x11, 0xbf, 0x09, 0xde, 0xfa, 0xf4, 0xfd, 0xea, 0xfd, 0xfd, 0xda, 0x0f, 0x19, 0xf3, 0xfb,
	0x12, 0xc3, 0xdb, 0xf9, 0x24, 0x9f, 0x31, 0xae, 0x47, 0x1d, 0xe9, 0xfc, 0xed, 0xfe, 0x01,
	0xf2, 0xe0, 0xdb, 0x06, 0xf5, 0x01, 0x0c, 0x19, 0x08, 0xfb, 0xed, 0x20, 0xeb, 0xf8, 0x0a,
	0x01, 0x1a, 0x0e, 0x28, 0x0e, 0xf9, 0x13, 0x0d, 0xf5, 0xe2, 0xfa, 0xfc, 0xfe, 0x07, 0x04,
	0xea, 0x03, 0x08, 0xf6, 0x06, 0xfe, 0x0e, 0x02, 0xf4, 0xf4, 0x06, 0x09, 0x20, 0x04, 0xfb,
	0x01, 0xfb, 0x31, 0x14, 0x35, 0x1b, 0x15, 0xf2, 0x28, 0x10, 0xe3, 0xfb, 0xef, 0x28, 0xfc,
	0xee, 0x04, 0xec, 0x05, 0xec, 0xf9, 0x21, 0xe5, 0xee, 0xfa, 0x03, 0xf8, 0xfe, 0xcc, 0x29,
	0xd1, 0x1a, 0x1c, 0x1d, 0xff, 0x24, 0x01, 0x02, 0x1e, 0xfa, 0x04, 0x00, 0xf8, 0xde, 0x02,
	0x08, 0xd9, 0xe4, 0xef, 0xe6, 0x01, 0x03, 0xe9, 0x06, 0xfe, 0xe9, 0x0e, 0x08, 0xef, 0xf9,
	0x09, 0xce, 0xf1, 0xe3, 0x25, 0xd8, 0x16, 0xc7, 0x2a, 0xfb, 0xf4, 0xfc, 0xf2, 0x07, 0xfa,
	0xfb, 0xf9, 0x15, 0x16, 0xf9, 0xfe, 0x00, 0x06, 0xff, 0x03, 0xf0, 0x0c, 0xeb, 0x02, 0x08,
	0x07, 0x11, 0xf3, 0x19, 0x13, 0x01, 0x0f, 0xff, 0x01, 0xde, 0xee, 0x04, 0xee, 0x12, 0x01,
	0x0a, 0xfd, 0x0f, 0xfb, 0x06, 0x04, 0xfe, 0x13, 0x09, 0xf9, 0x26, 0x00, 0x21, 0xf5, 0x00,
	0x06, 0x0e, 0x1c, 0x08, 0x21, 0x00, 0x07, 0xeb, 0x26, 0x06, 0xf9, 0x02, 0xd9, 0x18, 0xfd,
	0xfd, 0x0f, 0xdf, 0x09, 0x0a, 0xf0, 0x01, 0xe9, 0xf8, 0xf5, 0x00, 0xfa, 0x04, 0xe6, 0x10,
	0xec, 0xfb, 0x07, 0x21, 0x1f, 0x1a, 0x01, 0xee, 0x00, 0xe8, 0x0a, 0x01, 0xfb, 0xed, 0x00,
	0x11, 0xe1, 0xee, 0xed, 0xfd, 0xed, 0xfd, 0xf7, 0xf9, 0xf9, 0xf9, 0x0d, 0x0c, 0x00, 0xf7,
	0x08, 0xdb, 0x06, 0xf9, 0x10, 0xf0, 0xff, 0xdb, 0x1d, 0xf8, 0xe0, 0x11, 0xfc, 0x0a, 0x08,
	0xf7, 0xf3, 0x0f, 0x0f, 0xf0, 0x09, 0xfa, 0x12, 0x05, 0x07, 0xf7, 0x06, 0xec, 0x02, 0xf3,
	0xef, 0x14, 0xfb, 0x06, 0x00, 0x06, 0xfa, 0x19, 0xe5, 0xe1, 0xfc, 0xf2, 0xf0, 0x1d, 0x02,
	0x09, 0x07, 0x1d, 0x07, 0xff, 0xfe, 0x00, 0x0b, 0x00, 0x09, 0x0e, 0x08, 0x1f, 0xf7, 0xfc,
	0x0f, 0x0e, 0x16, 0x03, 0x1d, 0xff, 0x10, 0x01, 0x1b, 0x05, 0xfe, 0x27, 0xdf, 0x00, 0xe5,
	0xf4, 0x06, 0xe4, 0x10, 0x18, 0xea, 0xf7, 0xee, 0xf1, 0xf8, 0x09, 0x02, 0x03, 0xf8, 0x18,
	0xe7, 0x04, 0x11, 0x05, 0x18, 0x19, 0x06, 0xf1, 0x16, 0x00, 0x0a, 0xfa, 0xeb, 0xfd, 0x05,
	0x03, 0xeb, 0xf7, 0xeb, 0xe4, 0xfc, 0xf4, 0xf4, 0x02, 0xee, 0xe8, 0xff, 0x08, 0x0b, 0x06,
	0x03, 0xe7, 0x10, 0x05, 0x12, 0xe8, 0x0a, 0xdf, 0x22, 0xf2, 0xf0, 0xf2, 0xfe, 0x12, 0xf4,
	0xf2, 0xfa, 0x08, 0x06, 0xdf, 0x13, 0x00, 0x10, 0xfb, 0x0c, 0xf5, 0x0e, 0xfd, 0x06, 0xf7,
	0xf0, 0x13, 0xfa, 0x0b, 0xfe, 0xff, 0xfb, 0x02, 0xe7, 0xe2, 0xf4, 0xf5, 0xf7, 0x21, 0x28,
	0x10, 0xfb, 0xfd, 0x07, 0x03, 0xfc, 0xff, 0xf4, 0x0e, 0xfc, 0x06, 0xf6, 0x08, 0xfe, 0xfa,
	0xff, 0x11, 0x16, 0x04, 0x23, 0x0c, 0x1b, 0xf7, 0x16, 0xfb, 0x0e, 0x19, 0xda, 0x03, 0xf7,
	0x0a, 0x07, 0xe8, 0xf4, 0x00, 0xeb, 0x02, 0xdd, 0xf0, 0xfe, 0x1c, 0x07, 0xf9, 0xf6, 0x17,
	0xe9, 0xf8, 0x11, 0x0e, 0x0e, 0x1c, 0x0a, 0xd4, 0x0c, 0xf6, 0xff, 0xfb, 0xf7, 0xf0, 0xfd,
	0x00, 0xe6, 0xff, 0xed, 0xea, 0xee, 0xfc, 0x14, 0xf3, 0xef, 0xe5, 0x09, 0x07, 0x01, 0x01,
	0x14, 0xe3, 0xfe, 0x21, 0x0f, 0xf9, 0x08, 0xe2, 0x1e, 0xf6, 0xf5, 0xfc, 0xf7, 0xe9, 0xf1,
	0xee, 0x08, 0x0c, 0x10, 0xe0, 0x12, 0x08, 0x12, 0xf4, 0x1c, 0xf3, 0xf4, 0xff, 0x05, 0x04,
	0x07, 0xfc, 0x09, 0xf6, 0x01, 0x02, 0x04, 0xfd, 0x06, 0xdf, 0x04, 0xe5, 0xfd, 0x29, 0x06,
	0xfa, 0x0c, 0x08, 0x05, 0x16, 0xf2, 0x03, 0x0a, 0x0e, 0x0a, 0x1f, 0x02, 0x17, 0xf4, 0xfe,
	0x00, 0xfd, 0x23, 0x0f, 0x11, 0x01, 0x03, 0xfd, 0xf6, 0x09, 0x02, 0x0d, 0xe1, 0xe9, 0xfc,
	0x1b, 0xf7, 0xf6, 0x18, 0x03, 0xe8, 0xee, 0xe0, 0xf8, 0xfc, 0x06, 0x10, 0xff, 0xed, 0x1b,
	0xf2, 0xfe, 0x14, 0x08, 0x13, 0x16, 0xfe, 0xe1, 0x1b, 0xee, 0xec, 0x00, 0xed, 0xf4, 0xff,
	0x05, 0xf1, 0x08, 0xe0, 0xe7, 0xf0, 0xfc, 0x00, 0xf5, 0xfe, 0xf1, 0x09, 0xf0, 0x03, 0x04,
	0xff, 0xdc, 0x07, 0x12, 0x00, 0xd9, 0x00, 0xd1, 0x12, 0xff, 0xe8, 0xff, 0xfb, 0x07, 0x02,
	0xfa, 0xfd, 0x10, 0x12, 0xe9, 0x0f, 0x06, 0x10, 0x06, 0x0b, 0xf7, 0x11, 0xfd, 0xfa, 0x07,
	0xf5, 0xfa, 0x17, 0xf7, 0x13, 0xfd, 0xee, 0x02, 0xe4, 0xfb, 0xfb, 0xee, 0xff, 0x17, 0x04,
	0x0d, 0x0b, 0xf3, 0x16, 0xe8, 0xed, 0x08, 0x03, 0x15, 0x05, 0x11, 0xf6, 0x20, 0xfb, 0x01,
	0xf6, 0x08, 0x07, 0x0d, 0x12, 0x01, 0x14, 0x07, 0x02, 0x0a, 0x16, 0x1c, 0xf7, 0x03, 0xe4,
	0x15, 0x0d, 0xe4, 0x03, 0xf5, 0xef, 0xfa, 0xe5, 0xf1, 0xf8, 0x11, 0x0b, 0x10, 0x06, 0x17,
	0xfc, 0xff, 0x17, 0x0a, 0x0c, 0x1a, 0xf8, 0xd5, 0x20, 0xef, 0xea, 0xf5, 0x06, 0xfc, 0xfb,
	0x04, 0xf1, 0x00, 0xef, 0xf0, 0xf4, 0xf9, 0xf7, 0xfa, 0xfc, 0xe7, 0xfe, 0x02, 0x06, 0xf5,
	0x0c, 0xe1, 0x00, 0x05, 0x07, 0xe1, 0x09, 0xe4, 0x1b, 0x0b, 0xed, 0xf1, 0x09, 0x04, 0x04,
	0x00, 0x05, 0x0e, 0x14, 0xe8, 0x07, 0xf1, 0x18, 0x01, 0x1c, 0xf5, 0xfc, 0x08, 0x00, 0x09,
	0x09, 0x0c, 0x17, 0x09, 0x07, 0x05, 0xf0, 0xfd, 0xed, 0xea, 0xfe, 0xf2, 0xf6, 0xff, 0xf9,
	0xf5, 0x07, 0x0a, 0xfa, 0x02, 0xfd, 0x0d, 0x00, 0x07, 0x0c, 0x19, 0xfd, 0x10, 0xf9, 0x13,
	0xf9, 0xfc, 0x21, 0xfc, 0x14, 0x06, 0x10, 0xfe, 0x0a, 0xfa, 0x03, 0x07, 0xde, 0x00, 0xe5,
	0x0e, 0xf9, 0x08, 0x12, 0xef, 0xf6, 0x02, 0xe1, 0xe9, 0xec, 0x15, 0x14, 0x10, 0xef, 0x1a,
	0xe2, 0x0f, 0x06, 0x25, 0xfd, 0x01, 0xf9, 0xdd, 0x15, 0xfb, 0x06, 0xec, 0xff, 0xf2, 0x04,
	0xf8, 0xfc, 0xf0, 0xeb, 0xf3, 0xfd, 0x07, 0x06, 0xf5, 0xf7, 0xef, 0x05, 0x04, 0xfe, 0xfa,
	0xfd, 0xdb, 0xfb, 0x14, 0x05, 0xf8, 0xf9, 0xdf, 0x11, 0x00, 0xef, 0x02, 0x08, 0xfd, 0xf7,
	0xf1, 0x04, 0xff, 0x07, 0xf7, 0x03, 0xf9, 0x12, 0x09, 0x18, 0x08, 0xfb, 0x09, 0x01, 0xf5,
	0xf8, 0x12, 0x1d, 0x00, 0x08, 0x04, 0x00, 0x04, 0xf1, 0xf2, 0xfa, 0xf8, 0xee, 0xfb, 0xec,
	0x03, 0x04, 0x0a, 0x00, 0xf3, 0xfc, 0xfd, 0xfd, 0x0b, 0x05, 0x10, 0xf6, 0x12, 0xf9, 0x0b,
	0xeb, 0xfd, 0x18, 0x06, 0x13, 0x01, 0x0e, 0xfe, 0x0e, 0xfd, 0x0d, 0x15, 0xf5, 0x04, 0xe7,
	0x15, 0x02, 0xef, 0x02, 0xf2, 0x01, 0x0c, 0xee, 0xe5, 0x04, 0x1c, 0x1c, 0x05, 0x01, 0x24,
	0xfd, 0x16, 0x0a, 0x1d, 0xfa, 0x13, 0x06, 0xe7, 0x03, 0xfc, 0x05, 0xe9, 0x0a, 0xed, 0xfc,
	0x0c, 0xe9, 0xf5, 0xdd, 0x09, 0xef, 0xfb, 0x0c, 0xfd, 0xf7, 0xe9, 0x06, 0x07, 0xf0, 0xfb,
	0x09, 0xe9, 0xf0, 0x0f, 0xf7, 0x00, 0xf9, 0xec, 0x09, 0x07, 0xe4, 0x0a, 0xf9, 0xfb, 0x0a,
	0xf8, 0x00, 0x0b, 0x04, 0xf8, 0xfa, 0x0b, 0x12, 0x07, 0x0c, 0xfa, 0x00, 0x05, 0xfe, 0xfd,
	0xf7, 0x15, 0x18, 0x04, 0x04, 0xfe, 0x10, 0x09, 0xeb, 0xfd, 0xfe, 0xeb, 0x04, 0xfe, 0xfa,
	0x00, 0x02, 0x06, 0xfb, 0x09, 0xed, 0x01, 0xfc, 0x12, 0xed, 0x0d, 0xfa, 0x18, 0xf1, 0x0d,
	0xef, 0xfa, 0x11, 0x0a, 0x10, 0x00, 0x07, 0xf0, 0x12, 0xfe, 0x0a, 0x28, 0xe7, 0x06, 0xdc,
	0xec, 0xf4, 0xf9, 0x0c, 0xed, 0x00, 0x04, 0xf0, 0xef, 0x06, 0x19, 0x0b, 0x17, 0xf2, 0x1d,
	0xf0, 0x19, 0x07, 0x1e, 0x01, 0x1e, 0xfc, 0xde, 0x09, 0x03, 0xec, 0x02, 0x0e, 0xf8, 0x06,
	0x08, 0xfd, 0x0b, 0xe9, 0x00, 0xfb, 0xf6, 0x03, 0xf8, 0xfa, 0xf2, 0x01, 0x00, 0x09, 0xfb,
	0x07, 0xe2, 0xfd, 0x0a, 0xf8, 0xfd, 0x15, 0xe0, 0x1a, 0x0a, 0xdf, 0xf2, 0x09, 0xfc, 0xf8,
	0x00, 0x11, 0xf2, 0xf0, 0x01, 0x02, 0xf9, 0x20, 0xfc, 0x14, 0xfc, 0x16, 0x15, 0xfb, 0xf6,
	0xed, 0x0f, 0x19, 0x1f, 0x08, 0xf9, 0xfa, 0x05, 0xed, 0xf8, 0xf3, 0xdd, 0xf3, 0xee, 0xf3,
	0x07, 0xf9, 0x1f, 0xf8, 0xf7, 0xf2, 0x03, 0xf3, 0x13, 0x05, 0x0c, 0x03, 0x06, 0xfe, 0x20,
	0xe4, 0x07, 0x18, 0x14, 0x0a, 0xfd, 0x0e, 0xfe, 0x17, 0xff, 0x0d, 0x20, 0x00, 0xfe, 0xea,
	0xfa, 0x08, 0xfb, 0x02, 0xfb, 0xfe, 0x10, 0xe0, 0xde, 0xfd, 0x29, 0x07, 0x24, 0xfe, 0x25,
	0x00, 0x09, 0x09, 0x1a, 0xf3, 0x19, 0xef, 0xf8, 0x0c, 0x00, 0xe5, 0xf2, 0x07, 0xee, 0xfb,
	0x03, 0xf8, 0x09, 0xdf, 0x01, 0xe3, 0xf5, 0x07, 0xfc, 0xe8, 0xf6, 0xff, 0x0c, 0x03, 0xfd,
	0x01, 0xee, 0x04, 0x0c, 0xfd, 0xfc, 0x00, 0xe7, 0x1f, 0x09, 0xe7, 0xf6, 0x09, 0xfc, 0x08,
	0x02, 0xf1, 0x0b, 0x00, 0x16, 0xfb, 0xef, 0x17, 0xf8, 0x16, 0x04, 0x08, 0x08, 0xfd, 0xf4,
	0xe8, 0x03, 0x16, 0x0a, 0x10, 0xef, 0xf1, 0xff, 0xea, 0xf3, 0xf4, 0xe9, 0xeb, 0x05, 0xea,
	0xf6, 0xfd, 0x1a, 0x00, 0x01, 0xfd, 0xf3, 0xf7, 0x14, 0xfc, 0x1e, 0x0e, 0x13, 0xfe, 0x0f,
	0xfb, 0x06, 0x15, 0x0f, 0x07, 0xff, 0x15, 0xf8, 0x08, 0xef, 0xfd, 0x1b, 0xe5, 0x0c, 0xdf,
	0xfc, 0xeb, 0xec, 0xfd, 0xe2, 0x06, 0x03, 0xe2, 0xd9, 0x14, 0x19, 0x06, 0x18, 0xf1, 0x16,
	0x00, 0x0e, 0x11, 0x0b, 0xf7, 0x1c, 0xfb, 0xea, 0x19, 0xee, 0xe2, 0x05, 0x0e, 0xed, 0x17,
	0xfb, 0x07, 0xfc, 0xe7, 0x0c, 0xed, 0x02, 0xf7, 0xf6, 0xe5, 0xea, 0x08, 0x0b, 0xfe, 0xf3,
	0xfc, 0xe6, 0x18, 0x0a, 0xf1, 0xf8, 0x07, 0xf3, 0x0b, 0xff, 0xe9, 0xf3, 0xfc, 0x0e, 0x0a,
	0xf2, 0xf9, 0xef, 0x01, 0xfa, 0xfa, 0xeb, 0x01, 0xff, 0x0c, 0x02, 0xfb, 0x03, 0xf0, 0x01,
	0xf0, 0x00, 0x1e, 0x0d, 0x12, 0xfc, 0x03, 0xf4, 0xef, 0xf8, 0xef, 0xe6, 0xf7, 0x04, 0xf6,
	0xed, 0xff, 0x05, 0xf8, 0x0c, 0xe6, 0xfb, 0xf0, 0x09, 0x0c, 0x1e, 0xf5, 0x00, 0xf8, 0x13,
	0xf5, 0x06, 0xfb, 0x22, 0x11, 0x0c, 0x16, 0xfc, 0x11, 0x02, 0xfe, 0x1f, 0x01, 0x0b, 0xe3,
	0x00, 0xfd, 0x03, 0xfa, 0xdd, 0x02, 0x0f, 0xf7, 0xe3, 0x05, 0x2a, 0x06, 0x1d, 0x08, 0x16,
	0x0e, 0x1d, 0xfd, 0x13, 0x0d, 0x09, 0xf9, 0x01, 0x0b, 0xe5, 0xfa, 0xf0, 0x0b, 0x00, 0xfc,
	0x14, 0xf6, 0x02, 0xdb, 0x1a, 0x03, 0xf2, 0xfc, 0xe4, 0xe6, 0xf3, 0x09, 0xfd, 0x1e, 0xec,
	0xfd, 0xf3, 0x0f, 0xfc, 0xec, 0xff, 0x0c, 0xe2, 0x17, 0xff, 0xe3, 0xf8, 0xfa, 0xef, 0x02,
	0x0a, 0x0b, 0x04, 0x01, 0x11, 0xf7, 0xf5, 0x01, 0xf9, 0x22, 0xf3, 0xf6, 0xff, 0xe9, 0xfb,
	0xfc, 0x11, 0x08, 0x19, 0x0c, 0xf4, 0x0d, 0xeb, 0x0b, 0x00, 0xe0, 0xf2, 0xff, 0x0c, 0xfc,
	0xee, 0x06, 0x05, 0xf7, 0x0d, 0xfe, 0x08, 0x01, 0xfe, 0x21, 0x15, 0x03, 0x0c, 0x0d, 0x06,
	0xf8, 0x0d, 0x10, 0x04, 0x15, 0x07, 0x0e, 0xf2, 0x13, 0xf2, 0x21, 0x24, 0xf8, 0x15, 0xdd,
	0xe6, 0x19, 0x03, 0xfe, 0xee, 0x01, 0x02, 0xed, 0xea, 0x16, 0x11, 0x09, 0x25, 0xf5, 0x14,
	0xfc, 0x37, 0x16, 0x07, 0x08, 0x10, 0xf4, 0x01, 0x09, 0xfb, 0xf5, 0xf1, 0x20, 0x0a, 0xf8,
	0x03, 0x07, 0x13, 0xe9, 0x13, 0xfb, 0xee, 0xf8, 0xec, 0xf0, 0xf3, 0x06, 0xed, 0x08, 0xf0,
	0xfe, 0xed, 0x16, 0x0f, 0xf9, 0xdb, 0x07, 0xf2, 0x05, 0x08, 0xec, 0xf3, 0xfb, 0x10, 0x13,
	0x01, 0xf3, 0x08, 0xfa, 0x0b, 0xf7, 0xf5, 0xfc, 0xf6, 0x26, 0xe8, 0xed, 0xf7, 0xe6, 0xef,
	0xe6, 0x12, 0x10, 0x11, 0x0a, 0xf0, 0xf8, 0xf7, 0xf0, 0x02, 0xf0, 0x06, 0xf2, 0x1a, 0xfa,
	0xf7, 0xfd, 0x07, 0xfa, 0xfe, 0xf7, 0x08, 0x02, 0x0a, 0x10, 0x0f, 0xf1, 0x0d, 0x02, 0x0f,
	0x01, 0x0f, 0x08, 0x12, 0x21, 0xfa, 0x0b, 0xe7, 0x13, 0xf2, 0x0b, 0x29, 0xfe, 0x05, 0xeb,
	0xf0, 0x10, 0xf2, 0x0d, 0xee, 0x0a, 0xf6, 0xf8, 0xef, 0x0b, 0x20, 0x0a, 0x21, 0xf9, 0x0b,
	0x17, 0x1a, 0x17, 0x12, 0xfb, 0x0a, 0xed, 0xf6, 0x10, 0xf1, 0xee, 0xfa, 0x0d, 0xfe, 0x05,
	0x02, 0x01, 0xfc, 0xef, 0x0c, 0xec, 0xed, 0xff, 0xf3, 0xec, 0xe9, 0x16, 0xfb, 0x0d, 0xdf,
	0x00, 0xed, 0x17, 0x04, 0xe8, 0xed, 0x04, 0xe2, 0x09, 0x08, 0xdc, 0xf4, 0x06, 0x05, 0x0b,
	0x07, 0x00, 0x25, 0x08, 0x18, 0x00, 0xfd, 0x02, 0xf2, 0x2f, 0x06, 0xf5, 0xf8, 0xe7, 0xfe,
	0x01, 0x08, 0x0b, 0x1a, 0xfb, 0xf4, 0xfd, 0xf1, 0xf5, 0xfa, 0xf5, 0xf0, 0xf0, 0x26, 0xf2,
	0xea, 0x07, 0x08, 0x12, 0x17, 0x04, 0xf6, 0xf5, 0x11, 0x04, 0x0b, 0xf4, 0x16, 0xf8, 0x06,
	0xfb, 0x06, 0xf7, 0xf5, 0x12, 0xe9, 0xed, 0xe8, 0x0f, 0xf2, 0x00, 0x34, 0xfc, 0x15, 0xe1,
	0xfa, 0x0c, 0xe1, 0x04, 0xdd, 0xf5, 0x0a, 0xec, 0xe4, 0x09, 0x22, 0x02, 0x24, 0xf4, 0x02,
	0x25, 0x15, 0x08, 0x0f, 0x1e, 0xfe, 0xef, 0xe6, 0xfe, 0xe8, 0xef, 0xb4, 0x14, 0xfe, 0xf4,
	0xfc, 0xef, 0x07, 0xe2, 0xeb, 0xdf, 0xf0, 0xea, 0xd2, 0xe4, 0xe7, 0x04, 0x02, 0x0b, 0xc2,
	0xe5, 0xf7, 0x0f, 0x25, 0xeb, 0xe6, 0x3b, 0xd6, 0x27, 0x04, 0xb6, 0xcd, 0x10, 0x01, 0x0c,
	0xfb, 0x0f, 0x0c, 0x03, 0xee, 0x08, 0xfe, 0xff, 0xfb, 0x13, 0x06, 0xf3, 0xe7, 0xe9, 0xdf,
	0xda, 0xfa, 0x1c, 0x15, 0x00, 0xfa, 0x0d, 0xfd, 0xf3, 0xff, 0xe2, 0xd0, 0xf7, 0x0e, 0xf9,
	0xe4, 0xfe, 0x08, 0x0c, 0xf1, 0x00, 0xfd, 0x07, 0xf4, 0x00, 0x1d, 0x14, 0x16, 0x00, 0xf8,
	0xf4, 0xf7, 0x1c, 0x14, 0x26, 0xfe, 0xf0, 0x01, 0x08, 0x0e, 0x02, 0x16, 0x02, 0x09, 0xe9,
	0xe2, 0x01, 0xfc, 0x03, 0xd8, 0xff, 0x0d, 0xfe, 0xe4, 0xee, 0x30, 0x17, 0x27, 0xe9, 0x12,
	0x2e, 0x14, 0x0f, 0x17, 0xfd, 0x06, 0x0f, 0xf0, 0xf2, 0xd6, 0xef, 0x02, 0x2e, 0x22, 0x1d,
	0x07, 0xc4, 0xb5, 0xf4, 0x10, 0xe8, 0xf5, 0xe7, 0x0a, 0x08, 0x26, 0xf4, 0xf8, 0x1f, 0x02,
	0x0c, 0x1e, 0x04, 0xf4, 0xe7, 0x19, 0xe5, 0x16, 0xf3, 0xe3, 0x13, 0x0d, 0x0e, 0xec, 0x0a,
	0x1a, 0xe8, 0x0d, 0x21, 0xf4, 0xff, 0x14, 0x02, 0xea, 0xff, 0xff, 0x0a, 0xd9, 0x23, 0xf3,
	0xc3, 0xfc, 0xd3, 0xeb, 0xf4, 0xd4, 0x00, 0xd2, 0x0c, 0x12, 0xed, 0x11, 0xeb, 0x10, 0xf5,
	0x17, 0x25, 0x19, 0x06, 0xf8, 0xff, 0xe5, 0xf8, 0xed, 0x01, 0x1b, 0xdc, 0x00, 0xf2, 0x19,
	0x18, 0xfa, 0x1c, 0x12, 0x02, 0xbc, 0x0b, 0xbd, 0xfe, 0x07, 0xf3, 0x39, 0x03, 0x22, 0xe8,
	0xfd, 0x0a, 0x10, 0xf9, 0x15, 0xed, 0x13, 0xe6, 0x17, 0xfb, 0x0a, 0xe0, 0x2a, 0xee, 0x18,
	0x0f, 0x14, 0x1b, 0xed, 0xff, 0x22, 0xfb, 0x16, 0xc4, 0x18, 0xfc, 0xf9, 0x37, 0x0b, 0x14,
	0x02, 0xe8, 0xcd, 0xef, 0x11, 0xf7, 0xf9, 0xf2, 0xf4, 0xfb, 0x15, 0xf8, 0xfa, 0x1a, 0xf9,
	0x0e, 0x01, 0xeb, 0xf4, 0xe6, 0x0d, 0xe9, 0xf2, 0xf7, 0xf3, 0x1b, 0x11, 0x1c, 0x0b, 0xf8,
	0x09, 0xfe, 0x12, 0x0e, 0xf4, 0xf4, 0x0a, 0xf8, 0xde, 0x05, 0xf1, 0xfb, 0xf2, 0x12, 0xf9,
	0xea, 0xed, 0xe4, 0xf0, 0xf5, 0xe9, 0x0b, 0xdb, 0x12, 0x16, 0xec, 0x11, 0xfd, 0x0f, 0x04,
	0xf2, 0x0d, 0x07, 0x02, 0xe5, 0x19, 0xe7, 0xfc, 0xf4, 0x0a, 0x15, 0xe1, 0x03, 0xf7, 0x0e,
	0xfa, 0xfd, 0x08, 0xfe, 0xf0, 0xca, 0x16, 0xd4, 0xf6, 0x16, 0xe6, 0x27, 0x0b, 0x1e, 0xf4,
	0x0b, 0x10, 0x05, 0x03, 0x0c, 0xfd, 0xfc, 0xe3, 0x03, 0xfb, 0xfe, 0xee, 0x11, 0xf5, 0x09,
	0x16, 0x1e, 0x05, 0xea, 0x02, 0x1b, 0xfa, 0x00, 0xd5, 0x0a, 0xfc, 0xf6, 0x35, 0x04, 0x17,
	0xfe, 0xf5, 0xe7, 0xf3, 0x1a, 0x08, 0xfc, 0xea, 0xfb, 0x04, 0xf7, 0xff, 0xfb, 0x14, 0xfa,
	0xf8, 0xfc, 0xef, 0xf0, 0xff, 0x14, 0xeb, 0xff, 0x06, 0xe9, 0x05, 0x06, 0x06, 0x06, 0x04,
	0x09, 0xe7, 0xf1, 0x05, 0xf3, 0xf4, 0x01, 0xf5, 0xe8, 0x07, 0xe7, 0x01, 0xea, 0x0a, 0x04,
	0xdf, 0x02, 0xe8, 0x13, 0xff, 0xf1, 0x1b, 0xe8, 0xf9, 0x12, 0xf8, 0x0e, 0xf4, 0x05, 0xeb,
	0x1d, 0x12, 0x06, 0xff, 0xf7, 0x0d, 0x0b, 0x01, 0x0e, 0x0e, 0xfe, 0xfd, 0x17, 0xf3, 0x04,
	0x0f, 0xfe, 0x10, 0x0d, 0xf5, 0xd8, 0x0e, 0xf0, 0xe8, 0x1b, 0xed, 0x2b, 0xf7, 0x20, 0xfa,
	0xfd, 0x0d, 0x11, 0x0c, 0xf7, 0x05, 0xf3, 0xf3, 0xe7, 0xfc, 0x0c, 0xe2, 0x1b, 0xee, 0x1e,
	0x25, 0x1a, 0x09, 0xfd, 0xfb, 0xff, 0xfb, 0xfb, 0xd8, 0x0c, 0x08, 0x06, 0x30, 0x11, 0x0d,
	0xf4, 0xf7, 0xd7, 0xf4, 0x1d, 0x05, 0xee, 0xec, 0xf9, 0xf4, 0x0d, 0xf7, 0x00, 0x16, 0x15,
	0x05, 0xfd, 0xe5, 0xe2, 0xf2, 0x09, 0xe7, 0xfb, 0x02, 0xf0, 0xfb, 0x0e, 0x09, 0x01, 0xf3,
	0x1f, 0xea, 0x09, 0x04, 0xeb, 0xed, 0x01, 0x01, 0xfa, 0xeb, 0xe5, 0x06, 0xe2, 0x13, 0x0b,
	0xe4, 0xf2, 0xf6, 0xfd, 0xf8, 0xed, 0x0c, 0xe4, 0xfa, 0xf8, 0xef, 0x13, 0xf4, 0x19, 0xe8,
	0x0f, 0x00, 0xfa, 0xf9, 0x06, 0x0c, 0xfe, 0xe3, 0xf7, 0x06, 0x08, 0xf2, 0xfe, 0xf6, 0x04,
	0x07, 0x02, 0x17, 0x13, 0xf9, 0xda, 0x10, 0xf1, 0xfb, 0x0c, 0xf6, 0x17, 0x04, 0x18, 0x00,
	0x0b, 0x12, 0x21, 0x07, 0xeb, 0xf2, 0x04, 0xfa, 0xf0, 0xfc, 0xf7, 0xfa, 0x1b, 0xe7, 0x0c,
	0x21, 0x0f, 0x18, 0x0a, 0x07, 0xfb, 0xff, 0xff, 0xdc, 0x05, 0x26, 0x02, 0x2b, 0x12, 0x0b,
	0x15, 0x01, 0xe8, 0xf7, 0xfe, 0xf0, 0xfd, 0xee, 0xed, 0xfa, 0xfb, 0xf9, 0xe9, 0x1a, 0x08,
	0x02, 0xfd, 0xf4, 0xe9, 0xf3, 0x06, 0xe9, 0x0b, 0x0a, 0xe6, 0x05, 0x10, 0x1c, 0x08, 0xfe,
	0x1a, 0xf9, 0xfe, 0x07, 0xf0, 0xf8, 0x09, 0xfc, 0xf3, 0xfd, 0xe7, 0x06, 0x00, 0x1b, 0xee,
	0xe8, 0x04, 0xf3, 0x00, 0x03, 0xf3, 0x1c, 0xf9, 0xfe, 0xfc, 0xee, 0x01, 0xf8, 0x07, 0xe3,
	0x14, 0x12, 0x01, 0xf8, 0xfc, 0x29, 0x06, 0xdd, 0xfd, 0xfe, 0x19, 0xe7, 0x02, 0xee, 0x07,
	0x0f, 0xed, 0x0a, 0xf7, 0xf8, 0xe4, 0x0f, 0xfc, 0xe8, 0x01, 0xf9, 0x26, 0xfb, 0x15, 0xfa,
	0x01, 0x0d, 0x18, 0x06, 0xfc, 0xf0, 0xec, 0xdf, 0xf6, 0xf6, 0xfe, 0xe1, 0x18, 0xf0, 0x18,
	0x1c, 0x08, 0x14, 0xfc, 0xff, 0x0a, 0xee, 0x02, 0xe2, 0xfb, 0x20, 0xf9, 0x25, 0xfe, 0x1e,
	0x01, 0xeb, 0xd0, 0xfe, 0x05, 0xf0, 0xef, 0xf8, 0x02, 0xfa, 0x00, 0x0a, 0xfc, 0x19, 0x1b,
	0x0e, 0x0b, 0xe8, 0xf7, 0xe9, 0x08, 0xd0, 0xfc, 0x02, 0xf4, 0x01, 0x1a, 0x1d, 0x0d, 0xf9,
	0x08, 0xea, 0xf5, 0x0a, 0xe5, 0xec, 0x06, 0x0e, 0xee, 0x04, 0xfb, 0xf9, 0xf2, 0x17, 0xf1,
	0xec, 0xee, 0xf6, 0xf6, 0xf5, 0xe9, 0x09, 0xdb, 0x12, 0x06, 0x02, 0xff, 0xf8, 0x03, 0xf7,
	0x0b, 0x08, 0x14, 0xf8, 0xf3, 0x17, 0xff, 0xe6, 0x07, 0x09, 0x04, 0xf3, 0x00, 0xfa, 0x0c,
	0x02, 0xfd, 0x25, 0x0f, 0xfc, 0xf7, 0xff, 0x0f, 0xd7, 0x02, 0x01, 0x21, 0x03, 0x0b, 0x06,
	0xfa, 0x11, 0x09, 0x02, 0xf2, 0xf5, 0xf3, 0xed, 0xf5, 0xe2, 0xf9, 0xfa, 0xf5, 0xfb, 0xff,
	0x0a, 0x09, 0x0f, 0x0d, 0xff, 0xfe, 0xfd, 0x18, 0xde, 0x02, 0x0b, 0x06, 0x2a, 0x14, 0x03,
	0x0c, 0xff, 0xde, 0xf0, 0x10, 0xf6, 0xf5, 0xf0, 0x08, 0xfe, 0x00, 0x05, 0x0c, 0x0c, 0x29,
	0x03, 0x13, 0xe5, 0xdf, 0xe5, 0x0a, 0xe7, 0xfe, 0x00, 0xee, 0x01, 0x08, 0x28, 0x15, 0xf2,
	0x15, 0xea, 0x05, 0x0c, 0xfa, 0xf0, 0xfa, 0x06, 0xf8, 0xf8, 0x0c, 0xf8, 0x00, 0x16, 0x00,
	0xed, 0x00, 0xf0, 0xe9, 0xfe, 0x00, 0x03, 0xf6, 0xfe, 0xfd, 0xff, 0xfd, 0xf4, 0x03, 0xf8,
	0x10, 0x11, 0xf8, 0xfe, 0x06, 0x21, 0x00, 0xee, 0x02, 0x05, 0x0b, 0xfe, 0xfd, 0xfd, 0xfd,
	0x0f, 0x07, 0x0b, 0x17, 0xf1, 0xf4, 0x0b, 0xfc, 0xe2, 0x1e, 0x14, 0x16, 0xfb, 0x1e, 0x15,
	0xfa, 0x0d, 0xfd, 0xee, 0xf5, 0x01, 0xeb, 0xf6, 0x02, 0xf2, 0xe5, 0x00, 0x0e, 0xe6, 0xef,
	0x04, 0xff, 0x0f, 0x12, 0x04, 0x02, 0xff, 0x1d, 0xe2, 0xf5, 0x11, 0xfc, 0x21, 0x14, 0x0e,
	0xfe, 0xfb, 0xc8, 0xfc, 0x0f, 0xeb, 0xf7, 0x05, 0xf9, 0x09, 0xf9, 0x14, 0x05, 0x1a, 0x23,
	0x09, 0x09, 0xe6, 0xed, 0x00, 0x19, 0xda, 0x08, 0x08, 0xf2, 0x01, 0x09, 0x1c, 0x1c, 0xf5,
	0xfc, 0xf5, 0x04, 0x08, 0xfe, 0xf3, 0xf3, 0x02, 0xf7, 0x05, 0xf4, 0xdd, 0x0f, 0x0f, 0xe8,
	0xee, 0xfb, 0xfa, 0xf6, 0xf0, 0x03, 0x03, 0xf3, 0x02, 0x12, 0xdd, 0x04, 0xe7, 0x0b, 0x02,
	0x0c, 0x04, 0xf9, 0xed, 0x0b, 0x28, 0xf6, 0xe7, 0x06, 0x05, 0x0f, 0xf0, 0xfc, 0xef, 0xfa,
	0x01, 0x05, 0x02, 0xfc, 0x00, 0xf9, 0x0b, 0x0e, 0xe6, 0x23, 0x0b, 0x13, 0xfe, 0x1e, 0x08,
	0xf3, 0x16, 0x05, 0x04, 0xf4, 0x02, 0xfe, 0xde, 0x05, 0xf2, 0xdf, 0xf7, 0xff, 0xee, 0x0a,
	0x1d, 0x09, 0xfe, 0x05, 0xff, 0x03, 0x10, 0x1c, 0xe4, 0xf0, 0x0c, 0x09, 0x25, 0x0f, 0x0f,
	0x0d, 0x05, 0xd7, 0xf8, 0x0c, 0xe5, 0xfa, 0xff, 0x11, 0xf4, 0xff, 0x10, 0x0b, 0x0e, 0x25,
	0x04, 0x10, 0xe5, 0xf1, 0xef, 0x0e, 0xe6, 0x06, 0xf4, 0xf8, 0xfa, 0x12, 0x1d, 0xfd, 0x08,
	0x0d, 0xec, 0x03, 0x0d, 0xf7, 0x05, 0xf7, 0x08, 0xfc, 0xf5, 0xed, 0xf4, 0x0a, 0x09, 0x0a,
	0xed, 0xf6, 0xf7, 0xe2, 0xf6, 0xf8, 0x02, 0xf4, 0xfc, 0xf9, 0xed, 0x14, 0x04, 0x06, 0xf7,
	0x08, 0x0e, 0x00, 0xf7, 0x0a, 0x2e, 0x03, 0xdc, 0x0c, 0x11, 0x04, 0xe2, 0x00, 0xe5, 0xf5,
	0x10, 0xf4, 0x08, 0x10, 0x05, 0xfa, 0x16, 0xfc, 0xe6, 0x10, 0x0a, 0x14, 0x0a, 0xfe, 0xff,
	0xf3, 0x0e, 0x0b, 0xf3, 0xe9, 0x08, 0x0f, 0xd5, 0x1b, 0xe0, 0xfa, 0xf0, 0x07, 0xeb, 0x08,
	0x0c, 0x01, 0x0a, 0xff, 0x04, 0x07, 0x04, 0x08, 0xeb, 0xf5, 0xfa, 0x06, 0x31, 0x13, 0x14,
	0xf6, 0xf7, 0xe3, 0xf8, 0x17, 0xdf, 0xf4, 0x07, 0xfd, 0x06, 0x01, 0x18, 0x10, 0x1b, 0x11,
	0xfb, 0x08, 0xf0, 0xf2, 0x04, 0x0e, 0xf5, 0xf5, 0x01, 0xe9, 0x03, 0x0e, 0x11, 0xf7, 0x09,
	0x08, 0xf2, 0x0c, 0xfa, 0xec, 0xff, 0x0d, 0xf8, 0xf7, 0x03, 0x04, 0xec, 0x15, 0x19, 0xf1,
	0xf2, 0xf5, 0xfe, 0xf5, 0x07, 0x0f, 0x09, 0xeb, 0xf3, 0x0d, 0xe2, 0x08, 0xf0, 0x10, 0xfa,
	0x1f, 0x18, 0xf8, 0xef, 0x0b, 0x11, 0xf8, 0xe0, 0xfd, 0x13, 0xf6, 0xfb, 0xf7, 0xef, 0xf8,
	0x1d, 0x05, 0x08, 0xfa, 0xfc, 0xf4, 0x06, 0x1b, 0xf9, 0x1b, 0x07, 0x13, 0x13, 0x0b, 0x08,
	0x06, 0xf6, 0x06, 0x00, 0xe6, 0x06, 0x06, 0xd3, 0x19, 0xee, 0xe5, 0xff, 0x04, 0xf8, 0x0a,
	0x19, 0x06, 0xf6, 0xff, 0x00, 0x04, 0x0e, 0x10, 0xe5, 0xf6, 0xf7, 0xfa, 0x1d, 0x12, 0x1c,
	0x01, 0xfd, 0xe9, 0x08, 0x15, 0xd6, 0xf2, 0x03, 0x08, 0xf3, 0xff, 0x0e, 0x17, 0x21, 0x12,
	0x0f, 0x18, 0xe8, 0xf2, 0xfc, 0x02, 0xe2, 0xf5, 0x06, 0xee, 0xf0, 0x08, 0x27, 0x06, 0x01,
	0xfa, 0x03, 0xf6, 0xfe, 0x06, 0xfa, 0xfe, 0x13, 0xe9, 0x06, 0xf2, 0xf7, 0x18, 0x17, 0xf7,
	0xf7, 0xec, 0x01, 0x06, 0xfa, 0x12, 0x11, 0xfa, 0xfe, 0x02, 0xe7, 0x01, 0x03, 0x0f, 0x00,
	0x08, 0x03, 0xfa, 0xfd, 0x05, 0x1c, 0xfd, 0xde, 0x00, 0x0a, 0xf6, 0xeb, 0xf2, 0xf6, 0x03,
	0x02, 0x02, 0xef, 0xfa, 0xfc, 0xf7, 0x0b, 0x08, 0x07, 0x1f, 0x05, 0x11, 0x1b, 0x0c, 0xfd,
	0xfc, 0xeb, 0xf8, 0xff, 0xef, 0x10, 0xff, 0xe5, 0x08, 0xdc, 0xec, 0xee, 0xfa, 0xee, 0x11,
	0x1f, 0x00, 0x0c, 0x0c, 0xee, 0xf8, 0x14, 0xf5, 0xd7, 0x0d, 0x05, 0x08, 0x31, 0x03, 0x0d,
	0xf2, 0x0b, 0xd9, 0x07, 0x26, 0xdd, 0xfd, 0x00, 0x03, 0x07, 0xfe, 0x0e, 0x01, 0x16, 0x0c,
	0x09, 0x17, 0xe3, 0xfa, 0xfd, 0x04, 0xdf, 0xfe, 0x0d, 0xdf, 0xf4, 0x0c, 0x0e, 0xf6, 0x0a,
	0xfd, 0x03, 0xfe, 0x0b, 0xfb, 0xf4, 0x09, 0xfb, 0xef, 0x13, 0x00, 0xf2, 0x0d, 0x24, 0xf4,
	0xfe, 0xf7, 0xfa, 0x04, 0xff, 0x0d, 0x11, 0xee, 0xfd, 0xf5, 0xd8, 0x0a, 0xf2, 0x16, 0xf9,
	0x00, 0x09, 0xf7, 0xf5, 0x01, 0x23, 0xef, 0xe9, 0xfe, 0x10, 0x05, 0xf7, 0xf6, 0xec, 0x08,
	0x1c, 0xfe, 0xf2, 0xeb, 0x0c, 0x02, 0x12, 0xff, 0xf2, 0x13, 0xec, 0x10, 0x21, 0xf3, 0xf7,
	0x0e, 0xf5, 0x0a, 0x00, 0xe5, 0x0d, 0xff, 0xd0, 0x0b, 0xe0, 0xdb, 0xf5, 0x05, 0xff, 0x1b,
	0x0d, 0x0c, 0xff, 0xfe, 0x02, 0x07, 0x12, 0xeb, 0xde, 0x08, 0x0a, 0x00, 0x27, 0x13, 0x02,
	0x00, 0x01, 0xd8, 0xfa, 0x1e, 0xd6, 0xf4, 0x01, 0xf2, 0xfc, 0xf9, 0x01, 0x01, 0x1c, 0x12,
	0x08, 0x16, 0xf1, 0xe8, 0x07, 0x0b, 0xe6, 0xe6, 0xf8, 0xeb, 0xf3, 0x0d, 0x05, 0x03, 0x02,
	0xf5, 0xfe, 0xea, 0xfa, 0xf4, 0x06, 0x14, 0x09, 0xde, 0x13, 0xec, 0xf0, 0x21, 0x0d, 0x0a,
	0x09, 0xec, 0xf8, 0xe6, 0xf1, 0x17, 0x01, 0xeb, 0xec, 0xf9, 0xe5, 0x0a, 0xf1, 0x1d, 0x0b,
	0x1b, 0x06, 0xeb, 0xfa, 0xf9, 0x18, 0xee, 0xd0, 0x02, 0x0a, 0x02, 0xf8, 0xf2, 0xe6, 0xfb,
	0x26, 0x02, 0x08, 0xfe, 0xee, 0xf7, 0x0a, 0x03, 0xf1, 0x02, 0xfc, 0x0b, 0x0e, 0x02, 0xf9,
	0x05, 0x16, 0x17, 0x09, 0xf0, 0x0a, 0x04, 0xe7, 0xfc, 0xff, 0xda, 0xeb, 0x06, 0x02, 0xff,
	0x20, 0x09, 0x0f, 0x00, 0x04, 0x08, 0x04, 0xfb, 0xce, 0x0c, 0xff, 0x0a, 0x31, 0x07, 0x00,
	0x10, 0x06, 0xe3, 0x08, 0x19, 0xdc, 0xe5, 0xfe, 0x1b, 0xf7, 0xe3, 0x05, 0xfa, 0x1e, 0x01,
	0x1c, 0x08, 0xd3, 0xf8, 0x09, 0xff, 0xf5, 0x00, 0xfc, 0xec, 0xfb, 0x06, 0x08, 0xfb, 0x14,
	0x01, 0x08, 0xea, 0x0b, 0xde, 0xf7, 0x15, 0x0a, 0xe3, 0x10, 0xdd, 0xf1, 0x1f, 0x0f, 0x07,
	0x05, 0xf4, 0xf2, 0xf6, 0x04, 0x0b, 0x00, 0xec, 0xf2, 0x03, 0xe9, 0x17, 0xfc, 0x17, 0xf4,
	0x0e, 0x06, 0xe4, 0xfd, 0xea, 0x20, 0xcf, 0xe8, 0x0c, 0x06, 0xe9, 0xf6, 0x03, 0xf4, 0x23,
	0x04, 0x06, 0x0d, 0x0a, 0x10, 0xf0, 0xfd, 0x04, 0xf3, 0x19, 0xf1, 0x17, 0x0c, 0x05, 0x14,
	0x17, 0x0e, 0x04, 0x07, 0x09, 0x11, 0xf7, 0xe5, 0x00, 0xfb, 0xd9, 0xe5, 0x02, 0x22, 0xfa,
	0x05, 0x0d, 0x06, 0x0b, 0xfd, 0xfc, 0x0a, 0xea, 0xd8, 0xf2, 0x00, 0x04, 0x22, 0x0a, 0xfb,
	0x14, 0x03, 0xc5, 0x05, 0x18, 0xce, 0xf4, 0x10, 0x1d, 0x12, 0x10, 0x03, 0xf9, 0x1e, 0x13,
	0x0d, 0x09, 0xdb, 0xf1, 0x03, 0x1a, 0xdf, 0xff, 0xf2, 0xdb, 0x10, 0x0e, 0x02, 0xf9, 0x07,
	0x15, 0xfa, 0x01, 0x0c, 0xd8, 0xf5, 0x14, 0x16, 0xed, 0x1a, 0xe8, 0xfa, 0x16, 0x0d, 0xf5,
	0x06, 0xf1, 0x03, 0xee, 0x10, 0xfe, 0xf0, 0xee, 0xf3, 0xfb, 0xee, 0x16, 0xff, 0x0f, 0x07,
	0xff, 0xfa, 0xf9, 0x0d, 0xe7, 0x00, 0xf0, 0xf1, 0x0b, 0xf1, 0x09, 0xe7, 0x0e, 0xea, 0x2d,
	0x0d, 0xfe, 0xfd, 0xf9, 0xf9, 0xf2, 0xe4, 0xf0, 0xf2, 0x14, 0x07, 0x19, 0xf9, 0xf4, 0x26,
	0x1b, 0x03, 0x2e, 0x14, 0xee, 0xff, 0xed, 0xe0, 0x02, 0x09, 0xe1, 0xee, 0x0e, 0x1b, 0x0f,
	0x08, 0x19, 0x01, 0x06, 0xfb, 0x0b, 0x18, 0xff, 0xe4, 0x01, 0xf7, 0x1e, 0x1b, 0x2e, 0xf6,
	0x1c, 0x10, 0xd9, 0x08, 0x33, 0xcd, 0xf1, 0xfc, 0x1b, 0x18, 0x1c, 0xfc, 0xfb, 0x2a, 0x00,
	0x24, 0x10, 0xe5, 0xd3, 0x1b, 0x13, 0xd6, 0xf5, 0xe3, 0xce, 0x20, 0x1e, 0xf0, 0xee, 0x07,
	0x0f, 0x02, 0xef, 0xf8, 0xd2, 0x01, 0x1a, 0x20, 0xf9, 0x3a, 0xe0, 0xee, 0xf5, 0x1f, 0x19,
	0xee, 0xe8, 0xfb, 0xd6, 0x08, 0xfa, 0xda, 0xe7, 0xec, 0x02, 0xfb, 0x1c, 0xf9, 0x0b, 0x06,
	0x23, 0x0f, 0xfa, 0x10, 0xed, 0xfa, 0xe3, 0xf3, 0xfa, 0x18, 0x08, 0xd6, 0xfa, 0xf9, 0x3a,
	0x03, 0x07, 0xfe, 0x04, 0x0f, 0xf4, 0xf1, 0xf7, 0xdb, 0x1b, 0x0c, 0x26, 0x07, 0xed, 0x1f,
	0x15, 0x1a, 0x0a, 0x17, 0x10, 0xff, 0xec, 0xfc, 0x15, 0x1d, 0xeb, 0xea, 0xfa, 0x19, 0x15,
	0x0d, 0x0a, 0x08, 0x14, 0x11, 0x0b, 0x0b, 0xff, 0xd3, 0x06, 0xf6, 0x07, 0x1d, 0xe3, 0x4c,
	0xd7, 0x35, 0x33, 0x21, 0x0c, 0xfb, 0xfb, 0x0b, 0x07, 0xee, 0x0a, 0x01, 0xf6, 0xe7, 0x06,
	0x01, 0x2d, 0x45, 0xf5, 0x1f, 0x43, 0xbe, 0x04, 0xcc, 0xfc, 0x14, 0xfc, 0xff, 0xf1, 0x0d,
	0xe6, 0x1a, 0x09, 0x20, 0x00, 0x05, 0xee, 0x11, 0xf0, 0xec, 0xfe, 0xd7, 0x16, 0xf7, 0x1e,
	0x00, 0xe2, 0x19, 0xf2, 0xf2, 0xfe, 0xf5, 0x15, 0xed, 0x0c, 0xf1, 0xeb, 0x12, 0x09, 0xec,
	0x06, 0xf7, 0xed, 0x11, 0xff, 0x1e, 0x07, 0x08, 0xf6, 0x07, 0xe5, 0xfa, 0x26, 0x13, 0x22,
	0x00, 0xfa, 0x08, 0xf3, 0xff, 0xf2, 0x1c, 0x27, 0xeb, 0x01, 0xf9, 0x0d, 0x1e, 0x0f, 0xff,
	0x0b, 0x05, 0xf7, 0xe3, 0xfb, 0x17, 0xd7, 0x0e, 0x1d, 0xf9, 0x03, 0x1c, 0x35, 0x28, 0xf0,
	0x21, 0x02, 0xf6, 0xc7, 0x07, 0x16, 0x0c, 0x21, 0xf1, 0xdc, 0xed, 0x05, 0x03, 0xe8, 0x27,
	0xe1, 0x0d, 0x2d, 0x0b, 0x15, 0xf8, 0x0b, 0xfb, 0x04, 0xf6, 0xec, 0x0a, 0xfa, 0x0d, 0x04,
	0xfa, 0x1f, 0x1f, 0x07, 0x08, 0x1e, 0xe8, 0x0e, 0xdd, 0xfb, 0x19, 0xec, 0x02, 0xf5, 0xf9,
	0xe8, 0x14, 0xff, 0x15, 0xfd, 0xf5, 0xef, 0x0d, 0xea, 0xf3, 0x06, 0xe7, 0x15, 0xf3, 0x00,
	0x03, 0xf7, 0x05, 0xef, 0xf5, 0xec, 0xf7, 0x10, 0xf4, 0x14, 0xff, 0xf8, 0x04, 0xfb, 0xfb,
	0x03, 0xff, 0xec, 0x00, 0x00, 0xfc, 0x12, 0x06, 0xf2, 0xfe, 0xea, 0x0d, 0x0f, 0x17, 0x15,
	0x03, 0xec, 0xfb, 0xfa, 0xfb, 0xff, 0x0f, 0x1a, 0xe7, 0x10, 0xfd, 0xfe, 0x1c, 0x0e, 0xf6,
	0x03, 0xf6, 0xfd, 0xfa, 0xfe, 0x0e, 0xd1, 0x07, 0x02, 0xe9, 0xf4, 0x01, 0x15, 0x17, 0xfc,
	0x0c, 0xfa, 0xeb, 0xd3, 0xff, 0x1d, 0xf4, 0x08, 0xff, 0xda, 0x03, 0x0d, 0xf4, 0xe8, 0x33,
	0xdd, 0x07, 0x1c, 0x13, 0xf9, 0xf3, 0x0d, 0x0c, 0xf4, 0xf5, 0x06, 0x06, 0xf7, 0xf6, 0xf5,
	0xf9, 0x25, 0x25, 0x05, 0x15, 0x05, 0xe2, 0x09, 0xe0, 0x10, 0x1d, 0xfc, 0xf4, 0xf7, 0xf3,
	0xf8, 0xfe, 0xfb, 0x0b, 0x0b, 0xfa, 0x06, 0x07, 0xdf, 0x02, 0x05, 0xe1, 0x0c, 0xf1, 0x11,
	0x07, 0xf2, 0x0f, 0xf5, 0x02, 0xf8, 0x03, 0xfd, 0xef, 0x0e, 0x0a, 0xef, 0xf8, 0xe9, 0x03,
	0x04, 0x01, 0xf0, 0x10, 0xf7, 0x0b, 0xf7, 0x05, 0xf5, 0x13, 0xee, 0x18, 0x00, 0x12, 0x1a,
	0xf3, 0xee, 0xef, 0x0a, 0xfe, 0x02, 0x0a, 0x19, 0xf3, 0x07, 0xfb, 0x06, 0x1a, 0xf8, 0xff,
