/*
 * SPDX-FileCopyrightText: Copyright 2024
 * SPDX-License-Identifier: Apache-2.0
 *
 * TensorFlow Lite model data for MIMXRT700 EVK board.
 */

#include <zephyr/linker/section_tags.h>
#include <string.h>
#include <zephyr/cache.h>

/*
 * Model data must be 4-byte aligned for flatbuffers float access
 */

static uint8_t g_model[] __ALIGNED(16) = {
  0x18, 0x00, 0x00, 0x00, 0x54, 0x46, 0x4c, 0x33, 0x00, 0x00, 0x0e, 0x00,
  0x18, 0x00, 0x04, 0x00, 0x08, 0x00, 0x0c, 0x00, 0x10, 0x00, 0x14, 0x00,
  0x0e, 0x00, 0x00, 0x00, 0x03, 0x00, 0x00, 0x00, 0x28, 0x86, 0x01, 0x00,
  0xc8, 0x82, 0x01, 0x00, 0x5c, 0x82, 0x01, 0x00, 0x04, 0x00, 0x00, 0x00,
  0x04, 0x00, 0x00, 0x00, 0x4c, 0x82, 0x01, 0x00, 0xdc, 0x7c, 0x01, 0x00,
  0x18, 0x00, 0x00, 0x00, 0x04, 0x00, 0x00, 0x00, 0x36, 0x83, 0xfe, 0xff,
  0x04, 0x00, 0x00, 0x00, 0x01, 0x00, 0x00, 0x00, 0x00, 0x00, 0x00, 0x00,
  0x46, 0x83, 0xfe, 0xff, 0x04, 0x00, 0x00, 0x00, 0xa0, 0x7c, 0x01, 0x00,
  0x01, 0x01, 0x01, 0x00, 0x00, 0x00, 0x00, 0x00, 0x1c, 0xbc, 0xff, 0xff,
  0x2e, 0xfa, 0xff, 0xff, 0x67, 0xff, 0xff, 0xff, 0xfc, 0xf6, 0xff, 0xff,
  0x1b, 0xea, 0xff, 0xff, 0x5c, 0x5f, 0xff, 0xff, 0x8f, 0xd4, 0xff, 0xff,
  0x14, 0x73, 0xff, 0xff, 0x59, 0xed, 0xff, 0xff, 0x6b, 0xf6, 0xff, 0xff,
  0xa7, 0xea, 0xff, 0xff, 0xbf, 0xbe, 0xff, 0xff, 0x6e, 0x69, 0xff, 0xff,
  0x63, 0xbf, 0xff, 0xff, 0x5b, 0x5c, 0xff, 0xff, 0xc1, 0xd4, 0xff, 0xff,
  0x44, 0x90, 0xff, 0xff, 0x86, 0xb8, 0xff, 0xff, 0x4b, 0x8f, 0xff, 0xff,
  0xb4, 0xf7, 0xff, 0xff, 0x92, 0xe3, 0xff, 0xff, 0x9f, 0x30, 0xff, 0xff,
  0xd4, 0xc3, 0xff, 0xff, 0x14, 0xd1, 0xff, 0xff, 0x0b, 0xf8, 0xff, 0xff,
  0xc5, 0xf3, 0xff, 0xff, 0xe2, 0xf7, 0xff, 0xff, 0x4c, 0xc8, 0xff, 0xff,
  0x5c, 0xf0, 0xff, 0xff, 0x68, 0xb7, 0xff, 0xff, 0x3f, 0x21, 0xff, 0xff,
  0xf5, 0xd0, 0xff, 0xff, 0x41, 0x2a, 0x17, 0x00, 0x8d, 0xb2, 0x18, 0x00,
  0x6d, 0xab, 0x19, 0x00, 0x87, 0xa7, 0x18, 0x00, 0x39, 0xe7, 0x19, 0x00,
  0x27, 0x23, 0x17, 0x00, 0xdb, 0x2e, 0x17, 0x00, 0xeb, 0x47, 0x18, 0x00,
  0xc3, 0x0a, 0x15, 0x00, 0xd9, 0xaf, 0x18, 0x00, 0x47, 0xdd, 0x19, 0x00,
  0x45, 0x6c, 0x19, 0x00, 0x29, 0x82, 0x19, 0x00, 0x8b, 0x9c, 0x19, 0x00,
  0xf3, 0x92, 0x19, 0x00, 0x4f, 0xe8, 0x19, 0x00, 0x0d, 0x95, 0x19, 0x00,
  0xeb, 0x24, 0x17, 0x00, 0xa7, 0x49, 0x18, 0x00, 0x8f, 0x79, 0x17, 0x00,
  0xa3, 0xc7, 0x19, 0x00, 0xc3, 0xdc, 0x1a, 0x00, 0x37, 0x2c, 0x17, 0x00,
  0xaf, 0xcc, 0x19, 0x00, 0x25, 0x5d, 0x17, 0x00, 0x49, 0x0a, 0x14, 0x00,
  0xe5, 0xc7, 0x18, 0x00, 0x0f, 0x89, 0x18, 0x00, 0xfb, 0x26, 0x16, 0x00,
  0x65, 0xbc, 0x1a, 0x00, 0x03, 0xf3, 0x1a, 0x00, 0x51, 0x67, 0x18, 0x00,
  0x03, 0x05, 0x81, 0x00, 0x00, 0x00, 0x00, 0x00, 0x0e, 0x1e, 0x0b, 0x00,
  0x00, 0x00, 0x00, 0x00, 0x06, 0xef, 0xdb, 0x00, 0x00, 0x00, 0x00, 0x00,
  0xfd, 0xf7, 0x04, 0x00, 0x00, 0x00, 0x00, 0x00, 0xf6, 0x10, 0x07, 0x00,
  0x00, 0x00, 0x00, 0x00, 0xe7, 0x18, 0xd1, 0x00, 0x00, 0x00, 0x00, 0x00,
  0xf1, 0xe5, 0xee, 0x00, 0x00, 0x00, 0x00, 0x00, 0x1c, 0xe7, 0x21, 0x00,
  0x00, 0x00, 0x00, 0x00, 0xe6, 0x35, 0xe8, 0x00, 0x00, 0x00, 0x00, 0x00,
  0x21, 0x17, 0x16, 0x00, 0x00, 0x00, 0x00, 0x00, 0x08, 0x06, 0xe2, 0x00,
  0x00, 0x00, 0x00, 0x00, 0xd7, 0xf7, 0xf5, 0x00, 0x00, 0x00, 0x00, 0x00,
  0xb9, 0xf3, 0xa8, 0x00, 0x00, 0x00, 0x00, 0x00, 0xfe, 0xf8, 0xf7, 0x00,
  0x00, 0x00, 0x00, 0x00, 0xe4, 0x07, 0xe5, 0x00, 0x00, 0x00, 0x00, 0x00,
  0xdc, 0xdd, 0xf7, 0x00, 0x00, 0x00, 0x00, 0x00, 0x3f, 0x03, 0xa3, 0x00,
  0x00, 0x00, 0x00, 0x00, 0xcc, 0xe8, 0xc6, 0x00, 0x00, 0x00, 0x00, 0x00,
  0xf9, 0xe7, 0x0e, 0x00, 0x00, 0x00, 0x00, 0x00, 0x0f, 0x0c, 0x13, 0x00,
  0x00, 0x00, 0x00, 0x00, 0x13, 0xff, 0x05, 0x00, 0x00, 0x00, 0x00, 0x00,
  0x08, 0x1a, 0xeb, 0x00, 0x00, 0x00, 0x00, 0x00, 0xbe, 0xf8, 0xe2, 0x00,
  0x00, 0x00, 0x00, 0x00, 0x14, 0x18, 0x47, 0x00, 0x00, 0x00, 0x00, 0x00,
  0xde, 0x2f, 0xf7, 0x00, 0x00, 0x00, 0x00, 0x00, 0x06, 0x12, 0x11, 0x00,
  0x00, 0x00, 0x00, 0x00, 0x46, 0xf4, 0x9e, 0x00, 0x00, 0x00, 0x00, 0x00,
  0x04, 0x1b, 0xf4, 0x00, 0x00, 0x00, 0x00, 0x00, 0xca, 0x05, 0xf9, 0x00,
  0x00, 0x00, 0x00, 0x00, 0xe6, 0xf9, 0x24, 0x00, 0x00, 0x00, 0x00, 0x00,
  0xc6, 0xca, 0xd0, 0x00, 0x00, 0x00, 0x00, 0x00, 0x02, 0xe1, 0x01, 0x00,
  0x00, 0x00, 0x00, 0x00, 0x49, 0x22, 0xc6, 0x00, 0x00, 0x00, 0x00, 0x00,
  0x21, 0x30, 0x34, 0x00, 0x00, 0x00, 0x00, 0x00, 0xf1, 0x19, 0x30, 0x00,
  0x00, 0x00, 0x00, 0x00, 0x27, 0x1b, 0x27, 0x00, 0x00, 0x00, 0x00, 0x00,
  0x45, 0xcf, 0xe4, 0x00, 0x00, 0x00, 0x00, 0x00, 0x24, 0x21, 0x23, 0x00,
  0x00, 0x00, 0x00, 0x00, 0xf9, 0x4e, 0x01, 0x00, 0x00, 0x00, 0x00, 0x00,
  0xf9, 0x31, 0x2d, 0x00, 0x00, 0x00, 0x00, 0x00, 0x10, 0xff, 0x04, 0x00,
  0x00, 0x00, 0x00, 0x00, 0xce, 0xe0, 0xf1, 0x00, 0x00, 0x00, 0x00, 0x00,
  0x53, 0xed, 0x81, 0x00, 0x00, 0x00, 0x00, 0x00, 0x46, 0x7f, 0x36, 0x00,
  0x00, 0x00, 0x00, 0x00, 0xae, 0x08, 0x09, 0x00, 0x00, 0x00, 0x00, 0x00,
  0xf5, 0xda, 0xf5, 0x00, 0x00, 0x00, 0x00, 0x00, 0xe0, 0xea, 0xca, 0x00,
  0x00, 0x00, 0x00, 0x00, 0x7f, 0x3d, 0x34, 0x00, 0x00, 0x00, 0x00, 0x00,
  0x16, 0x17, 0xc2, 0x00, 0x00, 0x00, 0x00, 0x00, 0xe9, 0xef, 0xee, 0x00,
  0x00, 0x00, 0x00, 0x00, 0xf6, 0x09, 0x09, 0x00, 0x00, 0x00, 0x00, 0x00,
  0x20, 0x19, 0x28, 0x00, 0x00, 0x00, 0x00, 0x00, 0x64, 0xc8, 0xcc, 0x00,
  0x00, 0x00, 0x00, 0x00, 0x1f, 0xf7, 0x52, 0x00, 0x00, 0x00, 0x00, 0x00,
  0x30, 0x73, 0xf2, 0x00, 0x00, 0x00, 0x00, 0x00, 0x37, 0x1f, 0x3e, 0x00,
  0x00, 0x00, 0x00, 0x00, 0x0f, 0xb9, 0xe2, 0x00, 0x00, 0x00, 0x00, 0x00,
  0xda, 0xf2, 0xea, 0x00, 0x00, 0x00, 0x00, 0x00, 0x5b, 0xf2, 0x8f, 0x00,
  0x00, 0x00, 0x00, 0x00, 0xec, 0x4d, 0x19, 0x00, 0x00, 0x00, 0x00, 0x00,
  0xef, 0x2c, 0x3e, 0x00, 0x00, 0x00, 0x00, 0x00, 0x3b, 0x23, 0xe9, 0x00,
  0x00, 0x00, 0x00, 0x00, 0x05, 0x1e, 0x06, 0x00, 0x00, 0x00, 0x00, 0x00,
  0x20, 0xe8, 0xd5, 0x00, 0x00, 0x00, 0x00, 0x00, 0x03, 0x08, 0xe4, 0x00,
  0x00, 0x00, 0x00, 0x00, 0x0c, 0xf3, 0x08, 0x00, 0x00, 0x00, 0x00, 0x00,
  0x03, 0xfc, 0xeb, 0x00, 0x00, 0x00, 0x00, 0x00, 0x14, 0xfe, 0x0c, 0x00,
  0x00, 0x00, 0x00, 0x00, 0x23, 0xf8, 0xf6, 0x00, 0x00, 0x00, 0x00, 0x00,
  0xff, 0xc5, 0x53, 0x00, 0x00, 0x00, 0x00, 0x00, 0xff, 0x2a, 0xbc, 0x00,
  0x00, 0x00, 0x00, 0x00, 0x7f, 0x3d, 0x4e, 0x00, 0x00, 0x00, 0x00, 0x00,
  0x08, 0xef, 0x16, 0x00, 0x00, 0x00, 0x00, 0x00, 0xfd, 0x24, 0x02, 0x00,
  0x00, 0x00, 0x00, 0x00, 0x3a, 0x02, 0xc8, 0x00, 0x00, 0x00, 0x00, 0x00,
  0x24, 0x7e, 0x41, 0x00, 0x00, 0x00, 0x00, 0x00, 0x07, 0x15, 0xed, 0x00,
  0x00, 0x00, 0x00, 0x00, 0xf4, 0x23, 0xb4, 0x00, 0x00, 0x00, 0x00, 0x00,
  0xe1, 0xf8, 0xe7, 0x00, 0x00, 0x00, 0x00, 0x00, 0xe4, 0xed, 0xe4, 0x00,
  0x00, 0x00, 0x00, 0x00, 0x05, 0xee, 0x99, 0x00, 0x00, 0x00, 0x00, 0x00,
  0xbe, 0xcc, 0xbd, 0x00, 0x00, 0x00, 0x00, 0x00, 0x01, 0x02, 0xf4, 0x00,
  0x00, 0x00, 0x00, 0x00, 0xf9, 0xf0, 0x0a, 0x00, 0x00, 0x00, 0x00, 0x00,
  0xc7, 0x16, 0x07, 0x00, 0x00, 0x00, 0x00, 0x00, 0x0c, 0x53, 0xd3, 0x00,
  0x00, 0x00, 0x00, 0x00, 0xfb, 0xe5, 0xfd, 0x00, 0x00, 0x00, 0x00, 0x00,
  0x05, 0x04, 0x13, 0x00, 0x00, 0x00, 0x00, 0x00, 0xdd, 0x3c, 0xf8, 0x00,
  0x00, 0x00, 0x00, 0x00, 0xe2, 0xd4, 0xd5, 0x00, 0x00, 0x00, 0x00, 0x00,
  0x06, 0x15, 0x02, 0x00, 0x00, 0x00, 0x00, 0x00, 0x0f, 0xe8, 0xe5, 0x00,
  0x00, 0x00, 0x00, 0x00, 0xd0, 0x21, 0xd6, 0x00, 0x00, 0x00, 0x00, 0x00,
  0x19, 0xfe, 0x18, 0x00, 0x00, 0x00, 0x00, 0x00, 0x19, 0x13, 0xfa, 0x00,
  0x00, 0x00, 0x00, 0x00, 0xd1, 0xef, 0x11, 0x00, 0x00, 0x00, 0x00, 0x00,
  0x23, 0xed, 0xb5, 0x00, 0x00, 0x00, 0x00, 0x00, 0x41, 0x59, 0x40, 0x00,
  0x00, 0x00, 0x00, 0x00, 0xd8, 0x03, 0x31, 0x00, 0x00, 0x00, 0x00, 0x00,
  0xc4, 0xc0, 0xe2, 0x00, 0x00, 0x00, 0x00, 0x00, 0xdc, 0xfe, 0x1f, 0x00,
  0x00, 0x00, 0x00, 0x00, 0x1e, 0x30, 0xdc, 0x00, 0x00, 0x00, 0x00, 0x00,
  0xb4, 0xd7, 0xf0, 0x00, 0x00, 0x00, 0x00, 0x00, 0xf6, 0x10, 0x21, 0x00,
  0x00, 0x00, 0x00, 0x00, 0xc9, 0x2e, 0x01, 0x00, 0x00, 0x00, 0x00, 0x00,
  0x38, 0x30, 0x38, 0x00, 0x00, 0x00, 0x00, 0x00, 0x34, 0x0a, 0xd7, 0x00,
  0x00, 0x00, 0x00, 0x00, 0x12, 0xf1, 0x05, 0x00, 0x00, 0x00, 0x00, 0x00,
  0xb8, 0x30, 0xfb, 0x00, 0x00, 0x00, 0x00, 0x00, 0x3b, 0x3d, 0x7d, 0x00,
  0x00, 0x00, 0x00, 0x00, 0xe6, 0xdb, 0xb2, 0x00, 0x00, 0x00, 0x00, 0x00,
  0xc2, 0xca, 0xf3, 0x00, 0x00, 0x00, 0x00, 0x00, 0x2a, 0xfa, 0x08, 0x00,
  0x00, 0x00, 0x00, 0x00, 0x17, 0x1c, 0x2b, 0x00, 0x00, 0x00, 0x00, 0x00,
  0xb5, 0x1a, 0x43, 0x00, 0x00, 0x00, 0x00, 0x00, 0xa1, 0xa9, 0xb3, 0x00,
  0x00, 0x00, 0x00, 0x00, 0x22, 0xd0, 0xee, 0x00, 0x00, 0x00, 0x00, 0x00,
  0xe4, 0xf2, 0xed, 0x00, 0x00, 0x00, 0x00, 0x00, 0xd4, 0x1d, 0xfa, 0x00,
  0x00, 0x00, 0x00, 0x00, 0xc2, 0x20, 0xf6, 0x00, 0x00, 0x00, 0x00, 0x00,
  0x4d, 0x43, 0x45, 0x00, 0x00, 0x00, 0x00, 0x00, 0x63, 0x57, 0x6e, 0x00,
  0x00, 0x00, 0x00, 0x00, 0x32, 0xed, 0x9f, 0x00, 0x00, 0x00, 0x00, 0x00,
  0x34, 0x35, 0x32, 0x00, 0x00, 0x00, 0x00, 0x00, 0x94, 0x09, 0xfe, 0x00,
  0x00, 0x00, 0x00, 0x00, 0xde, 0xcc, 0x0f, 0x00, 0x00, 0x00, 0x00, 0x00,
  0x00, 0xec, 0xbc, 0x00, 0x00, 0x00, 0x00, 0x00, 0x44, 0x1b, 0x2b, 0x00,
  0x00, 0x00, 0x00, 0x00, 0xfb, 0xfd, 0x24, 0x00, 0x00, 0x00, 0x00, 0x00,
  0xca, 0xc3, 0xcb, 0x00, 0x00, 0x00, 0x00, 0x00, 0xbf, 0x0c, 0x20, 0x00,
  0x00, 0x00, 0x00, 0x00, 0xad, 0xac, 0xc2, 0x00, 0x00, 0x00, 0x00, 0x00,
  0x7f, 0xb5, 0xb8, 0x00, 0x00, 0x00, 0x00, 0x00, 0xb4, 0x90, 0xf1, 0x00,
  0x00, 0x00, 0x00, 0x00, 0xff, 0x6f, 0x14, 0x00, 0x00, 0x00, 0x00, 0x00,
  0xdb, 0xf9, 0xd0, 0x00, 0x00, 0x00, 0x00, 0x00, 0x12, 0xb8, 0xea, 0x00,
  0x00, 0x00, 0x00, 0x00, 0xe7, 0xd9, 0xfe, 0x00, 0x00, 0x00, 0x00, 0x00,
  0x25, 0xe6, 0xba, 0x00, 0x00, 0x00, 0x00, 0x00, 0xc1, 0xd6, 0xf8, 0x00,
  0x00, 0x00, 0x00, 0x00, 0xf1, 0x3a, 0x3f, 0x00, 0x00, 0x00, 0x00, 0x00,
  0xfc, 0xc0, 0xa1, 0x00, 0x00, 0x00, 0x00, 0x00, 0x26, 0x23, 0x07, 0x00,
  0x00, 0x00, 0x00, 0x00, 0x5b, 0x15, 0x02, 0x00, 0x00, 0x00, 0x00, 0x00,
  0xec, 0x16, 0x37, 0x00, 0x00, 0x00, 0x00, 0x00, 0x18, 0x02, 0x0b, 0x00,
  0x00, 0x00, 0x00, 0x00, 0xd6, 0xe8, 0xf3, 0x00, 0x00, 0x00, 0x00, 0x00,
  0xe3, 0xde, 0xfa, 0x00, 0x00, 0x00, 0x00, 0x00, 0x62, 0xe7, 0xb2, 0x00,
  0x00, 0x00, 0x00, 0x00, 0xe1, 0xa4, 0x24, 0x00, 0x00, 0x00, 0x00, 0x00,
  0xf4, 0x2f, 0xe0, 0x00, 0x00, 0x00, 0x00, 0x00, 0x43, 0xfc, 0x09, 0x00,
  0x00, 0x00, 0x00, 0x00, 0x23, 0x08, 0x42, 0x00, 0x00, 0x00, 0x00, 0x00,
  0xdd, 0xdb, 0xf2, 0x00, 0x00, 0x00, 0x00, 0x00, 0x2c, 0xdf, 0xe2, 0x00,
  0x00, 0x00, 0x00, 0x00, 0xd1, 0x22, 0x17, 0x00, 0x00, 0x00, 0x00, 0x00,
  0x39, 0x43, 0x01, 0x00, 0x00, 0x00, 0x00, 0x00, 0x0d, 0x1c, 0xd8, 0x00,
  0x00, 0x00, 0x00, 0x00, 0xfe, 0x04, 0xed, 0x00, 0x00, 0x00, 0x00, 0x00,
  0xe8, 0xf0, 0xcd, 0x00, 0x00, 0x00, 0x00, 0x00, 0x48, 0x0f, 0xcc, 0x00,
  0x00, 0x00, 0x00, 0x00, 0x0f, 0x0f, 0x0f, 0x00, 0x00, 0x00, 0x00, 0x00,
  0xe8, 0x03, 0x0d, 0x00, 0x00, 0x00, 0x00, 0x00, 0x1d, 0x18, 0xf7, 0x00,
  0x00, 0x00, 0x00, 0x00, 0xc5, 0x37, 0x14, 0x00, 0x00, 0x00, 0x00, 0x00,
  0x28, 0x72, 0xe0, 0x00, 0x00, 0x00, 0x00, 0x00, 0x27, 0xeb, 0x1a, 0x00,
  0x00, 0x00, 0x00, 0x00, 0xe5, 0xfe, 0xf5, 0x00, 0x00, 0x00, 0x00, 0x00,
  0xa9, 0x11, 0xd0, 0x00, 0x00, 0x00, 0x00, 0x00, 0xeb, 0xe5, 0xda, 0x00,
  0x00, 0x00, 0x00, 0x00, 0xe5, 0x04, 0x1e, 0x00, 0x00, 0x00, 0x00, 0x00,
  0x38, 0xdd, 0xd6, 0x00, 0x00, 0x00, 0x00, 0x00, 0xa1, 0x17, 0xdf, 0x00,
  0x00, 0x00, 0x00, 0x00, 0xf9, 0xf6, 0xec, 0x00, 0x00, 0x00, 0x00, 0x00,
  0x7a, 0x53, 0x18, 0x00, 0x00, 0x00, 0x00, 0x00, 0xfa, 0x2c, 0x26, 0x00,
  0x00, 0x00, 0x00, 0x00, 0x23, 0x07, 0x1a, 0x00, 0x00, 0x00, 0x00, 0x00,
  0x3d, 0x48, 0x48, 0x00, 0x00, 0x00, 0x00, 0x00, 0xc4, 0x1a, 0x42, 0x00,
  0x00, 0x00, 0x00, 0x00, 0x45, 0x59, 0x24, 0x00, 0x00, 0x00, 0x00, 0x00,
  0xa1, 0x1c, 0x3e, 0x00, 0x00, 0x00, 0x00, 0x00, 0x14, 0x31, 0xca, 0x00,
  0x00, 0x00, 0x00, 0x00, 0xda, 0xd0, 0x13, 0x00, 0x00, 0x00, 0x00, 0x00,
  0xe3, 0x3e, 0x02, 0x00, 0x00, 0x00, 0x00, 0x00, 0x8c, 0xfa, 0xbb, 0x00,
  0x00, 0x00, 0x00, 0x00, 0x97, 0x81, 0x89, 0x00, 0x00, 0x00, 0x00, 0x00,
  0xe9, 0x04, 0x2b, 0x00, 0x00, 0x00, 0x00, 0x00, 0x2b, 0xc6, 0xf0, 0x00,
  0x00, 0x00, 0x00, 0x00, 0xb7, 0x21, 0xf7, 0x00, 0x00, 0x00, 0x00, 0x00,
  0xf7, 0x1d, 0x74, 0x00, 0x00, 0x00, 0x00, 0x00, 0x45, 0x00, 0xd9, 0x00,
  0x00, 0x00, 0x00, 0x00, 0xbb, 0xf3, 0x0b, 0x00, 0x00, 0x00, 0x00, 0x00,
  0x05, 0xfe, 0x4f, 0x00, 0x00, 0x00, 0x00, 0x00, 0x81, 0x96, 0x96, 0x00,
  0x00, 0x00, 0x00, 0x00, 0xb1, 0x2b, 0x68, 0x00, 0x00, 0x00, 0x00, 0x00,
  0x75, 0x7f, 0x4e, 0x00, 0x00, 0x00, 0x00, 0x00, 0xd8, 0xe6, 0x3b, 0x00,
  0x00, 0x00, 0x00, 0x00, 0xbc, 0xb5, 0xc1, 0x00, 0x00, 0x00, 0x00, 0x00,
  0xa7, 0xce, 0xfc, 0x00, 0x00, 0x00, 0x00, 0x00, 0xda, 0x32, 0xcf, 0x00,
  0x00, 0x00, 0x00, 0x00, 0x7f, 0x4b, 0x5d, 0x00, 0x00, 0x00, 0x00, 0x00,
  0x0e, 0x02, 0x0f, 0x00, 0x00, 0x00, 0x00, 0x00, 0xe0, 0xf9, 0x14, 0x00,
  0x00, 0x00, 0x00, 0x00, 0x2c, 0xe5, 0xe3, 0x00, 0x00, 0x00, 0x00, 0x00,
  0x8f, 0xcf, 0xea, 0x00, 0x00, 0x00, 0x00, 0x00, 0x06, 0x02, 0x47, 0x00,
  0x00, 0x00, 0x00, 0x00, 0x67, 0x04, 0xd9, 0x00, 0x00, 0x00, 0x00, 0x00,
  0xd4, 0xdb, 0xf6, 0x00, 0x00, 0x00, 0x00, 0x00, 0xc6, 0x04, 0x56, 0x00,
  0x00, 0x00, 0x00, 0x00, 0xff, 0xfd, 0x03, 0x00, 0x00, 0x00, 0x00, 0x00,
  0xa9, 0x0a, 0x4a, 0x00, 0x00, 0x00, 0x00, 0x00, 0x54, 0x5c, 0x38, 0x00,
  0x00, 0x00, 0x00, 0x00, 0x37, 0xd4, 0xf8, 0x00, 0x00, 0x00, 0x00, 0x00,
  0x9c, 0x81, 0xd5, 0x00, 0x00, 0x00, 0x00, 0x00, 0xe4, 0x39, 0x2e, 0x00,
  0x00, 0x00, 0x00, 0x00, 0xd4, 0xee, 0xab, 0x00, 0x00, 0x00, 0x00, 0x00,
  0xf2, 0x88, 0xb2, 0x00, 0x00, 0x00, 0x00, 0x00, 0x50, 0x3b, 0x51, 0x00,
  0x00, 0x00, 0x00, 0x00, 0xed, 0x04, 0x1b, 0x00, 0x00, 0x00, 0x00, 0x00,
  0xcc, 0x96, 0xb6, 0x00, 0x00, 0x00, 0x00, 0x00, 0xe4, 0x0c, 0xfb, 0x00,
  0x00, 0x00, 0x00, 0x00, 0xc6, 0x95, 0x85, 0x00, 0x00, 0x00, 0x00, 0x00,
  0x7f, 0x35, 0x29, 0x00, 0x00, 0x00, 0x00, 0x00, 0x44, 0x14, 0x05, 0x00,
  0x00, 0x00, 0x00, 0x00, 0xd1, 0x14, 0x52, 0x00, 0x00, 0x00, 0x00, 0x00,
  0x21, 0x0e, 0x1e, 0x00, 0x00, 0x00, 0x00, 0x00, 0xbc, 0xfd, 0x20, 0x00,
  0x00, 0x00, 0x00, 0x00, 0x22, 0x24, 0xff, 0x00, 0x00, 0x00, 0x00, 0x00,
  0x4e, 0xd8, 0xcd, 0x00, 0x00, 0x00, 0x00, 0x00, 0xf9, 0xa2, 0x31, 0x00,
  0x00, 0x00, 0x00, 0x00, 0xf5, 0x31, 0x13, 0x00, 0x00, 0x00, 0x00, 0x00,
  0xf9, 0xb4, 0xb8, 0x00, 0x00, 0x00, 0x00, 0x00, 0xe6, 0xa2, 0xec, 0x00,
  0x00, 0x00, 0x00, 0x00, 0x13, 0x02, 0x20, 0x00, 0x00, 0x00, 0x00, 0x00,
  0xe6, 0xf5, 0x18, 0x00, 0x00, 0x00, 0x00, 0x00, 0xdf, 0xd1, 0xef, 0x00,
  0x00, 0x00, 0x00, 0x00, 0x14, 0x1d, 0xcf, 0x00, 0x00, 0x00, 0x00, 0x00,
  0x05, 0x1f, 0xbe, 0x00, 0x00, 0x00, 0x00, 0x00, 0x4f, 0x0b, 0x12, 0x00,
  0x00, 0x00, 0x00, 0x00, 0x13, 0x00, 0xd4, 0x00, 0x00, 0x00, 0x00, 0x00,
  0x40, 0xfc, 0xdb, 0x00, 0x00, 0x00, 0x00, 0x00, 0x10, 0x1d, 0x1b, 0x00,
  0x00, 0x00, 0x00, 0x00, 0x23, 0xee, 0xcb, 0x00, 0x00, 0x00, 0x00, 0x00,
  0xff, 0xfd, 0xed, 0x00, 0x00, 0x00, 0x00, 0x00, 0xea, 0x3b, 0xdd, 0x00,
  0x00, 0x00, 0x00, 0x00, 0x15, 0x5f, 0xc6, 0x00, 0x00, 0x00, 0x00, 0x00,
  0x70, 0xf9, 0x0f, 0x00, 0x00, 0x00, 0x00, 0x00, 0xf0, 0xfd, 0xf1, 0x00,
  0x00, 0x00, 0x00, 0x00, 0xd1, 0x4c, 0xf3, 0x00, 0x00, 0x00, 0x00, 0x00,
  0x43, 0x4a, 0x2e, 0x00, 0x00, 0x00, 0x00, 0x00, 0xeb, 0x03, 0x10, 0x00,
  0x00, 0x00, 0x00, 0x00, 0x6f, 0x0a, 0x19, 0x00, 0x00, 0x00, 0x00, 0x00,
  0xd1, 0xf1, 0xf1, 0x00, 0x00, 0x00, 0x00, 0x00, 0x14, 0xf0, 0xeb, 0x00,
  0x00, 0x00, 0x00, 0x00, 0x2f, 0x1f, 0xf1, 0x00, 0x00, 0x00, 0x00, 0x00,
  0xfa, 0x22, 0x0b, 0x00, 0x00, 0x00, 0x00, 0x00, 0x26, 0xf6, 0x3d, 0x00,
  0x00, 0x00, 0x00, 0x00, 0xc0, 0xc4, 0xbf, 0x00, 0x00, 0x00, 0x00, 0x00,
  0xe5, 0xfb, 0x05, 0x00, 0x00, 0x00, 0x00, 0x00, 0xc6, 0xd3, 0xcd, 0x00,
  0x00, 0x00, 0x00, 0x00, 0x9f, 0x3a, 0x33, 0x00, 0x00, 0x00, 0x00, 0x00,
  0xf5, 0x30, 0xcf, 0x00, 0x00, 0x00, 0x00, 0x00, 0x32, 0xd6, 0x15, 0x00,
  0x00, 0x00, 0x00, 0x00, 0xfa, 0x4d, 0xfe, 0x00, 0x00, 0x00, 0x00, 0x00,
  0xaf, 0x20, 0xe0, 0x00, 0x00, 0x00, 0x00, 0x00, 0x0c, 0x0b, 0xff, 0x00,
  0x00, 0x00, 0x00, 0x00, 0xd5, 0x12, 0x3c, 0x00, 0x00, 0x00, 0x00, 0x00,
  0x15, 0xe2, 0xec, 0x00, 0x00, 0x00, 0x00, 0x00, 0x00, 0x00, 0x3d, 0x00,
  0x00, 0x00, 0x00, 0x00, 0xd7, 0xe5, 0x27, 0x00, 0x00, 0x00, 0x00, 0x00,
  0x00, 0xcd, 0xd9, 0x00, 0x00, 0x00, 0x00, 0x00, 0xdd, 0x1b, 0x25, 0x00,
  0x00, 0x00, 0x00, 0x00, 0xda, 0xe0, 0x53, 0x00, 0x00, 0x00, 0x00, 0x00,
  0xea, 0xe9, 0xf0, 0x00, 0x00, 0x00, 0x00, 0x00, 0xd5, 0x02, 0x26, 0x00,
  0x00, 0x00, 0x00, 0x00, 0xb3, 0xc2, 0xa9, 0x00, 0x00, 0x00, 0x00, 0x00,
  0xa7, 0x09, 0x46, 0x00, 0x00, 0x00, 0x00, 0x00, 0xdb, 0x01, 0xdd, 0x00,
  0x00, 0x00, 0x00, 0x00, 0xa8, 0x81, 0xdf, 0x00, 0x00, 0x00, 0x00, 0x00,
  0xfd, 0x34, 0xfe, 0x00, 0x00, 0x00, 0x00, 0x00, 0x76, 0x55, 0x59, 0x00,
  0x00, 0x00, 0x00, 0x00, 0xc1, 0xb2, 0xb7, 0x00, 0x00, 0x00, 0x00, 0x00,
  0xb6, 0x1a, 0x5a, 0x00, 0x00, 0x00, 0x00, 0x00, 0x11, 0xe5, 0x0e, 0x00,
  0x00, 0x00, 0x00, 0x00, 0x01, 0x0b, 0x2a, 0x00, 0x00, 0x00, 0x00, 0x00,
  0x1d, 0x38, 0x7c, 0x00, 0x00, 0x00, 0x00, 0x00, 0x0f, 0xcb, 0xf2, 0x00,
  0x00, 0x00, 0x00, 0x00, 0xbd, 0xcd, 0xf4, 0x00, 0x00, 0x00, 0x00, 0x00,
  0xa9, 0xcc, 0x27, 0x00, 0x00, 0x00, 0x00, 0x00, 0x5d, 0x4d, 0x53, 0x00,
  0x00, 0x00, 0x00, 0x00, 0xd9, 0xe6, 0x04, 0x00, 0x00, 0x00, 0x00, 0x00,
  0xca, 0xdf, 0xbf, 0x00, 0x00, 0x00, 0x00, 0x00, 0xfb, 0xeb, 0x2f, 0x00,
  0x00, 0x00, 0x00, 0x00, 0xf5, 0xc6, 0x03, 0x00, 0x00, 0x00, 0x00, 0x00,
  0xb9, 0xd4, 0xee, 0x00, 0x00, 0x00, 0x00, 0x00, 0xf2, 0xe3, 0xc2, 0x00,
  0x00, 0x00, 0x00, 0x00, 0x10, 0x9d, 0xc5, 0x00, 0x00, 0x00, 0x00, 0x00,
  0xf8, 0xe4, 0xe3, 0x00, 0x00, 0x00, 0x00, 0x00, 0xc9, 0x2d, 0x66, 0x00,
  0x00, 0x00, 0x00, 0x00, 0xe5, 0xda, 0x06, 0x00, 0x00, 0x00, 0x00, 0x00,
  0x36, 0x0c, 0x07, 0x00, 0x00, 0x00, 0x00, 0x00, 0xde, 0xd9, 0xde, 0x00,
  0x00, 0x00, 0x00, 0x00, 0x08, 0xf9, 0x13, 0x00, 0x00, 0x00, 0x00, 0x00,
  0x23, 0x05, 0xf7, 0x00, 0x00, 0x00, 0x00, 0x00, 0xc5, 0xdc, 0x15, 0x00,
  0x00, 0x00, 0x00, 0x00, 0xfa, 0xd9, 0xe3, 0x00, 0x00, 0x00, 0x00, 0x00,
  0xf8, 0xea, 0x03, 0x00, 0x00, 0x00, 0x00, 0x00, 0xfc, 0xf2, 0xe8, 0x00,
  0x00, 0x00, 0x00, 0x00, 0x1a, 0xee, 0xf5, 0x00, 0x00, 0x00, 0x00, 0x00,
  0x0f, 0xb7, 0x45, 0x00, 0x00, 0x00, 0x00, 0x00, 0xf3, 0x04, 0x04, 0x00,
  0x00, 0x00, 0x00, 0x00, 0x18, 0xcd, 0xd9, 0x00, 0x00, 0x00, 0x00, 0x00,
  0x23, 0xdf, 0x3d, 0x00, 0x00, 0x00, 0x00, 0x00, 0x0e, 0xf9, 0x11, 0x00,
  0x00, 0x00, 0x00, 0x00, 0xd8, 0x0d, 0x3c, 0x00, 0x00, 0x00, 0x00, 0x00,
  0x26, 0x0c, 0x13, 0x00, 0x00, 0x00, 0x00, 0x00, 0x3b, 0xe3, 0xb0, 0x00,
  0x00, 0x00, 0x00, 0x00, 0x1c, 0x2c, 0xbc, 0x00, 0x00, 0x00, 0x00, 0x00,
  0xd5, 0xd0, 0xfd, 0x00, 0x00, 0x00, 0x00, 0x00, 0x3b, 0x17, 0xf2, 0x00,
  0x00, 0x00, 0x00, 0x00, 0x2a, 0xed, 0xdf, 0x00, 0x00, 0x00, 0x00, 0x00,
  0x06, 0x09, 0x04, 0x00, 0x00, 0x00, 0x00, 0x00, 0x75, 0x11, 0x9f, 0x00,
  0x00, 0x00, 0x00, 0x00, 0xf9, 0xf5, 0x0b, 0x00, 0x00, 0x00, 0x00, 0x00,
  0x2d, 0x33, 0xa1, 0x00, 0x00, 0x00, 0x00, 0x00, 0xf2, 0x5a, 0xc5, 0x00,
  0x00, 0x00, 0x00, 0x00, 0x79, 0xfd, 0xec, 0x00, 0x00, 0x00, 0x00, 0x00,
  0xc7, 0x03, 0xea, 0x00, 0x00, 0x00, 0x00, 0x00, 0xeb, 0x3a, 0xee, 0x00,
  0x00, 0x00, 0x00, 0x00, 0xd6, 0x07, 0xe0, 0x00, 0x00, 0x00, 0x00, 0x00,
  0x06, 0xf0, 0xf8, 0x00, 0x00, 0x00, 0x00, 0x00, 0x35, 0xe2, 0xe6, 0x00,
  0x00, 0x00, 0x00, 0x00, 0x2f, 0xec, 0x0c, 0x00, 0x00, 0x00, 0x00, 0x00,
  0x1f, 0xfc, 0xf0, 0x00, 0x00, 0x00, 0x00, 0x00, 0xcf, 0xe4, 0x12, 0x00,
  0x00, 0x00, 0x00, 0x00, 0xe6, 0x09, 0xe7, 0x00, 0x00, 0x00, 0x00, 0x00,
  0x0a, 0x05, 0x3a, 0x00, 0x00, 0x00, 0x00, 0x00, 0xeb, 0xe3, 0xd7, 0x00,
  0x00, 0x00, 0x00, 0x00, 0x62, 0xf4, 0xae, 0x00, 0x00, 0x00, 0x00, 0x00,
  0x0a, 0x00, 0x2a, 0x00, 0x00, 0x00, 0x00, 0x00, 0xe1, 0x46, 0xf5, 0x00,
  0x00, 0x00, 0x00, 0x00, 0x01, 0x58, 0xe5, 0x00, 0x00, 0x00, 0x00, 0x00,
  0x7f, 0x04, 0x13, 0x00, 0x00, 0x00, 0x00, 0x00, 0xea, 0x3b, 0x0d, 0x00,
  0x00, 0x00, 0x00, 0x00, 0xe2, 0x23, 0xf9, 0x00, 0x00, 0x00, 0x00, 0x00,
  0x10, 0x2e, 0x08, 0x00, 0x00, 0x00, 0x00, 0x00, 0xf1, 0xfe, 0x24, 0x00,
  0x00, 0x00, 0x00, 0x00, 0xad, 0x88, 0xab, 0x00, 0x00, 0x00, 0x00, 0x00,
  0x64, 0xe7, 0x3f, 0x00, 0x00, 0x00, 0x00, 0x00, 0xb6, 0xb5, 0xf1, 0x00,
  0x00, 0x00, 0x00, 0x00, 0xa6, 0xbc, 0x01, 0x00, 0x00, 0x00, 0x00, 0x00,
  0xd9, 0x11, 0x1d, 0x00, 0x00, 0x00, 0x00, 0x00, 0xda, 0xf2, 0x58, 0x00,
  0x00, 0x00, 0x00, 0x00, 0x3c, 0x32, 0x2b, 0x00, 0x00, 0x00, 0x00, 0x00,
  0x5e, 0xeb, 0xb3, 0x00, 0x00, 0x00, 0x00, 0x00, 0x12, 0x12, 0x30, 0x00,
  0x00, 0x00, 0x00, 0x00, 0xb2, 0x1c, 0x27, 0x00, 0x00, 0x00, 0x00, 0x00,
  0x11, 0x38, 0x15, 0x00, 0x00, 0x00, 0x00, 0x00, 0x1d, 0xc8, 0x0b, 0x00,
  0x00, 0x00, 0x00, 0x00, 0xdb, 0x16, 0xf9, 0x00, 0x00, 0x00, 0x00, 0x00,
  0x16, 0xfe, 0x0e, 0x00, 0x00, 0x00, 0x00, 0x00, 0x04, 0x1b, 0x10, 0x00,
  0x00, 0x00, 0x00, 0x00, 0xc2, 0xfa, 0x33, 0x00, 0x00, 0x00, 0x00, 0x00,
  0xaf, 0xcb, 0xf4, 0x00, 0x00, 0x00, 0x00, 0x00, 0x64, 0x04, 0x44, 0x00,
  0x00, 0x00, 0x00, 0x00, 0x09, 0x2f, 0x7f, 0x00, 0x00, 0x00, 0x00, 0x00,
  0xc4, 0xe5, 0x31, 0x00, 0x00, 0x00, 0x00, 0x00, 0xdc, 0xf4, 0x1d, 0x00,
  0x00, 0x00, 0x00, 0x00, 0xbc, 0xf0, 0x14, 0x00, 0x00, 0x00, 0x00, 0x00,
  0xfc, 0xe7, 0xf7, 0x00, 0x00, 0x00, 0x00, 0x00, 0x6b, 0xfc, 0xbf, 0x00,
  0x00, 0x00, 0x00, 0x00, 0x09, 0x0d, 0x1c, 0x00, 0x00, 0x00, 0x00, 0x00,
  0xd7, 0x04, 0x33, 0x00, 0x00, 0x00, 0x00, 0x00, 0x31, 0x0f, 0x44, 0x00,
  0x00, 0x00, 0x00, 0x00, 0x0d, 0xe1, 0x1d, 0x00, 0x00, 0x00, 0x00, 0x00,
  0xf0, 0xd4, 0xec, 0x00, 0x00, 0x00, 0x00, 0x00, 0x1e, 0x99, 0xe4, 0x00,
  0x00, 0x00, 0x00, 0x00, 0xff, 0xff, 0xe9, 0x00, 0x00, 0x00, 0x00, 0x00,
  0xd7, 0x1d, 0x3a, 0x00, 0x00, 0x00, 0x00, 0x00, 0xa6, 0xe1, 0x01, 0x00,
  0x00, 0x00, 0x00, 0x00, 0x7f, 0x09, 0x22, 0x00, 0x00, 0x00, 0x00, 0x00,
  0xf9, 0x16, 0x0a, 0x00, 0x00, 0x00, 0x00, 0x00, 0xd4, 0x00, 0x41, 0x00,
  0x00, 0x00, 0x00, 0x00, 0x03, 0xf2, 0xec, 0x00, 0x00, 0x00, 0x00, 0x00,
  0xf6, 0xe9, 0xf9, 0x00, 0x00, 0x00, 0x00, 0x00, 0xfb, 0xe9, 0x00, 0x00,
  0x00, 0x00, 0x00, 0x00, 0x7f, 0x09, 0xf2, 0x00, 0x00, 0x00, 0x00, 0x00,
  0x03, 0xf8, 0x0b, 0x00, 0x00, 0x00, 0x00, 0x00, 0xef, 0xf6, 0x15, 0x00,
  0x00, 0x00, 0x00, 0x00, 0x1e, 0xda, 0x40, 0x00, 0x00, 0x00, 0x00, 0x00,
  0x0e, 0xee, 0xfb, 0x00, 0x00, 0x00, 0x00, 0x00, 0x25, 0xea, 0x1c, 0x00,
  0x00, 0x00, 0x00, 0x00, 0x0f, 0xee, 0x25, 0x00, 0x00, 0x00, 0x00, 0x00,
  0x07, 0xeb, 0xf3, 0x00, 0x00, 0x00, 0x00, 0x00, 0xdc, 0x06, 0x24, 0x00,
  0x00, 0x00, 0x00, 0x00, 0xfd, 0x13, 0x10, 0x00, 0x00, 0x00, 0x00, 0x00,
  0x4d, 0xc1, 0x96, 0x00, 0x00, 0x00, 0x00, 0x00, 0xf7, 0x31, 0xdb, 0x00,
  0x00, 0x00, 0x00, 0x00, 0xad, 0xf0, 0x35, 0x00, 0x00, 0x00, 0x00, 0x00,
  0x37, 0x2a, 0xf4, 0x00, 0x00, 0x00, 0x00, 0x00, 0x04, 0xf3, 0xf1, 0x00,
  0x00, 0x00, 0x00, 0x00, 0x74, 0x14, 0xde, 0x00, 0x00, 0x00, 0x00, 0x00,
  0xe2, 0xf8, 0x05, 0x00, 0x00, 0x00, 0x00, 0x00, 0xf2, 0x29, 0x32, 0x00,
  0x00, 0x00, 0x00, 0x00, 0x2a, 0xf8, 0xd2, 0x00, 0x00, 0x00, 0x00, 0x00,
  0xd9, 0x1a, 0xeb, 0x00, 0x00, 0x00, 0x00, 0x00, 0xdd, 0xfe, 0xff, 0x00,
  0x00, 0x00, 0x00, 0x00, 0x47, 0x17, 0x39, 0x00, 0x00, 0x00, 0x00, 0x00,
  0x0a, 0xe9, 0x12, 0x00, 0x00, 0x00, 0x00, 0x00, 0x07, 0x1f, 0xf1, 0x00,
  0x00, 0x00, 0x00, 0x00, 0x05, 0xff, 0x06, 0x00, 0x00, 0x00, 0x00, 0x00,
  0xd8, 0x29, 0xfa, 0x00, 0x00, 0x00, 0x00, 0x00, 0x1a, 0xfe, 0xed, 0x00,
  0x00, 0x00, 0x00, 0x00, 0xe3, 0xde, 0xf0, 0x00, 0x00, 0x00, 0x00, 0x00,
  0xdc, 0x7f, 0x11, 0x00, 0x00, 0x00, 0x00, 0x00, 0x0c, 0x03, 0xf2, 0x00,
  0x00, 0x00, 0x00, 0x00, 0xd6, 0xcb, 0xee, 0x00, 0x00, 0x00, 0x00, 0x00,
  0x5c, 0x3f, 0xfb, 0x00, 0x00, 0x00, 0x00, 0x00, 0x08, 0x16, 0x4e, 0x00,
  0x00, 0x00, 0x00, 0x00, 0xe8, 0x04, 0xff, 0x00, 0x00, 0x00, 0x00, 0x00,
  0x31, 0xea, 0xb4, 0x00, 0x00, 0x00, 0x00, 0x00, 0xe5, 0x1b, 0x13, 0x00,
  0x00, 0x00, 0x00, 0x00, 0xfa, 0x49, 0x75, 0x00, 0x00, 0x00, 0x00, 0x00,
  0x31, 0x12, 0x42, 0x00, 0x00, 0x00, 0x00, 0x00, 0xe1, 0x1b, 0xe5, 0x00,
  0x00, 0x00, 0x00, 0x00, 0xf0, 0x16, 0xdc, 0x00, 0x00, 0x00, 0x00, 0x00,
  0xe8, 0xf4, 0xfa, 0x00, 0x00, 0x00, 0x00, 0x00, 0xff, 0xf9, 0x10, 0x00,
  0x00, 0x00, 0x00, 0x00, 0xfa, 0xef, 0xfb, 0x00, 0x00, 0x00, 0x00, 0x00,
  0xd3, 0xf1, 0xdd, 0x00, 0x00, 0x00, 0x00, 0x00, 0xf5, 0x3d, 0x0b, 0x00,
  0x00, 0x00, 0x00, 0x00, 0x11, 0x12, 0x16, 0x00, 0x00, 0x00, 0x00, 0x00,
  0xf4, 0xff, 0x6e, 0x00, 0x00, 0x00, 0x00, 0x00, 0x01, 0x01, 0xc7, 0x00,
  0x00, 0x00, 0x00, 0x00, 0xec, 0x28, 0x5d, 0x00, 0x00, 0x00, 0x00, 0x00,
  0xef, 0xf5, 0xe2, 0x00, 0x00, 0x00, 0x00, 0x00, 0xcf, 0x0f, 0x36, 0x00,
  0x00, 0x00, 0x00, 0x00, 0xe0, 0x0e, 0x10, 0x00, 0x00, 0x00, 0x00, 0x00,
  0xd0, 0x05, 0x37, 0x00, 0x00, 0x00, 0x00, 0x00, 0xe0, 0xbd, 0xff, 0x00,
  0x00, 0x00, 0x00, 0x00, 0xef, 0x36, 0xf5, 0x00, 0x00, 0x00, 0x00, 0x00,
  0xec, 0x16, 0xce, 0x00, 0x00, 0x00, 0x00, 0x00, 0xfe, 0x0b, 0x0b, 0x00,
  0x00, 0x00, 0x00, 0x00, 0x14, 0xea, 0x15, 0x00, 0x00, 0x00, 0x00, 0x00,
  0xec, 0xf4, 0x0d, 0x00, 0x00, 0x00, 0x00, 0x00, 0xd6, 0xfe, 0xec, 0x00,
  0x00, 0x00, 0x00, 0x00, 0x1e, 0x1e, 0xe8, 0x00, 0x00, 0x00, 0x00, 0x00,
  0xd1, 0xdb, 0xf2, 0x00, 0x00, 0x00, 0x00, 0x00, 0xfb, 0xf6, 0x57, 0x00,
  0x00, 0x00, 0x00, 0x00, 0x1b, 0x1f, 0xeb, 0x00, 0x00, 0x00, 0x00, 0x00,
  0xc8, 0x0c, 0x43, 0x00, 0x00, 0x00, 0x00, 0x00, 0x0f, 0xf7, 0xeb, 0x00,
  0x00, 0x00, 0x00, 0x00, 0xd3, 0x11, 0x10, 0x00, 0x00, 0x00, 0x00, 0x00,
  0xb4, 0xec, 0x0a, 0x00, 0x00, 0x00, 0x00, 0x00, 0xce, 0xf6, 0x16, 0x00,
  0x00, 0x00, 0x00, 0x00, 0xe0, 0xc8, 0xdd, 0x00, 0x00, 0x00, 0x00, 0x00,
  0xf3, 0xf8, 0xf6, 0x00, 0x00, 0x00, 0x00, 0x00, 0xec, 0x0e, 0xdc, 0x00,
  0x00, 0x00, 0x00, 0x00, 0x2f, 0x41, 0x1f, 0x00, 0x00, 0x00, 0x00, 0x00,
  0xfd, 0x17, 0x0b, 0x00, 0x00, 0x00, 0x00, 0x00, 0x15, 0x0b, 0xf4, 0x00,
  0x00, 0x00, 0x00, 0x00, 0x2a, 0xfa, 0x0b, 0x00, 0x00, 0x00, 0x00, 0x00,
  0x35, 0xf1, 0xec, 0x00, 0x00, 0x00, 0x00, 0x00, 0x05, 0x10, 0x23, 0x00,
  0x00, 0x00, 0x00, 0x00, 0xf8, 0xe4, 0x1a, 0x00, 0x00, 0x00, 0x00, 0x00,
  0x13, 0xe2, 0xad, 0x00, 0x00, 0x00, 0x00, 0x00, 0xd4, 0xfd, 0x18, 0x00,
  0x00, 0x00, 0x00, 0x00, 0x14, 0xf4, 0x00, 0x00, 0x00, 0x00, 0x00, 0x00,
  0x05, 0xf8, 0xe2, 0x00, 0x00, 0x00, 0x00, 0x00, 0x9f, 0x07, 0xf3, 0x00,
  0x00, 0x00, 0x00, 0x00, 0x02, 0x06, 0xff, 0x00, 0x00, 0x00, 0x00, 0x00,
  0x02, 0xe2, 0x02, 0x00, 0x00, 0x00, 0x00, 0x00, 0x1e, 0xc0, 0x33, 0x00,
  0x00, 0x00, 0x00, 0x00, 0xf9, 0x1a, 0xfb, 0x00, 0x00, 0x00, 0x00, 0x00,
  0xdf, 0xea, 0xc2, 0x00, 0x00, 0x00, 0x00, 0x00, 0xba, 0x34, 0x07, 0x00,
  0x00, 0x00, 0x00, 0x00, 0x14, 0x00, 0xf7, 0x00, 0x00, 0x00, 0x00, 0x00,
  0x51, 0x32, 0x08, 0x00, 0x00, 0x00, 0x00, 0x00, 0x75, 0x1b, 0x05, 0x00,
  0x00, 0x00, 0x00, 0x00, 0x04, 0xee, 0xec, 0x00, 0x00, 0x00, 0x00, 0x00,
  0xca, 0xdf, 0xd5, 0x00, 0x00, 0x00, 0x00, 0x00, 0x21, 0x0c, 0xe3, 0x00,
  0x00, 0x00, 0x00, 0x00, 0xfb, 0xff, 0xeb, 0x00, 0x00, 0x00, 0x00, 0x00,
  0xc9, 0xda, 0xdf, 0x00, 0x00, 0x00, 0x00, 0x00, 0x6a, 0xf5, 0xc7, 0x00,
  0x00, 0x00, 0x00, 0x00, 0xef, 0xf3, 0xe1, 0x00, 0x00, 0x00, 0x00, 0x00,
  0xe1, 0x1a, 0x32, 0x00, 0x00, 0x00, 0x00, 0x00, 0x39, 0xf3, 0x37, 0x00,
  0x00, 0x00, 0x00, 0x00, 0xfc, 0x0a, 0xf6, 0x00, 0x00, 0x00, 0x00, 0x00,
  0xe1, 0xfc, 0x01, 0x00, 0x00, 0x00, 0x00, 0x00, 0x21, 0x0c, 0x12, 0x00,
  0x00, 0x00, 0x00, 0x00, 0xf0, 0x0c, 0x01, 0x00, 0x00, 0x00, 0x00, 0x00,
  0x1c, 0x06, 0xf3, 0x00, 0x00, 0x00, 0x00, 0x00, 0xe6, 0x22, 0x1b, 0x00,
  0x00, 0x00, 0x00, 0x00, 0xcf, 0x44, 0x23, 0x00, 0x00, 0x00, 0x00, 0x00,
  0xfa, 0xf1, 0xc9, 0x00, 0x00, 0x00, 0x00, 0x00, 0xd0, 0xcf, 0xfc, 0x00,
  0x00, 0x00, 0x00, 0x00, 0x0b, 0x30, 0xf5, 0x00, 0x00, 0x00, 0x00, 0x00,
  0x21, 0x28, 0x10, 0x00, 0x00, 0x00, 0x00, 0x00, 0xed, 0xda, 0xc8, 0x00,
  0x00, 0x00, 0x00, 0x00, 0x3f, 0xca, 0xa4, 0x00, 0x00, 0x00, 0x00, 0x00,
  0x19, 0xfd, 0x2b, 0x00, 0x00, 0x00, 0x00, 0x00, 0x13, 0x49, 0x7f, 0x00,
  0x00, 0x00, 0x00, 0x00, 0xee, 0xbb, 0xf9, 0x00, 0x00, 0x00, 0x00, 0x00,
  0xd9, 0x57, 0xc6, 0x00, 0x00, 0x00, 0x00, 0x00, 0x10, 0x2f, 0x36, 0x00,
  0x00, 0x00, 0x00, 0x00, 0x04, 0xf7, 0x19, 0x00, 0x00, 0x00, 0x00, 0x00,
  0x24, 0xc2, 0x0d, 0x00, 0x00, 0x00, 0x00, 0x00, 0xf9, 0x0b, 0x3a, 0x00,
  0x00, 0x00, 0x00, 0x00, 0xf4, 0xf0, 0x12, 0x00, 0x00, 0x00, 0x00, 0x00,
  0xac, 0xf6, 0xea, 0x00, 0x00, 0x00, 0x00, 0x00, 0x48, 0x5c, 0x46, 0x00,
  0x00, 0x00, 0x00, 0x00, 0xee, 0x0d, 0x7f, 0x00, 0x00, 0x00, 0x00, 0x00,
  0xc8, 0x0f, 0x09, 0x00, 0x00, 0x00, 0x00, 0x00, 0x19, 0x26, 0x28, 0x00,
  0x00, 0x00, 0x00, 0x00, 0x3f, 0x1b, 0x14, 0x00, 0x00, 0x00, 0x00, 0x00,
  0xcc, 0x27, 0x5c, 0x00, 0x00, 0x00, 0x00, 0x00, 0x2f, 0x32, 0x64, 0x00,
  0x00, 0x00, 0x00, 0x00, 0xd8, 0x09, 0x21, 0x00, 0x00, 0x00, 0x00, 0x00,
  0xba, 0x81, 0xb8, 0x00, 0x00, 0x00, 0x00, 0x00, 0xdf, 0x7f, 0xc9, 0x00,
  0x00, 0x00, 0x00, 0x00, 0x47, 0x6e, 0x7f, 0x00, 0x00, 0x00, 0x00, 0x00,
  0x82, 0x81, 0xa6, 0x00, 0x00, 0x00, 0x00, 0x00, 0x3f, 0x9c, 0xf3, 0x00,
  0x00, 0x00, 0x00, 0x00, 0x8e, 0xc5, 0xf8, 0x00, 0x00, 0x00, 0x00, 0x00,
  0x31, 0x25, 0x0e, 0x00, 0x00, 0x00, 0x00, 0x00, 0xc1, 0xde, 0xd9, 0x00,
  0x00, 0x00, 0x00, 0x00, 0x95, 0xa3, 0xc6, 0x00, 0x00, 0x00, 0x00, 0x00,
  0xe8, 0x1b, 0x6d, 0x00, 0x00, 0x00, 0x00, 0x00, 0x09, 0x3c, 0x3b, 0x00,
  0x00, 0x00, 0x00, 0x00, 0xd2, 0x0e, 0x53, 0x00, 0x00, 0x00, 0x00, 0x00,
  0x34, 0x0c, 0x1b, 0x00, 0x00, 0x00, 0x00, 0x00, 0xb8, 0x1a, 0x36, 0x00,
  0x00, 0x00, 0x00, 0x00, 0xfb, 0x28, 0x4e, 0x00, 0x00, 0x00, 0x00, 0x00,
  0xe7, 0xf7, 0xe7, 0x00, 0x00, 0x00, 0x00, 0x00, 0x09, 0xde, 0xf2, 0x00,
  0x00, 0x00, 0x00, 0x00, 0xf2, 0x43, 0xe5, 0x00, 0x00, 0x00, 0x00, 0x00,
  0x2c, 0x43, 0x56, 0x00, 0x00, 0x00, 0x00, 0x00, 0x3d, 0x45, 0x44, 0x00,
  0x00, 0x00, 0x00, 0x00, 0x32, 0xe1, 0x01, 0x00, 0x00, 0x00, 0x00, 0x00,
  0x2a, 0x28, 0x06, 0x00, 0x00, 0x00, 0x00, 0x00, 0x37, 0x03, 0xf8, 0x00,
  0x00, 0x00, 0x00, 0x00, 0x11, 0xf1, 0xde, 0x00, 0x00, 0x00, 0x00, 0x00,
  0xfe, 0xfe, 0x29, 0x00, 0x00, 0x00, 0x00, 0x00, 0x23, 0x01, 0x2e, 0x00,
  0x00, 0x00, 0x00, 0x00, 0xe3, 0xf5, 0xd8, 0x00, 0x00, 0x00, 0x00, 0x00,
  0xe6, 0x01, 0x35, 0x00, 0x00, 0x00, 0x00, 0x00, 0x06, 0xf4, 0x0d, 0x00,
  0x00, 0x00, 0x00, 0x00, 0xf4, 0x10, 0x07, 0x00, 0x00, 0x00, 0x00, 0x00,
  0xec, 0x0f, 0x34, 0x00, 0x00, 0x00, 0x00, 0x00, 0x02, 0xf4, 0xb7, 0x00,
  0x00, 0x00, 0x00, 0x00, 0x19, 0xfc, 0x0d, 0x00, 0x00, 0x00, 0x00, 0x00,
  0xfd, 0xd3, 0x0c, 0x00, 0x00, 0x00, 0x00, 0x00, 0xf7, 0x0a, 0x26, 0x00,
  0x00, 0x00, 0x00, 0x00, 0x10, 0x0e, 0xff, 0x00, 0x00, 0x00, 0x00, 0x00,
  0xc4, 0x20, 0xfc, 0x00, 0x00, 0x00, 0x00, 0x00, 0x03, 0x06, 0xe4, 0x00,
  0x00, 0x00, 0x00, 0x00, 0x73, 0x12, 0x00, 0x00, 0x00, 0x00, 0x00, 0x00,
  0x5c, 0x1f, 0x10, 0x00, 0x00, 0x00, 0x00, 0x00, 0x07, 0xee, 0x07, 0x00,
  0x00, 0x00, 0x00, 0x00, 0xcf, 0xe5, 0xce, 0x00, 0x00, 0x00, 0x00, 0x00,
  0xe6, 0xf1, 0xe7, 0x00, 0x00, 0x00, 0x00, 0x00, 0x1b, 0xf9, 0xb0, 0x00,
  0x00, 0x00, 0x00, 0x00, 0x1d, 0xfd, 0xf4, 0x00, 0x00, 0x00, 0x00, 0x00,
  0x70, 0xee, 0xa5, 0x00, 0x00, 0x00, 0x00, 0x00, 0xed, 0xc1, 0xd4, 0x00,
  0x00, 0x00, 0x00, 0x00, 0xb4, 0xf1, 0x20, 0x00, 0x00, 0x00, 0x00, 0x00,
  0xd9, 0x9c, 0xff, 0x00, 0x00, 0x00, 0x00, 0x00, 0xf8, 0x0c, 0xfd, 0x00,
  0x00, 0x00, 0x00, 0x00, 0x05, 0xf3, 0x1a, 0x00, 0x00, 0x00, 0x00, 0x00,
  0xf8, 0xe5, 0xd5, 0x00, 0x00, 0x00, 0x00, 0x00, 0x0e, 0x09, 0x13, 0x00,
  0x00, 0x00, 0x00, 0x00, 0x21, 0x15, 0x03, 0x00, 0x00, 0x00, 0x00, 0x00,
  0xcb, 0xca, 0x04, 0x00, 0x00, 0x00, 0x00, 0x00, 0xe7, 0x2e, 0x31, 0x00,
  0x00, 0x00, 0x00, 0x00, 0xf9, 0x06, 0xd0, 0x00, 0x00, 0x00, 0x00, 0x00,
  0xcd, 0xf5, 0xfb, 0x00, 0x00, 0x00, 0x00, 0x00, 0xa8, 0xed, 0xf1, 0x00,
  0x00, 0x00, 0x00, 0x00, 0x01, 0xda, 0x93, 0x00, 0x00, 0x00, 0x00, 0x00,
  0x7f, 0x43, 0x35, 0x00, 0x00, 0x00, 0x00, 0x00, 0x17, 0xab, 0x8e, 0x00,
  0x00, 0x00, 0x00, 0x00, 0x03, 0xc3, 0xed, 0x00, 0x00, 0x00, 0x00, 0x00,
  0xd6, 0x08, 0x2d, 0x00, 0x00, 0x00, 0x00, 0x00, 0xda, 0xac, 0xd4, 0x00,
  0x00, 0x00, 0x00, 0x00, 0xe1, 0x5d, 0xd9, 0x00, 0x00, 0x00, 0x00, 0x00,
  0xd7, 0xbe, 0xe9, 0x00, 0x00, 0x00, 0x00, 0x00, 0x5e, 0x4e, 0x4e, 0x00,
  0x00, 0x00, 0x00, 0x00, 0x4b, 0xa7, 0xf8, 0x00, 0x00, 0x00, 0x00, 0x00,
  0xd0, 0xea, 0x1d, 0x00, 0x00, 0x00, 0x00, 0x00, 0xbb, 0xd5, 0xf3, 0x00,
  0x00, 0x00, 0x00, 0x00, 0xce, 0xf2, 0xee, 0x00, 0x00, 0x00, 0x00, 0x00,
  0x68, 0x7f, 0x5a, 0x00, 0x00, 0x00, 0x00, 0x00, 0xdf, 0xeb, 0x5c, 0x00,
  0x00, 0x00, 0x00, 0x00, 0x81, 0xd8, 0x0f, 0x00, 0x00, 0x00, 0x00, 0x00,
  0xd2, 0xdb, 0xc1, 0x00, 0x00, 0x00, 0x00, 0x00, 0x36, 0x06, 0x1b, 0x00,
  0x00, 0x00, 0x00, 0x00, 0xc5, 0x36, 0x7f, 0x00, 0x00, 0x00, 0x00, 0x00,
  0x02, 0xd4, 0x1b, 0x00, 0x00, 0x00, 0x00, 0x00, 0xe3, 0xd5, 0xdf, 0x00,
  0x00, 0x00, 0x00, 0x00, 0x10, 0x03, 0x03, 0x00, 0x00, 0x00, 0x00, 0x00,
  0xbe, 0x58, 0xa4, 0x00, 0x00, 0x00, 0x00, 0x00, 0x91, 0x89, 0xaa, 0x00,
  0x00, 0x00, 0x00, 0x00, 0xf2, 0xe5, 0x10, 0x00, 0x00, 0x00, 0x00, 0x00,
  0x60, 0x81, 0xe6, 0x00, 0x00, 0x00, 0x00, 0x00, 0x81, 0xb0, 0xe8, 0x00,
  0x00, 0x00, 0x00, 0x00, 0xd8, 0xec, 0xee, 0x00, 0x00, 0x00, 0x00, 0x00,
  0xe3, 0xc6, 0xdb, 0x00, 0x00, 0x00, 0x00, 0x00, 0x97, 0xb0, 0xbe, 0x00,
  0x00, 0x00, 0x00, 0x00, 0xe4, 0xea, 0x32, 0x00, 0x00, 0x00, 0x00, 0x00,
  0xdc, 0x36, 0x61, 0x00, 0x00, 0x00, 0x00, 0x00, 0xbd, 0xe3, 0x2e, 0x00,
  0x00, 0x00, 0x00, 0x00, 0xdd, 0xd0, 0xe0, 0x00, 0x00, 0x00, 0x00, 0x00,
  0xa8, 0x12, 0x35, 0x00, 0x00, 0x00, 0x00, 0x00, 0x3f, 0x30, 0x3d, 0x00,
  0x00, 0x00, 0x00, 0x00, 0x1a, 0xfe, 0xce, 0x00, 0x00, 0x00, 0x00, 0x00,
  0x4b, 0x3e, 0x37, 0x00, 0x00, 0x00, 0x00, 0x00, 0xde, 0x35, 0xd4, 0x00,
  0x00, 0x00, 0x00, 0x00, 0xb5, 0xa3, 0xc4, 0x00, 0x00, 0x00, 0x00, 0x00,
  0xbc, 0xb4, 0xd1, 0x00, 0x00, 0x00, 0x00, 0x00, 0x40, 0xd9, 0xf8, 0x00,
  0x00, 0x00, 0x00, 0x00, 0x6c, 0x5f, 0x17, 0x00, 0x00, 0x00, 0x00, 0x00,
  0xd8, 0x92, 0x8f, 0x00, 0x00, 0x00, 0x00, 0x00, 0x0a, 0xde, 0x03, 0x00,
  0x00, 0x00, 0x00, 0x00, 0x04, 0x03, 0x2e, 0x00, 0x00, 0x00, 0x00, 0x00,
  0x0b, 0xdd, 0x30, 0x00, 0x00, 0x00, 0x00, 0x00, 0xd2, 0xdf, 0x0a, 0x00,
  0x00, 0x00, 0x00, 0x00, 0xd1, 0xea, 0x40, 0x00, 0x00, 0x00, 0x00, 0x00,
  0xdf, 0xe6, 0xfb, 0x00, 0x00, 0x00, 0x00, 0x00, 0x03, 0x11, 0xf5, 0x00,
  0x00, 0x00, 0x00, 0x00, 0x54, 0x7f, 0x7b, 0x00, 0x00, 0x00, 0x00, 0x00,
  0x10, 0xd1, 0xb5, 0x00, 0x00, 0x00, 0x00, 0x00, 0x21, 0x17, 0x20, 0x00,
  0x00, 0x00, 0x00, 0x00, 0x17, 0xf2, 0x29, 0x00, 0x00, 0x00, 0x00, 0x00,
  0xed, 0xdf, 0xe7, 0x00, 0x00, 0x00, 0x00, 0x00, 0x10, 0x0e, 0x1f, 0x00,
  0x00, 0x00, 0x00, 0x00, 0xdb, 0x2a, 0x00, 0x00, 0x00, 0x00, 0x00, 0x00,
  0x12, 0x0e, 0xdc, 0x00, 0x00, 0x00, 0x00, 0x00, 0xe8, 0xa5, 0x83, 0x00,
  0x00, 0x00, 0x00, 0x00, 0x66, 0x39, 0x4a, 0x00, 0x00, 0x00, 0x00, 0x00,
  0x0e, 0x0f, 0x23, 0x00, 0x00, 0x00, 0x00, 0x00, 0x2e, 0x56, 0x15, 0x00,
  0x00, 0x00, 0x00, 0x00, 0x1e, 0x4d, 0x4d, 0x00, 0x00, 0x00, 0x00, 0x00,
  0x21, 0x07, 0xd3, 0x00, 0x00, 0x00, 0x00, 0x00, 0x2d, 0x15, 0x0a, 0x00,
  0x00, 0x00, 0x00, 0x00, 0x4c, 0xef, 0xac, 0x00, 0x00, 0x00, 0x00, 0x00,
  0x22, 0xfb, 0x10, 0x00, 0x00, 0x00, 0x00, 0x00, 0xe1, 0x1d, 0x28, 0x00,
  0x00, 0x00, 0x00, 0x00, 0xd2, 0xd4, 0xe3, 0x00, 0x00, 0x00, 0x00, 0x00,
  0x0f, 0xcf, 0x0f, 0x00, 0x00, 0x00, 0x00, 0x00, 0x19, 0xe6, 0x05, 0x00,
  0x00, 0x00, 0x00, 0x00, 0xe8, 0xec, 0xd3, 0x00, 0x00, 0x00, 0x00, 0x00,
  0xf3, 0x14, 0x07, 0x00, 0x00, 0x00, 0x00, 0x00, 0x19, 0x0e, 0x0a, 0x00,
  0x00, 0x00, 0x00, 0x00, 0xe7, 0x11, 0x43, 0x00, 0x00, 0x00, 0x00, 0x00,
  0xff, 0x1d, 0x1b, 0x00, 0x00, 0x00, 0x00, 0x00, 0xeb, 0xf7, 0xc1, 0x00,
  0x00, 0x00, 0x00, 0x00, 0x19, 0x2f, 0x21, 0x00, 0x00, 0x00, 0x00, 0x00,
  0xad, 0x0d, 0x15, 0x00, 0x00, 0x00, 0x00, 0x00, 0x1c, 0xeb, 0x81, 0x00,
  0x00, 0x00, 0x00, 0x00, 0xf0, 0xdb, 0xea, 0x00, 0x00, 0x00, 0x00, 0x00,
  0x17, 0xcf, 0xb8, 0x00, 0x00, 0x00, 0x00, 0x00, 0x34, 0xdf, 0x18, 0x00,
  0x00, 0x00, 0x00, 0x00, 0xe7, 0xe0, 0xe7, 0x00, 0x00, 0x00, 0x00, 0x00,
  0x08, 0x2c, 0x03, 0x00, 0x00, 0x00, 0x00, 0x00, 0x02, 0x1e, 0xf8, 0x00,
  0x00, 0x00, 0x00, 0x00, 0x20, 0xe7, 0xf3, 0x00, 0x00, 0x00, 0x00, 0x00,
  0xee, 0xe9, 0xd2, 0x00, 0x00, 0x00, 0x00, 0x00, 0x29, 0xc6, 0x0a, 0x00,
  0x00, 0x00, 0x00, 0x00, 0xd0, 0xe8, 0x1b, 0x00, 0x00, 0x00, 0x00, 0x00,
  0xf5, 0x36, 0x35, 0x00, 0x00, 0x00, 0x00, 0x00, 0x1b, 0x0e, 0xf6, 0x00,
  0x00, 0x00, 0x00, 0x00, 0x3d, 0x55, 0x2d, 0x00, 0x00, 0x00, 0x00, 0x00,
  0xe8, 0x0a, 0x2f, 0x00, 0x00, 0x00, 0x00, 0x00, 0x88, 0xed, 0x16, 0x00,
  0x00, 0x00, 0x00, 0x00, 0xf2, 0xe9, 0x97, 0x00, 0x00, 0x00, 0x00, 0x00,
  0xa5, 0xb0, 0xcb, 0x00, 0x00, 0x00, 0x00, 0x00, 0xac, 0x2b, 0x74, 0x00,
  0x00, 0x00, 0x00, 0x00, 0xfc, 0xdf, 0xee, 0x00, 0x00, 0x00, 0x00, 0x00,
  0x22, 0xf2, 0xbc, 0x00, 0x00, 0x00, 0x00, 0x00, 0x3f, 0x51, 0x20, 0x00,
  0x00, 0x00, 0x00, 0x00, 0xf3, 0x2f, 0xe3, 0x00, 0x00, 0x00, 0x00, 0x00,
  0x0d, 0xd7, 0xe9, 0x00, 0x00, 0x00, 0x00, 0x00, 0x65, 0x5e, 0x64, 0x00,
  0x00, 0x00, 0x00, 0x00, 0x3f, 0x9f, 0xfc, 0x00, 0x00, 0x00, 0x00, 0x00,
  0xdd, 0xf9, 0x03, 0x00, 0x00, 0x00, 0x00, 0x00, 0xf1, 0x21, 0x31, 0x00,
  0x00, 0x00, 0x00, 0x00, 0x2f, 0x0a, 0x07, 0x00, 0x00, 0x00, 0x00, 0x00,
  0xc4, 0xbb, 0xcd, 0x00, 0x00, 0x00, 0x00, 0x00, 0xe9, 0xcc, 0x08, 0x00,
  0x00, 0x00, 0x00, 0x00, 0x0a, 0x4f, 0x69, 0x00, 0x00, 0x00, 0x00, 0x00,
  0xf8, 0x2d, 0x29, 0x00, 0x00, 0x00, 0x00, 0x00, 0xe2, 0x09, 0x0e, 0x00,
  0x00, 0x00, 0x00, 0x00, 0xae, 0x11, 0x39, 0x00, 0x00, 0x00, 0x00, 0x00,
  0xf1, 0xf8, 0xfd, 0x00, 0x00, 0x00, 0x00, 0x00, 0x54, 0x1b, 0xe3, 0x00,
  0x00, 0x00, 0x00, 0x00, 0x1a, 0x3f, 0x14, 0x00, 0x00, 0x00, 0x00, 0x00,
  0x0d, 0x0c, 0xf9, 0x00, 0x00, 0x00, 0x00, 0x00, 0x25, 0xe9, 0xfa, 0x00,
  0x00, 0x00, 0x00, 0x00, 0xd2, 0xc4, 0xe3, 0x00, 0x00, 0x00, 0x00, 0x00,
  0x20, 0xf9, 0xfe, 0x00, 0x00, 0x00, 0x00, 0x00, 0x3e, 0x30, 0xf9, 0x00,
  0x00, 0x00, 0x00, 0x00, 0x01, 0xd6, 0xf9, 0x00, 0x00, 0x00, 0x00, 0x00,
  0x3a, 0xee, 0x0d, 0x00, 0x00, 0x00, 0x00, 0x00, 0x10, 0x0f, 0x14, 0x00,
  0x00, 0x00, 0x00, 0x00, 0x1d, 0xd9, 0x1d, 0x00, 0x00, 0x00, 0x00, 0x00,
  0x23, 0xf0, 0x26, 0x00, 0x00, 0x00, 0x00, 0x00, 0xe0, 0x32, 0x57, 0x00,
  0x00, 0x00, 0x00, 0x00, 0xff, 0x2e, 0x20, 0x00, 0x00, 0x00, 0x00, 0x00,
  0x07, 0x0d, 0xeb, 0x00, 0x00, 0x00, 0x00, 0x00, 0x33, 0x4b, 0x46, 0x00,
  0x00, 0x00, 0x00, 0x00, 0x47, 0x11, 0xee, 0x00, 0x00, 0x00, 0x00, 0x00,
  0xe9, 0x0d, 0xfa, 0x00, 0x00, 0x00, 0x00, 0x00, 0x10, 0xb9, 0x1c, 0x00,
  0x00, 0x00, 0x00, 0x00, 0x1f, 0xf3, 0xf5, 0x00, 0x00, 0x00, 0x00, 0x00,
  0x00, 0xf7, 0x16, 0x00, 0x00, 0x00, 0x00, 0x00, 0xc1, 0x3c, 0xfc, 0x00,
  0x00, 0x00, 0x00, 0x00, 0xf7, 0xf0, 0xdf, 0x00, 0x00, 0x00, 0x00, 0x00,
  0x35, 0xed, 0xb0, 0x00, 0x00, 0x00, 0x00, 0x00, 0x4a, 0x31, 0x17, 0x00,
  0x00, 0x00, 0x00, 0x00, 0x02, 0x09, 0x18, 0x00, 0x00, 0x00, 0x00, 0x00,
  0x30, 0x5e, 0xcd, 0x00, 0x00, 0x00, 0x00, 0x00, 0xed, 0xf9, 0x06, 0x00,
  0x00, 0x00, 0x00, 0x00, 0x0d, 0x1c, 0xde, 0x00, 0x00, 0x00, 0x00, 0x00,
  0xf1, 0xf7, 0xf6, 0x00, 0x00, 0x00, 0x00, 0x00, 0x31, 0xf2, 0xe2, 0x00,
  0x00, 0x00, 0x00, 0x00, 0x39, 0xf4, 0xd6, 0x00, 0x00, 0x00, 0x00, 0x00,
  0x00, 0x0f, 0x07, 0x00, 0x00, 0x00, 0x00, 0x00, 0xeb, 0x2e, 0xe6, 0x00,
  0x00, 0x00, 0x00, 0x00, 0x25, 0xa1, 0x46, 0x00, 0x00, 0x00, 0x00, 0x00,
  0xf2, 0x02, 0x01, 0x00, 0x00, 0x00, 0x00, 0x00, 0x08, 0x3c, 0x1a, 0x00,
  0x00, 0x00, 0x00, 0x00, 0xd8, 0x1e, 0xf7, 0x00, 0x00, 0x00, 0x00, 0x00,
  0x0e, 0xf9, 0x0d, 0x00, 0x00, 0x00, 0x00, 0x00, 0xd9, 0x0d, 0x4a, 0x00,
  0x00, 0x00, 0x00, 0x00, 0x88, 0xa4, 0xd5, 0x00, 0x00, 0x00, 0x00, 0x00,
  0x12, 0x0f, 0xed, 0x00, 0x00, 0x00, 0x00, 0x00, 0x20, 0x31, 0xd2, 0x00,
  0x00, 0x00, 0x00, 0x00, 0xdb, 0x05, 0x1d, 0x00, 0x00, 0x00, 0x00, 0x00,
  0x3d, 0x11, 0xa7, 0x00, 0x00, 0x00, 0x00, 0x00, 0xe4, 0xff, 0x08, 0x00,
  0x00, 0x00, 0x00, 0x00, 0x25, 0xfb, 0xf3, 0x00, 0x00, 0x00, 0x00, 0x00,
  0x6b, 0x11, 0x02, 0x00, 0x00, 0x00, 0x00, 0x00, 0xf9, 0xec, 0xbb, 0x00,
  0x00, 0x00, 0x00, 0x00, 0xfc, 0x4a, 0xe8, 0x00, 0x00, 0x00, 0x00, 0x00,
  0x0c, 0xbf, 0x1d, 0x00, 0x00, 0x00, 0x00, 0x00, 0x09, 0x19, 0xfc, 0x00,
  0x00, 0x00, 0x00, 0x00, 0xd6, 0xed, 0xca, 0x00, 0x00, 0x00, 0x00, 0x00,
  0x05, 0xf5, 0x0e, 0x00, 0x00, 0x00, 0x00, 0x00, 0xe6, 0xde, 0xee, 0x00,
  0x00, 0x00, 0x00, 0x00, 0x81, 0xf8, 0xfc, 0x00, 0x00, 0x00, 0x00, 0x00,
  0xe7, 0xc9, 0xe4, 0x00, 0x00, 0x00, 0x00, 0x00, 0x14, 0x14, 0xfe, 0x00,
  0x00, 0x00, 0x00, 0x00, 0xff, 0xe1, 0xc2, 0x00, 0x00, 0x00, 0x00, 0x00,
  0xd1, 0xdf, 0xef, 0x00, 0x00, 0x00, 0x00, 0x00, 0x2d, 0xf3, 0x98, 0x00,
  0x00, 0x00, 0x00, 0x00, 0xf7, 0x23, 0x2b, 0x00, 0x00, 0x00, 0x00, 0x00,
  0xab, 0x1a, 0x6a, 0x00, 0x00, 0x00, 0x00, 0x00, 0x0d, 0xc9, 0xd8, 0x00,
  0x00, 0x00, 0x00, 0x00, 0x38, 0xe3, 0xb3, 0x00, 0x00, 0x00, 0x00, 0x00,
  0xf5, 0x33, 0xe2, 0x00, 0x00, 0x00, 0x00, 0x00, 0x1e, 0xd8, 0x18, 0x00,
  0x00, 0x00, 0x00, 0x00, 0x2d, 0x39, 0x21, 0x00, 0x00, 0x00, 0x00, 0x00,
  0x13, 0x1a, 0xfe, 0x00, 0x00, 0x00, 0x00, 0x00, 0x09, 0xf1, 0x1f, 0x00,
  0x00, 0x00, 0x00, 0x00, 0x0f, 0x15, 0x1a, 0x00, 0x00, 0x00, 0x00, 0x00,
  0xc3, 0x00, 0x29, 0x00, 0x00, 0x00, 0x00, 0x00, 0x58, 0x02, 0x21, 0x00,
  0x00, 0x00, 0x00, 0x00, 0xf7, 0xe4, 0xf0, 0x00, 0x00, 0x00, 0x00, 0x00,
  0xf5, 0xcd, 0xb3, 0x00, 0x00, 0x00, 0x00, 0x00, 0x07, 0x0b, 0x0f, 0x00,
  0x00, 0x00, 0x00, 0x00, 0x03, 0x2f, 0x10, 0x00, 0x00, 0x00, 0x00, 0x00,
  0x01, 0x23, 0x11, 0x00, 0x00, 0x00, 0x00, 0x00, 0xdb, 0x0d, 0x33, 0x00,
  0x00, 0x00, 0x00, 0x00, 0xd3, 0xcc, 0xb3, 0x00, 0x00, 0x00, 0x00, 0x00,
  0x40, 0xf4, 0xe6, 0x00, 0x00, 0x00, 0x00, 0x00, 0xe8, 0x33, 0xdd, 0x00,
  0x00, 0x00, 0x00, 0x00, 0x1d, 0xc2, 0x20, 0x00, 0x00, 0x00, 0x00, 0x00,
  0x17, 0x13, 0x0a, 0x00, 0x00, 0x00, 0x00, 0x00, 0xfb, 0xef, 0xeb, 0x00,
  0x00, 0x00, 0x00, 0x00, 0xfb, 0x27, 0x14, 0x00, 0x00, 0x00, 0x00, 0x00,
  0x17, 0xf6, 0xdc, 0x00, 0x00, 0x00, 0x00, 0x00, 0xe6, 0xfa, 0x15, 0x00,
  0x00, 0x00, 0x00, 0x00, 0x16, 0xd5, 0xde, 0x00, 0x00, 0x00, 0x00, 0x00,
  0xf5, 0xf7, 0xfb, 0x00, 0x00, 0x00, 0x00, 0x00, 0x0e, 0xbe, 0xa1, 0x00,
  0x00, 0x00, 0x00, 0x00, 0x11, 0xc1, 0xb5, 0x00, 0x00, 0x00, 0x00, 0x00,
  0xeb, 0x33, 0x33, 0x00, 0x00, 0x00, 0x00, 0x00, 0xeb, 0x0b, 0xdd, 0x00,
  0x00, 0x00, 0x00, 0x00, 0x0d, 0x00, 0xf1, 0x00, 0x00, 0x00, 0x00, 0x00,
  0x11, 0x17, 0xd4, 0x00, 0x00, 0x00, 0x00, 0x00, 0x2d, 0xf0, 0xf4, 0x00,
  0x00, 0x00, 0x00, 0x00, 0xc6, 0x24, 0xe1, 0x00, 0x00, 0x00, 0x00, 0x00,
  0x28, 0x9d, 0x42, 0x00, 0x00, 0x00, 0x00, 0x00, 0xfe, 0xfd, 0x11, 0x00,
  0x00, 0x00, 0x00, 0x00, 0x0c, 0x07, 0x09, 0x00, 0x00, 0x00, 0x00, 0x00,
  0x96, 0x4e, 0xf2, 0x00, 0x00, 0x00, 0x00, 0x00, 0x09, 0x03, 0x1a, 0x00,
  0x00, 0x00, 0x00, 0x00, 0xfc, 0xdf, 0xd6, 0x00, 0x00, 0x00, 0x00, 0x00,
  0xcc, 0xb2, 0xaa, 0x00, 0x00, 0x00, 0x00, 0x00, 0xf5, 0xec, 0xf2, 0x00,
  0x00, 0x00, 0x00, 0x00, 0x00, 0x02, 0x00, 0x00, 0x00, 0x02, 0x00, 0x00,
  0x00, 0x02, 0x00, 0x00, 0x00, 0x02, 0x00, 0x00, 0x00, 0x02, 0x00, 0x00,
  0x00, 0x02, 0x00, 0x00, 0x00, 0x02, 0x00, 0x00, 0x00, 0x02, 0x00, 0x00,
  0x00, 0x02, 0x00, 0x00, 0x00, 0x02, 0x00, 0x00, 0x00, 0x02, 0x00, 0x00,
  0x00, 0x02, 0x00, 0x00, 0x00, 0x02, 0x00, 0x00, 0x00, 0x02, 0x00, 0x00,
  0x00, 0x02, 0x00, 0x00, 0x00, 0x02, 0x00, 0x00, 0x00, 0x02, 0x00, 0x00,
  0x00, 0x02, 0x00, 0x00, 0x00, 0x02, 0x00, 0x00, 0x00, 0x02, 0x00, 0x00,
  0x00, 0x02, 0x00, 0x00, 0x00, 0x02, 0x00, 0x00, 0x00, 0x02, 0x00, 0x00,
  0x00, 0x02, 0x00, 0x00, 0x00, 0x02, 0x00, 0x00, 0x00, 0x02, 0x00, 0x00,
  0x00, 0x02, 0x00, 0x00, 0x00, 0x02, 0x00, 0x00, 0x00, 0x02, 0x00, 0x00,
  0x00, 0x02, 0x00, 0x00, 0x00, 0x02, 0x00, 0x00, 0x00, 0x02, 0x00, 0x00,
  0x01, 0x01, 0x01, 0x01, 0x01, 0x01, 0x01, 0x01, 0x01, 0x01, 0x01, 0x01,
  0x01, 0x01, 0x01, 0x01, 0x01, 0x01, 0x01, 0x01, 0x01, 0x01, 0x01, 0x01,
  0x01, 0x01, 0x01, 0x01, 0x01, 0x01, 0x01, 0x01, 0x01, 0x01, 0x01, 0x01,
  0x01, 0x01, 0x01, 0x01, 0x01, 0x01, 0x01, 0x01, 0x01, 0x01, 0x01, 0x01,
  0x01, 0x01, 0x01, 0x01, 0x01, 0x01, 0x01, 0x01, 0x01, 0x01, 0x01, 0x01,
  0x01, 0x01, 0x01, 0x01, 0x01, 0x01, 0x01, 0x01, 0x01, 0x01, 0x01, 0x01,
  0x01, 0x01, 0x01, 0x01, 0x01, 0x01, 0x01, 0x01, 0x01, 0x01, 0x01, 0x01,
  0x01, 0x01, 0x01, 0x01, 0x01, 0x01, 0x01, 0x01, 0x01, 0x01, 0x01, 0x01,
  0x01, 0x01, 0x01, 0x01, 0x01, 0x01, 0x01, 0x01, 0x01, 0x01, 0x01, 0x01,
  0x01, 0x01, 0x01, 0x01, 0x01, 0x01, 0x01, 0x01, 0x01, 0x01, 0x01, 0x01,
  0x01, 0x01, 0x01, 0x01, 0x01, 0x01, 0x01, 0x01, 0x14, 0xed, 0xfd, 0xff,
  0xa5, 0xee, 0xfc, 0xff, 0xa8, 0x8e, 0xfd, 0xff, 0xa0, 0xc9, 0xfb, 0xff,
  0xc7, 0xb4, 0xfd, 0xff, 0xd4, 0xb1, 0xf9, 0xff, 0xe5, 0xc2, 0xfb, 0xff,
  0x92, 0x41, 0xfc, 0xff, 0x34, 0xcf, 0xfa, 0xff, 0x77, 0x14, 0xfe, 0xff,
  0x79, 0x3a, 0xf8, 0xff, 0x45, 0xa2, 0xf8, 0xff, 0x8b, 0x3b, 0xfa, 0xff,
  0xa2, 0xe4, 0xfa, 0xff, 0xa0, 0xa8, 0xfe, 0xff, 0x39, 0x23, 0xfb, 0xff,
  0x14, 0xef, 0xfd, 0xff, 0x25, 0x8a, 0xfc, 0xff, 0xa8, 0x0e, 0xfc, 0xff,
  0x20, 0x05, 0xfb, 0xff, 0xc7, 0x86, 0xfd, 0xff, 0x54, 0x59, 0xf8, 0xff,
  0x65, 0x2b, 0xfa, 0xff, 0x92, 0x56, 0xfb, 0xff, 0xb4, 0xdc, 0xf9, 0xff,
  0xf7, 0x8d, 0xfc, 0xff, 0x79, 0x4e, 0xf6, 0xff, 0x45, 0x92, 0xf8, 0xff,
  0x8b, 0x78, 0xf8, 0xff, 0xa2, 0xe5, 0xf9, 0xff, 0x20, 0x5f, 0xfc, 0xff,
  0x39, 0x82, 0xf9, 0xff, 0x94, 0xd4, 0xfd, 0xff, 0xa5, 0x6e, 0xfc, 0xff,
  0xa8, 0x54, 0xfa, 0xff, 0xa0, 0x39, 0xfb, 0xff, 0xc7, 0xda, 0xfc, 0xff,
  0x54, 0xe5, 0xf6, 0xff, 0x65, 0x90, 0xfa, 0xff, 0x92, 0x38, 0xfb, 0xff,
  0x34, 0x01, 0xf9, 0xff, 0xf7, 0xb7, 0xfb, 0xff, 0x79, 0x94, 0xf7, 0xff,
  0xc5, 0x94, 0xf8, 0xff, 0x0b, 0xe2, 0xf7, 0xff, 0xa2, 0x4d, 0xf9, 0xff,
  0x20, 0x35, 0xfc, 0xff, 0xb9, 0x06, 0xf9, 0xff, 0x94, 0xa6, 0xfe, 0xff,
  0xa5, 0x1e, 0xfc, 0xff, 0xa8, 0x6d, 0xfb, 0xff, 0x20, 0x01, 0xfc, 0xff,
  0xc7, 0x06, 0xfd, 0xff, 0xd4, 0xc8, 0xf9, 0xff, 0xe5, 0xb9, 0xfa, 0xff,
  0x92, 0x61, 0xfa, 0xff, 0xb4, 0xf8, 0xfa, 0xff, 0x77, 0x71, 0xfb, 0xff,
  0x79, 0x4b, 0xf7, 0xff, 0xc5, 0x8d, 0xfa, 0xff, 0x8b, 0x95, 0xf9, 0xff,
  0x22, 0x11, 0xfa, 0xff, 0x20, 0x2d, 0xfb, 0xff, 0xb9, 0x33, 0xfa, 0xff,
  0x94, 0x7e, 0xff, 0xff, 0xa5, 0xe7, 0xfe, 0xff, 0xa8, 0x83, 0xfc, 0xff,
  0xa0, 0x7e, 0xff, 0xff, 0x47, 0x94, 0xfe, 0xff, 0xd4, 0xfe, 0xfb, 0xff,
  0x65, 0xc2, 0xfc, 0xff, 0x12, 0x95, 0xfc, 0xff, 0x34, 0x99, 0xfc, 0xff,
  0x77, 0x76, 0xfb, 0xff, 0x79, 0x24, 0xfb, 0xff, 0xc5, 0x5f, 0xfd, 0xff,
  0x0b, 0x93, 0xfc, 0xff, 0x22, 0xef, 0xfb, 0xff, 0x20, 0xdc, 0xfc, 0xff,
  0x39, 0x15, 0xfb, 0xff, 0x79, 0x4a, 0xfd, 0xff, 0xc7, 0xa2, 0xfd, 0xff,
  0x6b, 0x97, 0xfb, 0xff, 0xde, 0x7c, 0xfa, 0xff, 0x39, 0x1e, 0xfd, 0xff,
  0x04, 0x5c, 0xfe, 0xff, 0xd6, 0x59, 0xfa, 0xff, 0xb0, 0xc0, 0xfa, 0xff,
  0x21, 0xf6, 0xf8, 0xff, 0xb8, 0x1d, 0xfc, 0xff, 0x74, 0x52, 0xfd, 0xff,
  0x2d, 0x47, 0xfe, 0xff, 0xb4, 0x80, 0xf9, 0xff, 0x0c, 0x81, 0xfc, 0xff,
  0x07, 0xad, 0xfa, 0xff, 0x81, 0x98, 0xfc, 0xff, 0x79, 0x7a, 0xfc, 0xff,
  0x47, 0x3d, 0xfc, 0xff, 0x6b, 0xc8, 0xfa, 0xff, 0xde, 0xf7, 0xf8, 0xff,
  0xb9, 0x9b, 0xfa, 0xff, 0x84, 0x64, 0xfd, 0xff, 0x56, 0x0f, 0xfa, 0xff,
  0x30, 0xe2, 0xf8, 0xff, 0xa1, 0x53, 0xfb, 0xff, 0x38, 0x9a, 0xf8, 0xff,
  0xf4, 0x70, 0xfd, 0xff, 0x2d, 0x9d, 0xfb, 0xff, 0x34, 0xe2, 0xf9, 0xff,
  0x8c, 0x64, 0xfb, 0xff, 0x07, 0xa3, 0xf9, 0xff, 0x81, 0x27, 0xfc, 0xff,
  0xf9, 0x42, 0xfc, 0xff, 0x47, 0xd3, 0xfc, 0xff, 0x6b, 0xe1, 0xf9, 0xff,
  0xde, 0x9b, 0xf9, 0xff, 0x39, 0x47, 0xfb, 0xff, 0x04, 0xa3, 0xfd, 0xff,
  0x56, 0x4a, 0xfa, 0xff, 0xb0, 0x6d, 0xf9, 0xff, 0x21, 0xcc, 0xf9, 0xff,
  0xb8, 0x52, 0xf7, 0xff, 0x74, 0xad, 0xfd, 0xff, 0x2d, 0xbe, 0xfc, 0xff,
  0xb4, 0x59, 0xfb, 0xff, 0x8c, 0x46, 0xf9, 0xff, 0x07, 0x82, 0xf9, 0xff,
  0x01, 0xd3, 0xfb, 0xff, 0x79, 0x5e, 0xfc, 0xff, 0x47, 0x94, 0xfb, 0xff,
  0xeb, 0x4a, 0xfc, 0xff, 0x5e, 0x99, 0xfb, 0xff, 0x39, 0xfa, 0xfa, 0xff,
  0x84, 0xab, 0xfd, 0xff, 0x56, 0xd1, 0xfb, 0xff, 0xb0, 0x79, 0xf9, 0xff,
  0xa1, 0x8c, 0xf9, 0xff, 0x38, 0xad, 0xf7, 0xff, 0x74, 0xe4, 0xfd, 0xff,
  0xad, 0xde, 0xfa, 0xff, 0x34, 0x5b, 0xfc, 0xff, 0x8c, 0x92, 0xfa, 0xff,
  0x07, 0x10, 0xfb, 0xff, 0x01, 0xb4, 0xfc, 0xff, 0xf9, 0x57, 0xfd, 0xff,
  0x47, 0x62, 0xfe, 0xff, 0xeb, 0xef, 0xfc, 0xff, 0x5e, 0xec, 0xfc, 0xff,
  0xb9, 0x55, 0xfd, 0xff, 0x84, 0xb5, 0xfe, 0xff, 0x56, 0xbb, 0xfd, 0xff,
  0x30, 0xa0, 0xfb, 0xff, 0x21, 0xf5, 0xfd, 0xff, 0xb8, 0x51, 0xf9, 0xff,
  0x74, 0xc5, 0xfe, 0xff, 0xad, 0x72, 0xfa, 0xff, 0x34, 0x74, 0xff, 0xff,
  0x8c, 0x47, 0xfb, 0xff, 0x07, 0x17, 0xfd, 0xff, 0x81, 0xd9, 0xfc, 0xff,
  0x79, 0x75, 0x17, 0x00, 0xf3, 0x12, 0x14, 0x00, 0x5d, 0xae, 0x18, 0x00,
  0x01, 0x3c, 0x16, 0x00, 0xf5, 0x00, 0x10, 0x00, 0x05, 0x4b, 0x17, 0x00,
  0xbd, 0x8b, 0x18, 0x00, 0xf1, 0xe6, 0x18, 0x00, 0x1f, 0x78, 0x17, 0x00,
  0x1f, 0xc2, 0x18, 0x00, 0x8d, 0x8e, 0x18, 0x00, 0xab, 0xe1, 0x18, 0x00,
  0x9b, 0x33, 0x17, 0x00, 0x69, 0xce, 0x18, 0x00, 0x39, 0x2d, 0x16, 0x00,
  0xe7, 0xc0, 0x18, 0x00, 0x5f, 0xd4, 0x18, 0x00, 0xf9, 0xf6, 0x18, 0x00,
  0x07, 0xd5, 0x18, 0x00, 0xcf, 0x4b, 0x17, 0x00, 0x81, 0x12, 0x15, 0x00,
  0x89, 0x60, 0x16, 0x00, 0xb1, 0x63, 0x17, 0x00, 0xb9, 0x49, 0x17, 0x00,
  0x8f, 0xc2, 0x18, 0x00, 0x55, 0x09, 0x14, 0x00, 0x07, 0x7f, 0x17, 0x00,
  0xb3, 0xef, 0x18, 0x00, 0x4b, 0xa9, 0x18, 0x00, 0x39, 0x0a, 0x14, 0x00,
  0x49, 0xfb, 0x19, 0x00, 0x8f, 0x5f, 0x17, 0x00, 0xf8, 0x00, 0xe0, 0x1d,
  0xd6, 0x05, 0x13, 0x06, 0x08, 0xf8, 0x11, 0xe9, 0x11, 0xfc, 0x07, 0xf2,
  0xeb, 0x15, 0xf3, 0x07, 0xf3, 0xfb, 0xfa, 0x00, 0xf3, 0x28, 0x13, 0xd2,
  0xe9, 0x0d, 0x06, 0xfd, 0x05, 0xff, 0xf7, 0xfb, 0xf2, 0xf2, 0xec, 0x09,
  0xe8, 0x16, 0xfa, 0xe0, 0x0b, 0x06, 0x12, 0xd9, 0xdf, 0x83, 0x2d, 0x15,
  0x29, 0x02, 0x20, 0xf0, 0xfe, 0x29, 0xfc, 0x0d, 0x25, 0x11, 0xf7, 0xe7,
  0x0b, 0x09, 0x03, 0xf7, 0x08, 0x15, 0xf9, 0xff, 0x0c, 0x21, 0xee, 0x06,
  0xc2, 0xdf, 0xf4, 0xdb, 0xcf, 0x0e, 0x14, 0xb4, 0x1d, 0x35, 0x2a, 0xf6,
  0xe7, 0x1b, 0x04, 0x05, 0x00, 0x06, 0xfc, 0x10, 0xeb, 0x25, 0x4c, 0x38,
  0xec, 0x26, 0x10, 0xff, 0x07, 0x35, 0xe2, 0xfd, 0xf7, 0xfc, 0xfc, 0x0e,
  0x09, 0xd0, 0x00, 0xfe, 0xf1, 0x01, 0x1d, 0x01, 0xfb, 0x45, 0x0f, 0xc9,
  0xff, 0x1d, 0x1c, 0x14, 0xfb, 0x0f, 0xff, 0x00, 0xfc, 0xf2, 0x1f, 0xfe,
  0xff, 0xf6, 0x08, 0x0a, 0xf3, 0xff, 0xf3, 0xf2, 0xf5, 0x1c, 0xf7, 0xdc,
  0xd4, 0x02, 0x14, 0xee, 0xf4, 0x1c, 0xfd, 0x04, 0xf7, 0xe3, 0xfc, 0xef,
  0xf1, 0x10, 0x05, 0xfa, 0x04, 0xf1, 0xf0, 0x01, 0xfd, 0xe7, 0xf0, 0x19,
  0xe0, 0xef, 0xf3, 0xd2, 0xd3, 0x9a, 0x13, 0x10, 0x19, 0xff, 0x1f, 0x04,
  0x00, 0x0e, 0xf6, 0xfc, 0xf0, 0x06, 0xef, 0x0e, 0xe3, 0xfc, 0x03, 0xfa,
  0xff, 0xfa, 0xe7, 0x18, 0x0e, 0x18, 0xed, 0xf3, 0xe2, 0xf6, 0xe7, 0xf8,
  0xee, 0xf6, 0x2d, 0x0e, 0x1b, 0x33, 0x32, 0xdc, 0xe4, 0x13, 0xf0, 0x0d,
  0x00, 0x0f, 0xf6, 0x14, 0x00, 0xf8, 0xdf, 0xe6, 0x10, 0xee, 0xf1, 0xfe,
  0x06, 0x39, 0xde, 0xdd, 0xf3, 0x14, 0xf0, 0x11, 0x03, 0xcf, 0x16, 0x0a,
  0x1c, 0x05, 0x1a, 0xf5, 0x15, 0x26, 0x22, 0xf1, 0x22, 0x13, 0xe3, 0x06,
  0xe1, 0x0b, 0x1d, 0xe9, 0x08, 0xdd, 0x1b, 0xfb, 0x08, 0x0b, 0xfc, 0x0a,
  0xf9, 0x05, 0xde, 0xf0, 0x02, 0x57, 0xf5, 0xe8, 0xd0, 0x17, 0xf5, 0xf4,
  0xec, 0xf7, 0xf4, 0xfe, 0xf7, 0x01, 0xfe, 0x02, 0x09, 0xf2, 0xfb, 0x0a,
  0xf8, 0xfb, 0xee, 0xf9, 0xe7, 0xde, 0xf1, 0x3c, 0xee, 0xeb, 0xe9, 0xd3,
  0xf1, 0xc1, 0x17, 0xf3, 0x27, 0xed, 0x4b, 0xf6, 0xdc, 0xed, 0xf6, 0xf5,
  0xee, 0xd5, 0xf9, 0x0f, 0xfb, 0x03, 0xf4, 0x0d, 0xfa, 0x02, 0xef, 0x15,
  0xe7, 0x0c, 0xfa, 0x01, 0x05, 0xf3, 0xf0, 0x17, 0xe1, 0x13, 0x1d, 0x26,
  0x14, 0xf7, 0xe7, 0xd5, 0x1d, 0x28, 0xeb, 0x29, 0x15, 0x15, 0xed, 0x0b,
  0x13, 0x0b, 0x3a, 0xcc, 0xeb, 0x00, 0xce, 0xd3, 0xe2, 0x28, 0xdc, 0xff,
  0x09, 0xf4, 0xe7, 0x0b, 0xfe, 0xad, 0x0b, 0x04, 0x45, 0xfa, 0x22, 0xff,
  0xf0, 0xe1, 0xed, 0x04, 0x4b, 0x01, 0xf7, 0x04, 0xfe, 0x00, 0x3a, 0xf3,
  0x00, 0xe3, 0x08, 0x07, 0xfb, 0x03, 0xfa, 0x02, 0x0a, 0x21, 0xf8, 0x07,
  0x14, 0x12, 0x18, 0x06, 0xd0, 0xf3, 0x15, 0x0d, 0x0a, 0x0c, 0xec, 0xe0,
  0x00, 0xdd, 0x20, 0x07, 0x18, 0xe8, 0xf4, 0xfd, 0xf2, 0x1c, 0xd2, 0x07,
  0x03, 0x07, 0xd7, 0x22, 0x1b, 0x13, 0xdf, 0xc5, 0xff, 0xfd, 0x0f, 0x20,
  0x3f, 0x1d, 0x2f, 0x16, 0xe9, 0x03, 0x04, 0xf6, 0xe9, 0xb2, 0x1b, 0xde,
  0x01, 0x00, 0xf4, 0x0c, 0xfa, 0xf9, 0x18, 0xfc, 0xdf, 0xf5, 0xee, 0x03,
  0xfe, 0x09, 0xf5, 0x17, 0xea, 0xf6, 0x16, 0x01, 0xe3, 0xee, 0xe0, 0x07,
  0xfe, 0x13, 0xe0, 0xfc, 0x01, 0x2c, 0xed, 0x0e, 0xec, 0xdb, 0xff, 0xe9,
  0xda, 0xfe, 0xe3, 0x1a, 0xc3, 0x2a, 0xff, 0x0f, 0x1d, 0xf9, 0xfb, 0xf7,
  0xfd, 0xf7, 0xe2, 0x15, 0x07, 0x13, 0x05, 0xeb, 0xc6, 0xf4, 0xed, 0xf1,
  0x28, 0x0c, 0x27, 0xd3, 0x14, 0xfb, 0xfd, 0x06, 0x10, 0xf3, 0x07, 0x01,
  0xf8, 0x23, 0xea, 0x0b, 0x01, 0x0f, 0x0a, 0xee, 0xfd, 0x2e, 0x00, 0xff,
  0xde, 0xd1, 0x23, 0xf6, 0x03, 0x15, 0x03, 0xfd, 0x0b, 0xf7, 0x1c, 0xfb,
  0xfe, 0xe8, 0xd6, 0xf0, 0xe3, 0x23, 0xe0, 0x05, 0x22, 0x03, 0xe3, 0xee,
  0xf4, 0x12, 0xe1, 0xf2, 0xec, 0x29, 0x07, 0x12, 0x25, 0x0e, 0x3d, 0x13,
  0xec, 0x02, 0x22, 0x05, 0xc3, 0xe8, 0x3d, 0xf1, 0xf5, 0xe1, 0xff, 0xfc,
  0xe2, 0xf6, 0x0f, 0xf0, 0x00, 0x14, 0xf0, 0x0c, 0xf8, 0x22, 0x06, 0x15,
  0x0a, 0xe5, 0x27, 0x13, 0xe2, 0xfd, 0xef, 0xf4, 0xf3, 0xf7, 0xfb, 0x01,
  0xfb, 0x07, 0x10, 0xfe, 0xd3, 0xf8, 0x27, 0x21, 0x0d, 0x03, 0xd7, 0xf1,
  0x04, 0x11, 0x36, 0xf6, 0x33, 0xfa, 0xfa, 0xf1, 0xed, 0xfc, 0x0a, 0x2d,
  0xd5, 0x1b, 0xfa, 0xf1, 0xf5, 0x4a, 0x21, 0x1a, 0xe6, 0xfb, 0x4b, 0xc2,
  0x10, 0x14, 0xf6, 0x02, 0x03, 0xfa, 0x18, 0xe8, 0xe8, 0x00, 0x0d, 0x03,
  0x07, 0x26, 0xf9, 0x06, 0xe2, 0x12, 0xe1, 0x03, 0xf2, 0x0a, 0x0a, 0xd4,
  0x1c, 0xf3, 0xf9, 0xf5, 0xf4, 0xf8, 0xee, 0xf3, 0xf7, 0xe2, 0x0c, 0x09,
  0x11, 0xda, 0xf7, 0xe5, 0x27, 0xfe, 0xf0, 0x12, 0xf7, 0x25, 0xf0, 0x1f,
  0xfb, 0x40, 0x0e, 0x19, 0x15, 0xed, 0xfa, 0x0f, 0xf6, 0x31, 0x17, 0xfa,
  0xeb, 0xf2, 0x06, 0x18, 0x25, 0x0b, 0xf5, 0xe8, 0x14, 0xf8, 0x0d, 0x02,
  0x07, 0x0b, 0xdf, 0xf0, 0x19, 0xf5, 0x16, 0xec, 0x14, 0xfc, 0xc1, 0x3c,
  0xf1, 0x50, 0xff, 0x22, 0x05, 0xe1, 0xe8, 0x0e, 0xf7, 0xee, 0xfc, 0x0a,
  0xdd, 0x5a, 0x23, 0xe6, 0xff, 0x29, 0xbc, 0xf8, 0x10, 0x1c, 0x0c, 0xc6,
  0x20, 0x08, 0xc8, 0x1c, 0x0a, 0x0a, 0xe2, 0xe2, 0xde, 0x1a, 0x17, 0xfe,
  0xfd, 0xef, 0xeb, 0xf3, 0xb4, 0x07, 0xd5, 0x05, 0x1e, 0x11, 0xf9, 0xea,
  0x02, 0xf7, 0xff, 0xf5, 0xfa, 0xff, 0x1e, 0xfe, 0xfa, 0x0a, 0x03, 0x12,
  0x00, 0x0a, 0xec, 0xd4, 0x01, 0xfa, 0xe8, 0xd7, 0xf5, 0xf7, 0x09, 0x17,
  0xf3, 0x1a, 0xe2, 0xf4, 0x09, 0xde, 0x00, 0x07, 0x05, 0xf9, 0x0c, 0x02,
  0x21, 0xf6, 0xd2, 0x03, 0xdb, 0xf9, 0x03, 0x2f, 0xfe, 0x72, 0x06, 0x0d,
  0xf1, 0xf6, 0x05, 0x12, 0xe9, 0xe2, 0xf8, 0x11, 0xfd, 0xbe, 0x06, 0x01,
  0xf7, 0x0d, 0xe3, 0xdb, 0xfa, 0x1f, 0x0b, 0xf5, 0xef, 0xf0, 0x0f, 0xf9,
  0x1f, 0xfe, 0xf6, 0xf3, 0xfd, 0xbe, 0xf4, 0x43, 0xfb, 0xdb, 0x39, 0x0d,
  0x23, 0x00, 0x06, 0xf8, 0xf9, 0xdb, 0xff, 0x01, 0xd4, 0x2e, 0xfe, 0xc8,
  0xd3, 0xf2, 0xe5, 0x0c, 0xf9, 0x05, 0x01, 0xd7, 0x06, 0xcc, 0xd1, 0x0b,
  0xf3, 0x2a, 0xf9, 0xfc, 0xd6, 0x3d, 0x11, 0xdc, 0xf9, 0xe8, 0x02, 0xf1,
  0xcb, 0x25, 0x08, 0xfe, 0xf3, 0xe5, 0xef, 0x18, 0xfe, 0xf8, 0xf5, 0xfb,
  0xeb, 0x2c, 0x08, 0xd9, 0x0a, 0x05, 0xfe, 0x07, 0xe2, 0x0c, 0xf6, 0xfe,
  0xe9, 0xfd, 0xe1, 0xe3, 0x03, 0x38, 0x10, 0x08, 0xda, 0x17, 0xd1, 0x22,
  0x14, 0xe2, 0xf9, 0xfd, 0xef, 0xcc, 0x03, 0xdb, 0x1c, 0x18, 0xc3, 0xe0,
  0xd8, 0xf4, 0x00, 0x23, 0xd1, 0x55, 0xf4, 0x18, 0xf5, 0xe4, 0xfc, 0x0d,
  0x0a, 0xf3, 0xe7, 0x11, 0x14, 0xc1, 0x03, 0x10, 0x03, 0x02, 0xcb, 0xe2,
  0xf0, 0x03, 0x16, 0xde, 0xef, 0xf9, 0x1d, 0xfc, 0x06, 0xf8, 0x02, 0xe0,
  0x12, 0xc5, 0xfe, 0xe3, 0xf3, 0xd9, 0xfc, 0x0d, 0x0e, 0x01, 0x29, 0xee,
  0xff, 0xfb, 0xed, 0x1d, 0x35, 0xdf, 0xcb, 0xd1, 0xd2, 0xe2, 0xf4, 0xd1,
  0x03, 0xf1, 0x09, 0x29, 0xed, 0xa8, 0xf4, 0xea, 0xed, 0x70, 0xf2, 0xec,
  0xd1, 0xfa, 0xf3, 0x22, 0xdd, 0x3f, 0xea, 0x01, 0xef, 0xed, 0x00, 0xe4,
  0xe2, 0xf2, 0x0b, 0xfd, 0xf5, 0x19, 0xe2, 0xe6, 0x0d, 0x1b, 0xed, 0x01,
  0x0a, 0xe9, 0x01, 0x05, 0xdb, 0xff, 0x06, 0x01, 0x0b, 0x17, 0xe7, 0xeb,
  0xf2, 0x05, 0x07, 0x22, 0xff, 0xe5, 0xfd, 0x04, 0x09, 0xd7, 0x07, 0x08,
  0x07, 0xee, 0x11, 0xf3, 0x1d, 0x05, 0xd5, 0xe3, 0xe1, 0x0b, 0x0c, 0xfe,
  0x08, 0x1c, 0x14, 0x36, 0x07, 0x03, 0x13, 0x1a, 0xfb, 0xe0, 0xfa, 0x10,
  0x01, 0xda, 0x06, 0x13, 0x02, 0x03, 0xdf, 0x10, 0xf4, 0xf5, 0x13, 0xf2,
  0x03, 0x0b, 0x15, 0x00, 0xf7, 0x07, 0x0e, 0xd9, 0xf1, 0xe4, 0xfe, 0xe0,
  0xfe, 0xf9, 0x19, 0xde, 0x15, 0xf0, 0x14, 0xe8, 0xff, 0x2b, 0xed, 0x25,
  0xfa, 0xdf, 0xdd, 0xf2, 0x1c, 0xc1, 0x37, 0x08, 0xe0, 0x29, 0xf5, 0x20,
  0xe1, 0xb7, 0x23, 0xc4, 0x1e, 0x18, 0x13, 0xe3, 0xfe, 0x27, 0xe2, 0x0d,
  0xda, 0x7f, 0xfe, 0x48, 0xe0, 0xfc, 0x1e, 0x02, 0xeb, 0xff, 0x1b, 0xe5,
  0xf7, 0xfa, 0xff, 0xfb, 0xec, 0x1b, 0xfb, 0x0a, 0x06, 0xfa, 0xfb, 0xe8,
  0xb8, 0x20, 0x23, 0xfa, 0xed, 0xf6, 0xe0, 0xe9, 0x00, 0x0d, 0xd3, 0xee,
  0xf9, 0xf6, 0xe5, 0x32, 0xf6, 0xca, 0x06, 0x13, 0x16, 0xf8, 0xff, 0x0e,
  0x0d, 0x0f, 0x0c, 0x04, 0xfc, 0xed, 0x06, 0x13, 0x01, 0xea, 0xf3, 0x35,
  0x0a, 0xea, 0x1f, 0xe7, 0xf5, 0xfc, 0x05, 0x0f, 0xf1, 0x0d, 0x0b, 0x13,
  0xf6, 0x1d, 0xf0, 0x07, 0xf5, 0xfc, 0x07, 0xf7, 0x18, 0xf8, 0xeb, 0xfa,
  0xde, 0x1c, 0x19, 0xf2, 0xed, 0xf0, 0xd3, 0xdc, 0x20, 0x09, 0x12, 0x0c,
  0x07, 0xed, 0xc1, 0xe5, 0xfa, 0x11, 0xdb, 0x09, 0x19, 0xef, 0xf6, 0xa9,
  0x5f, 0xf7, 0x6e, 0x0d, 0xcd, 0x2d, 0x06, 0xfa, 0xda, 0xf0, 0x03, 0xa2,
  0x05, 0x27, 0x29, 0xf9, 0x09, 0x03, 0x0d, 0x08, 0xed, 0x0e, 0x38, 0x21,
  0xdd, 0xdc, 0xff, 0xf8, 0x08, 0x1e, 0x04, 0x20, 0x08, 0xfc, 0x23, 0x05,
  0xfd, 0x23, 0xed, 0x0e, 0x08, 0xff, 0x0f, 0xf5, 0xd6, 0xf7, 0xf3, 0xe7,
  0xe1, 0xc1, 0x0b, 0x19, 0x0e, 0x21, 0xea, 0x12, 0x0a, 0xf7, 0x22, 0xf7,
  0x05, 0xff, 0x0c, 0xeb, 0x01, 0x0f, 0x05, 0x04, 0x01, 0xd3, 0x0f, 0x24,
  0xe7, 0xfb, 0x1f, 0xf4, 0xf6, 0xda, 0x05, 0x8c, 0x10, 0xed, 0x1b, 0xc7,
  0x0b, 0x12, 0x12, 0x1d, 0xf2, 0xfc, 0x0b, 0x12, 0xe1, 0x0f, 0xec, 0x1a,
  0x13, 0x10, 0xfe, 0xfe, 0x07, 0x11, 0x02, 0xde, 0xfd, 0xf4, 0x12, 0x00,
  0x06, 0x2a, 0x2f, 0xb8, 0xf6, 0xf4, 0x0b, 0xef, 0xe8, 0xfa, 0x07, 0x0b,
  0x08, 0x04, 0x0d, 0xfb, 0x22, 0xd5, 0x0d, 0xdc, 0x29, 0x16, 0xac, 0xc7,
  0x07, 0x06, 0x01, 0xf4, 0x1d, 0xfc, 0xf6, 0x12, 0xef, 0x07, 0xee, 0xea,
  0xe4, 0x04, 0xee, 0xdb, 0xfe, 0xea, 0x17, 0x30, 0xeb, 0x24, 0xd6, 0x28,
  0xef, 0x06, 0xf8, 0xf6, 0x0b, 0x00, 0x02, 0xf1, 0xf1, 0x0e, 0xe9, 0x0e,
  0x08, 0xda, 0x0b, 0xf7, 0xe8, 0xf2, 0x0b, 0xf4, 0xf7, 0x1c, 0x13, 0xf1,
  0x08, 0x19, 0xea, 0x16, 0xf8, 0x03, 0x0d, 0x20, 0x07, 0x00, 0x21, 0xee,
  0x0a, 0xef, 0xf8, 0x07, 0x12, 0xe8, 0xff, 0x2d, 0xea, 0xe6, 0x1b, 0x08,
  0xfb, 0x15, 0xf5, 0xbb, 0xf5, 0xd8, 0xff, 0xd6, 0x13, 0x07, 0x02, 0x11,
  0x03, 0x06, 0x03, 0xff, 0xe0, 0xeb, 0xea, 0xff, 0xe7, 0x09, 0x07, 0xfd,
  0x05, 0x18, 0xd9, 0xf8, 0x06, 0x0e, 0x19, 0xe1, 0x02, 0x1c, 0x08, 0xf5,
  0x1f, 0xf6, 0x15, 0xf4, 0xf0, 0xfc, 0x07, 0x05, 0xec, 0x00, 0x02, 0xf6,
  0x47, 0xff, 0x14, 0xfe, 0xfe, 0x39, 0xdb, 0x02, 0x12, 0x16, 0xf8, 0x10,
  0x25, 0x0e, 0x14, 0x29, 0xeb, 0x1a, 0xee, 0xd2, 0xda, 0x13, 0xfa, 0xbf,
  0x08, 0x1a, 0xde, 0x3a, 0xf7, 0x09, 0x01, 0x37, 0x04, 0x0d, 0xef, 0x03,
  0x1e, 0xfe, 0x07, 0xf4, 0xff, 0xfd, 0xf9, 0x22, 0xf7, 0xf2, 0xfa, 0x14,
  0xf8, 0xd5, 0xf3, 0x07, 0xf5, 0x2f, 0x17, 0x10, 0xef, 0x04, 0xe9, 0x17,
  0xf7, 0x14, 0xeb, 0x09, 0x09, 0xfd, 0x02, 0xe8, 0x0c, 0xee, 0xef, 0x0a,
  0xeb, 0xe5, 0xf9, 0x45, 0xfa, 0xe0, 0xea, 0x18, 0x0c, 0x12, 0xd7, 0xae,
  0xd3, 0xe5, 0xe3, 0xcd, 0xf4, 0x28, 0xeb, 0x31, 0x0d, 0x1a, 0x06, 0x00,
  0xda, 0xf5, 0x00, 0x03, 0xfa, 0x0c, 0x1f, 0xff, 0xf7, 0x1e, 0xea, 0x15,
  0xe1, 0xfd, 0xec, 0x10, 0xe5, 0x0c, 0xdc, 0x1b, 0xf7, 0xfb, 0xe6, 0x3c,
  0xf4, 0x0a, 0xe8, 0x14, 0x10, 0x01, 0x03, 0x17, 0xfb, 0x2d, 0x94, 0x17,
  0x1d, 0xf0, 0xee, 0xcc, 0x0c, 0x0e, 0xf4, 0x2d, 0x0e, 0x1c, 0x2c, 0x14,
  0xf6, 0x0b, 0x27, 0xb7, 0xf7, 0xef, 0xe5, 0x88, 0xdf, 0xf2, 0xe2, 0x1a,
  0xc2, 0xf0, 0xe9, 0xd4, 0x0b, 0xf9, 0xdf, 0x14, 0x09, 0x0f, 0x03, 0x15,
  0x08, 0xf9, 0xf9, 0xfb, 0xff, 0x29, 0xfe, 0x01, 0xe4, 0xf5, 0x06, 0xf0,
  0xee, 0x0c, 0x0a, 0x2d, 0xe6, 0xf4, 0xf8, 0xd8, 0x09, 0xf8, 0x0b, 0x0d,
  0x03, 0x09, 0x00, 0x0e, 0x03, 0xe7, 0x02, 0x0c, 0xea, 0x0a, 0xe3, 0x07,
  0x02, 0xdf, 0xe5, 0x03, 0xef, 0xe6, 0x17, 0xe5, 0x01, 0xd7, 0xfc, 0x27,
  0xf5, 0x19, 0xe5, 0x23, 0xfe, 0x00, 0x29, 0x06, 0xd7, 0xf3, 0x08, 0xf9,
  0xff, 0x0d, 0x20, 0xf7, 0xff, 0x11, 0x06, 0xfb, 0xea, 0x05, 0xff, 0x0c,
  0xf4, 0xf8, 0xc3, 0x00, 0x07, 0xe4, 0xe4, 0x13, 0xf8, 0xf0, 0xf3, 0x05,
  0x03, 0xf5, 0xeb, 0x15, 0x11, 0x06, 0xcd, 0x19, 0x06, 0x0b, 0x00, 0xd2,
  0x0e, 0xff, 0xfa, 0x01, 0x05, 0x0a, 0xff, 0xea, 0x18, 0xf2, 0x24, 0xea,
  0xf4, 0x22, 0xbe, 0xc3, 0x0c, 0xc1, 0x1b, 0xd8, 0xf1, 0xdc, 0xda, 0xe6,
  0xff, 0x05, 0xfa, 0x1b, 0xe2, 0x07, 0x0b, 0x03, 0xfe, 0xfd, 0x07, 0x1e,
  0xdd, 0xfd, 0x01, 0x18, 0xd2, 0x08, 0xf9, 0xfb, 0x02, 0xf4, 0x06, 0x0a,
  0x02, 0xfc, 0x24, 0xe3, 0xfc, 0xff, 0x0a, 0x08, 0x00, 0xfa, 0x10, 0x0b,
  0xff, 0xfb, 0x0d, 0xf0, 0xfd, 0x00, 0x0f, 0x10, 0x17, 0xf1, 0x09, 0xdf,
  0xcf, 0xe1, 0x14, 0xe7, 0x1d, 0xf4, 0xe5, 0xe9, 0x04, 0xdc, 0xf3, 0x05,
  0xf1, 0x17, 0x18, 0xf0, 0xea, 0xfc, 0xf6, 0xcb, 0x0e, 0xf2, 0x03, 0xf6,
  0x17, 0x02, 0x10, 0xf9, 0xf8, 0x09, 0xef, 0x0a, 0x1b, 0x2c, 0xf9, 0x41,
  0xfd, 0x0a, 0xe0, 0x06, 0xf9, 0xfb, 0xfe, 0x00, 0xec, 0x0b, 0xfe, 0xf6,
  0x13, 0x05, 0xda, 0x07, 0x44, 0x31, 0x01, 0x0e, 0x24, 0x19, 0x0e, 0xe5,
  0x0f, 0x0f, 0x01, 0x14, 0x1d, 0xf7, 0x1b, 0x03, 0xff, 0x2d, 0x0e, 0x12,
  0x0c, 0xc5, 0x0a, 0x27, 0x03, 0xce, 0xfe, 0x3b, 0xf3, 0x11, 0xf4, 0xb5,
  0xff, 0x02, 0x00, 0xf8, 0xef, 0xf0, 0x09, 0x1b, 0xf2, 0x06, 0xee, 0xfc,
  0x03, 0x05, 0x16, 0xe8, 0x07, 0xe6, 0xeb, 0xfc, 0x18, 0xf0, 0x03, 0x1d,
  0x13, 0xef, 0xf7, 0x07, 0xec, 0xfd, 0xe6, 0xeb, 0x14, 0xfc, 0xe5, 0x01,
  0x2b, 0xf8, 0xc6, 0x11, 0xf0, 0x20, 0xf9, 0x00, 0x06, 0x3c, 0xcd, 0x1f,
  0xbb, 0x38, 0xc5, 0x0c, 0xea, 0xed, 0x17, 0x15, 0x02, 0x03, 0xf6, 0xcf,
  0x0b, 0xf5, 0x0b, 0x04, 0x14, 0xf9, 0x01, 0x0b, 0xf0, 0xf1, 0xe0, 0x30,
  0x32, 0x1d, 0x08, 0xfa, 0x15, 0xe8, 0x16, 0x02, 0x7d, 0x5d, 0x3a, 0x08,
  0xff, 0xf7, 0x09, 0xea, 0x09, 0x0f, 0x11, 0xff, 0x03, 0x11, 0x39, 0x05,
  0xc0, 0x0a, 0x29, 0xf2, 0x13, 0xf4, 0xee, 0x2e, 0x19, 0xf0, 0xf1, 0x02,
  0x1a, 0x0a, 0x14, 0x03, 0xdf, 0xf9, 0x01, 0xf4, 0x0b, 0xf2, 0x07, 0x0f,
  0x1b, 0xf5, 0x16, 0xe6, 0x1a, 0xf8, 0x01, 0x07, 0x10, 0x08, 0x06, 0x00,
  0xec, 0x13, 0x0b, 0xfd, 0x05, 0x05, 0xe1, 0xf1, 0x12, 0xfa, 0x04, 0xe2,
  0xe3, 0xe6, 0x02, 0xf4, 0x06, 0x05, 0xfb, 0xf5, 0x07, 0x0e, 0x2b, 0x02,
  0x08, 0x03, 0x0c, 0x0b, 0x17, 0x00, 0xf7, 0x0f, 0x06, 0xdb, 0xed, 0xc3,
  0x0c, 0xec, 0xe8, 0xe0, 0x26, 0x15, 0x16, 0x13, 0xed, 0x02, 0xe4, 0xe6,
  0xf7, 0xec, 0x07, 0x0f, 0x0e, 0x1c, 0x08, 0xdc, 0xf7, 0xfd, 0x0a, 0xef,
  0x03, 0xfb, 0xf2, 0xd0, 0xfc, 0xf3, 0xe8, 0x06, 0xd1, 0x02, 0xfd, 0xf6,
  0x2e, 0x21, 0xe1, 0x28, 0x4d, 0x47, 0x2b, 0xe8, 0x08, 0xcd, 0x0e, 0xef,
  0xee, 0xec, 0xf4, 0xf8, 0xe4, 0xec, 0x26, 0x20, 0xd9, 0xf5, 0x34, 0xf5,
  0xf8, 0x06, 0xdf, 0xed, 0x16, 0xec, 0xf4, 0xe2, 0x37, 0xf6, 0x31, 0xf3,
  0xd5, 0xfd, 0x04, 0x46, 0xe9, 0x15, 0xac, 0x07, 0x04, 0xf2, 0x00, 0xf1,
  0xfa, 0x0b, 0x02, 0x24, 0x13, 0xd0, 0x02, 0xe9, 0xf2, 0x02, 0x18, 0xf2,
  0xe5, 0xf0, 0x02, 0xf5, 0x4e, 0xdd, 0xf0, 0xe5, 0x00, 0xff, 0xc8, 0x01,
  0xe3, 0xfc, 0xec, 0xfa, 0xef, 0xf5, 0xfc, 0x0a, 0x02, 0x04, 0xf6, 0x09,
  0xfc, 0x10, 0xee, 0x04, 0xd3, 0x0b, 0xe3, 0xf5, 0xee, 0xed, 0x06, 0xde,
  0x25, 0xda, 0x52, 0x16, 0xdb, 0xf3, 0xe3, 0xe6, 0x00, 0x13, 0xfd, 0xed,
  0xcd, 0x10, 0x1b, 0xcc, 0x1a, 0xf8, 0x07, 0xfe, 0xf0, 0xfe, 0x11, 0xfc,
  0x38, 0x08, 0xb4, 0xff, 0xe3, 0xfd, 0x04, 0xe6, 0x2e, 0x2d, 0xf1, 0x16,
  0xeb, 0x16, 0x1c, 0xb0, 0xfa, 0xfa, 0x25, 0x08, 0x15, 0xfe, 0xec, 0x03,
  0x12, 0xed, 0x2a, 0xf2, 0xe8, 0xfc, 0x24, 0xc7, 0xe5, 0x1c, 0xdf, 0xcf,
  0x01, 0xe9, 0xf0, 0xfd, 0x02, 0xe5, 0xf3, 0xea, 0x00, 0xff, 0xec, 0xc7,
  0xe1, 0x0a, 0xd8, 0xd5, 0xa3, 0x0a, 0x1f, 0xd2, 0xf6, 0x0b, 0x14, 0xf4,
  0x0b, 0xf7, 0x03, 0xe5, 0xf9, 0xf4, 0xe8, 0x03, 0x06, 0x0a, 0x10, 0xeb,
  0x15, 0x03, 0x04, 0xe2, 0xfa, 0x01, 0xc0, 0x04, 0x0a, 0xe6, 0xf9, 0x04,
  0x30, 0x27, 0xf6, 0x02, 0x0c, 0x2a, 0xec, 0xe9, 0x1a, 0x08, 0x03, 0x08,
  0x0a, 0xed, 0x09, 0x10, 0x0b, 0x08, 0xfa, 0xd9, 0x0d, 0x12, 0x0d, 0x0f,
  0x33, 0x09, 0x00, 0x0b, 0x12, 0xd2, 0x0b, 0xf3, 0x10, 0x06, 0x16, 0xfc,
  0x0f, 0x0b, 0x05, 0xf4, 0x13, 0xf9, 0xe0, 0x1a, 0xff, 0xff, 0xcb, 0xf9,
  0xeb, 0xf6, 0x14, 0xea, 0x0d, 0xe1, 0xfb, 0x11, 0xf9, 0x15, 0x03, 0x27,
  0xfe, 0x17, 0x0d, 0xf8, 0x07, 0xfb, 0x16, 0xfb, 0xfe, 0x20, 0xe1, 0xe1,
  0x14, 0x28, 0x11, 0xf4, 0xfd, 0xfe, 0xfe, 0xdd, 0xf6, 0xe0, 0xe7, 0xee,
  0xe3, 0xf0, 0x27, 0x2c, 0xec, 0x13, 0x12, 0x17, 0xef, 0x00, 0x25, 0xee,
  0xe9, 0x20, 0x08, 0x04, 0xf7, 0x01, 0xec, 0xf6, 0x03, 0xfd, 0x06, 0xf1,
  0xf6, 0xfe, 0x0a, 0xfc, 0xd6, 0x0e, 0xf4, 0xea, 0x39, 0x10, 0x2a, 0xd2,
  0x0c, 0x17, 0xdf, 0xfb, 0x1b, 0xd6, 0x1c, 0xfe, 0x15, 0x02, 0x2f, 0xf7,
  0xfe, 0xf3, 0x0a, 0x17, 0x19, 0xef, 0x29, 0x0a, 0xec, 0xfe, 0xf2, 0x06,
  0x23, 0x09, 0xec, 0x25, 0xec, 0x03, 0x1f, 0xf8, 0x1d, 0x0c, 0xe9, 0x34,
  0x04, 0x18, 0x2a, 0xd5, 0xfc, 0xe6, 0x1f, 0x2c, 0x04, 0xfe, 0x21, 0xf2,
  0xfa, 0xfa, 0xd7, 0x0b, 0xf2, 0x11, 0xf0, 0x0f, 0xe7, 0x03, 0xf9, 0x07,
  0xfe, 0xec, 0x34, 0x0e, 0x11, 0xe0, 0xf4, 0x13, 0xd7, 0xf5, 0x13, 0x00,
  0xf8, 0x18, 0xf2, 0x11, 0xed, 0x2d, 0x06, 0xe6, 0x21, 0xf4, 0xec, 0x0b,
  0x1b, 0xfc, 0xfd, 0xdb, 0xff, 0x11, 0xea, 0xdd, 0xeb, 0xf1, 0x21, 0x30,
  0x12, 0x10, 0x0e, 0xf9, 0xf0, 0x2c, 0x0e, 0x14, 0x19, 0x11, 0xdc, 0xe8,
  0xf0, 0x08, 0xe6, 0x05, 0xf9, 0x16, 0x0e, 0xf3, 0x01, 0xeb, 0x09, 0x04,
  0x11, 0x00, 0x0d, 0xfd, 0x02, 0x1c, 0xf9, 0x0b, 0x0a, 0xfb, 0x09, 0xf5,
  0xf5, 0x03, 0x1e, 0xea, 0xf5, 0xff, 0xf7, 0x03, 0xef, 0xff, 0xed, 0x11,
  0xfa, 0x07, 0xec, 0xfe, 0xff, 0x29, 0xfd, 0xfe, 0x39, 0xf5, 0xf5, 0xfd,
  0x1b, 0x95, 0xe9, 0x36, 0xdc, 0x18, 0x1a, 0x08, 0xfc, 0x13, 0xe4, 0x00,
  0xe4, 0x25, 0xfa, 0xec, 0x09, 0x0a, 0xf5, 0xd9, 0x04, 0xfd, 0xef, 0x05,
  0x0f, 0x0c, 0xed, 0x0f, 0xce, 0xfd, 0xed, 0xed, 0xcf, 0x08, 0x24, 0xb4,
  0xfe, 0x13, 0x2b, 0xcc, 0xf6, 0xfb, 0x10, 0x0c, 0x18, 0xef, 0x05, 0xee,
  0xdc, 0xb2, 0xf5, 0x21, 0x0f, 0xf8, 0xd4, 0x1b, 0x09, 0xfd, 0xf0, 0xd9,
  0xfc, 0x0c, 0xe7, 0xf3, 0x01, 0xfa, 0xf9, 0x28, 0x26, 0x06, 0x09, 0x06,
  0x10, 0x17, 0x33, 0xa7, 0x0b, 0x0f, 0xe7, 0x21, 0xee, 0x08, 0x02, 0xf9,
  0x2b, 0xd8, 0x05, 0xfc, 0x00, 0x0e, 0x01, 0x14, 0xed, 0xfc, 0xf9, 0x09,
  0xfa, 0x06, 0xff, 0xee, 0xf7, 0x1c, 0x04, 0xed, 0xfc, 0x01, 0x0b, 0x17,
  0xfa, 0x0b, 0x05, 0xf6, 0x00, 0x12, 0x08, 0xf4, 0x13, 0xf4, 0x15, 0x08,
  0x07, 0xfc, 0xff, 0x1d, 0xed, 0xf8, 0x03, 0xcb, 0xfc, 0xb2, 0xf2, 0x07,
  0xeb, 0x0c, 0x08, 0x09, 0xeb, 0x20, 0xf7, 0xc7, 0xe6, 0x24, 0xde, 0xfe,
  0x00, 0x12, 0xed, 0xdb, 0x0e, 0xf7, 0xf5, 0xff, 0xfa, 0x0e, 0xea, 0x05,
  0xb6, 0xea, 0xda, 0x01, 0xe4, 0x34, 0x0d, 0x07, 0xef, 0x14, 0x12, 0xce,
  0x00, 0x06, 0x13, 0xf6, 0xf2, 0x10, 0x1a, 0xff, 0xe6, 0xfe, 0xd5, 0xdc,
  0x3a, 0x13, 0xf9, 0x12, 0xf7, 0xf0, 0xe0, 0xb4, 0xec, 0x44, 0x04, 0x25,
  0xdc, 0xf7, 0x2b, 0xec, 0x1c, 0xe8, 0x23, 0xf2, 0x2b, 0xf7, 0x16, 0xb7,
  0xf0, 0xe3, 0x05, 0x17, 0xd9, 0xed, 0x20, 0xe1, 0x2d, 0xea, 0x01, 0x00,
  0x0b, 0x15, 0xf7, 0x0f, 0xef, 0x07, 0xe3, 0xfc, 0xfb, 0x08, 0x11, 0xfa,
  0x0a, 0x0a, 0xf9, 0x06, 0x01, 0x12, 0xd5, 0xfa, 0x22, 0xe9, 0x2a, 0x10,
  0xf7, 0x04, 0x0e, 0x0a, 0x07, 0xee, 0xf9, 0x02, 0x0f, 0x08, 0xfa, 0x09,
  0xdf, 0x03, 0xed, 0xac, 0x0d, 0xba, 0x08, 0xed, 0x07, 0x03, 0x0f, 0x11,
  0xf7, 0x4a, 0xe9, 0xf4, 0xf7, 0x0e, 0xf7, 0x08, 0x0d, 0x15, 0xd6, 0xe4,
  0x02, 0x11, 0xf5, 0x0e, 0xdb, 0x00, 0x06, 0x05, 0xd4, 0xde, 0xde, 0x10,
  0xe2, 0xf8, 0x16, 0x2f, 0xe6, 0xea, 0xfb, 0xea, 0x25, 0xf6, 0x13, 0x08,
  0x17, 0xec, 0x0a, 0x12, 0xee, 0x0d, 0xfe, 0xf2, 0x0f, 0x29, 0xdf, 0x10,
  0xf4, 0x23, 0xf1, 0xe6, 0xf0, 0x25, 0x22, 0x16, 0xce, 0xd8, 0x12, 0xc4,
  0x46, 0x1f, 0x46, 0xeb, 0x0c, 0xcb, 0xdb, 0xd0, 0xe5, 0xf4, 0x07, 0x16,
  0x1d, 0xfd, 0x1e, 0xfe, 0x02, 0xec, 0x15, 0xf6, 0xf1, 0x08, 0xf6, 0xea,
  0xfd, 0xff, 0xe9, 0x0b, 0x13, 0x15, 0x04, 0xfe, 0xf8, 0xfc, 0x04, 0xf7,
  0x09, 0xfa, 0xe9, 0xcf, 0xfb, 0xd6, 0xd0, 0xfe, 0x07, 0xe6, 0x17, 0x0d,
  0x0f, 0x1b, 0xf3, 0x0f, 0x12, 0xfc, 0xe5, 0xe1, 0x0e, 0x00, 0xe7, 0xde,
  0xfc, 0x9d, 0x0d, 0xe7, 0x4c, 0x06, 0x2a, 0x14, 0x08, 0x1a, 0xe7, 0x16,
  0xdc, 0xbf, 0xf2, 0x02, 0x0f, 0xd5, 0xdc, 0xfc, 0xfe, 0xe6, 0x10, 0x19,
  0xe8, 0xd9, 0x05, 0xfc, 0xdc, 0xe2, 0xff, 0x04, 0xd5, 0x30, 0xfc, 0x19,
  0xb4, 0xe6, 0xd4, 0x19, 0xf6, 0xe0, 0xeb, 0x0e, 0x07, 0x09, 0xea, 0x10,
  0x06, 0xe6, 0xe6, 0x06, 0xed, 0x34, 0xed, 0x03, 0xfb, 0x35, 0xf7, 0x02,
  0xf9, 0xe3, 0x0b, 0x05, 0xf3, 0xfc, 0xfc, 0xe9, 0x1c, 0x01, 0xe1, 0xe2,
  0xe4, 0xfd, 0xc5, 0xdd, 0x05, 0xf6, 0xf7, 0x12, 0x08, 0x01, 0x05, 0x10,
  0x1e, 0x02, 0x12, 0x07, 0xf8, 0x19, 0xe4, 0x0e, 0x06, 0xf0, 0xe0, 0xf8,
  0x1e, 0xfe, 0x04, 0xec, 0x09, 0xc9, 0x27, 0xfb, 0xf9, 0x02, 0xf4, 0xe9,
  0x00, 0xfb, 0xe9, 0x03, 0x01, 0xea, 0xe8, 0xe3, 0xf7, 0x05, 0xee, 0xf9,
  0x16, 0xd7, 0x01, 0x05, 0x07, 0x0a, 0xf1, 0xf0, 0xdb, 0x05, 0x18, 0x01,
  0x4c, 0x0f, 0x32, 0x0f, 0xe5, 0xf3, 0x07, 0x33, 0xde, 0xb9, 0x0a, 0x0e,
  0xf8, 0xfc, 0xe0, 0x03, 0xe9, 0x15, 0xf1, 0x12, 0x08, 0x0b, 0xee, 0x01,
  0xfd, 0x10, 0x05, 0x22, 0xeb, 0x20, 0xf1, 0x03, 0xe1, 0x0e, 0xc4, 0x03,
  0xff, 0xfa, 0xf6, 0x16, 0x01, 0x0a, 0xfc, 0xed, 0xfb, 0xe4, 0xd5, 0x15,
  0x1d, 0xde, 0xbf, 0x1c, 0x22, 0x11, 0x19, 0xeb, 0x06, 0xeb, 0x06, 0x06,
  0xde, 0x3d, 0xf2, 0x1d, 0xed, 0xf1, 0xc6, 0xf1, 0x16, 0x35, 0xef, 0x01,
  0x00, 0xea, 0x0f, 0xf2, 0x29, 0x00, 0xf8, 0xf5, 0x0d, 0xf6, 0x12, 0xec,
  0x00, 0x19, 0x27, 0xe8, 0xf8, 0x0c, 0xf0, 0x0b, 0xde, 0x24, 0x16, 0x40,
  0xeb, 0x00, 0x06, 0xd2, 0x09, 0xfe, 0xf0, 0xf6, 0x08, 0xf6, 0x0c, 0xe9,
  0x01, 0x10, 0x02, 0x0c, 0xfb, 0xef, 0x09, 0xee, 0x13, 0x28, 0x05, 0x12,
  0xf0, 0x04, 0x20, 0x08, 0x15, 0xc2, 0xfc, 0xf3, 0xfd, 0xe8, 0xf1, 0xd9,
  0xf9, 0x04, 0x11, 0x03, 0x03, 0xfe, 0xe6, 0x01, 0x2e, 0x08, 0xd7, 0x0b,
  0x08, 0x12, 0xed, 0xfc, 0xf6, 0xf7, 0xe3, 0xfd, 0xfd, 0x09, 0x12, 0xf7,
  0x05, 0xe2, 0xd4, 0x23, 0xee, 0x29, 0xfd, 0x23, 0xfe, 0x09, 0x05, 0xfd,
  0xfe, 0x07, 0x13, 0x0b, 0xe1, 0x23, 0x29, 0xd5, 0x16, 0x24, 0xc5, 0x0d,
  0x02, 0xe0, 0x1b, 0xca, 0x11, 0x1f, 0x05, 0x12, 0x00, 0x0a, 0x0e, 0x1e,
  0x12, 0xf5, 0x18, 0x13, 0x15, 0xe1, 0xff, 0xc1, 0xe2, 0x11, 0xf2, 0x20,
  0x29, 0xee, 0xf1, 0xe9, 0x0f, 0xe6, 0xfa, 0xee, 0xfe, 0x08, 0x16, 0x04,
  0xf6, 0xf4, 0x01, 0xfa, 0x00, 0x0b, 0xe5, 0x0d, 0x00, 0xf7, 0xf6, 0xe9,
  0xe1, 0xf6, 0x0b, 0x15, 0xfa, 0xef, 0xfd, 0xdc, 0x02, 0xf5, 0x09, 0x00,
  0xf3, 0xec, 0xff, 0xfc, 0x12, 0x12, 0xed, 0x0b, 0xe1, 0xf3, 0x0c, 0x30,
  0x07, 0x07, 0x0c, 0x04, 0xe7, 0xfe, 0x0b, 0xe1, 0x13, 0xdc, 0xee, 0xfb,
  0xf8, 0x0d, 0xf6, 0xfd, 0xf2, 0xe9, 0xea, 0x02, 0xeb, 0x30, 0xdd, 0xde,
  0xe7, 0x14, 0x1f, 0x00, 0xf1, 0xfc, 0x0c, 0xe3, 0xf2, 0xdc, 0xe3, 0x11,
  0xdc, 0xb0, 0x1d, 0xf5, 0x06, 0x24, 0xf0, 0xef, 0x08, 0xe0, 0x17, 0x1f,
  0x04, 0x23, 0xfe, 0xbc, 0x10, 0x3c, 0xa7, 0x2c, 0x10, 0xd6, 0x34, 0xd5,
  0xf2, 0x3d, 0xe0, 0x03, 0x07, 0xfe, 0xf0, 0x18, 0xd4, 0x2f, 0xec, 0xfc,
  0xf9, 0xe0, 0xe9, 0xeb, 0xf5, 0x1c, 0x01, 0x0c, 0xf5, 0xde, 0xf3, 0x07,
  0xea, 0xf8, 0x0e, 0xf5, 0x03, 0x1d, 0xe4, 0xf7, 0xfe, 0xec, 0xf3, 0xeb,
  0xf3, 0xff, 0xe5, 0x17, 0x0c, 0xe4, 0xee, 0xf1, 0xd7, 0x31, 0x18, 0x1c,
  0xdc, 0x08, 0xea, 0x0b, 0x0e, 0xf6, 0x0a, 0x07, 0xe9, 0xf5, 0x07, 0xf0,
  0x25, 0x0e, 0xd0, 0xd0, 0xf7, 0x05, 0xf5, 0x43, 0xe4, 0x0c, 0xf4, 0xed,
  0xfe, 0xea, 0xf6, 0xd9, 0xf7, 0xc8, 0xf9, 0xf1, 0xf6, 0xe9, 0xf5, 0xfe,
  0x06, 0xff, 0xd8, 0xee, 0xea, 0x03, 0xf5, 0xfc, 0x06, 0xe9, 0x32, 0xfd,
  0xee, 0xdb, 0xfc, 0xd5, 0xdc, 0xd7, 0xdd, 0xce, 0xe8, 0xd0, 0xfa, 0x03,
  0xff, 0xf1, 0xff, 0xfc, 0x25, 0xce, 0xf9, 0x28, 0x15, 0x1a, 0xf4, 0xc2,
  0x00, 0x37, 0xb6, 0xd2, 0x01, 0xc2, 0xf8, 0xf0, 0xed, 0xc8, 0xe3, 0xe4,
  0xce, 0x3a, 0xd7, 0x0a, 0xb2, 0xf9, 0xc9, 0x32, 0xa5, 0xcb, 0xcd, 0x01,
  0xee, 0xec, 0xf3, 0xe6, 0xd9, 0xf1, 0x03, 0x18, 0xea, 0x0d, 0xff, 0xd5,
  0x0d, 0xf9, 0xc0, 0xf2, 0x05, 0xef, 0x02, 0xf3, 0xf0, 0xff, 0x07, 0x0d,
  0x08, 0xef, 0xe9, 0x09, 0x04, 0x05, 0xe5, 0x0e, 0xee, 0xcd, 0x08, 0x04,
  0x11, 0xd0, 0xe0, 0xf9, 0xec, 0xf1, 0x0a, 0xfa, 0x31, 0xf0, 0xc8, 0xe9,
  0xe8, 0xf2, 0x07, 0x17, 0xe8, 0x7f, 0x04, 0x11, 0x0c, 0x05, 0xde, 0xec,
  0xc8, 0xd9, 0x29, 0xed, 0xf2, 0xbc, 0xf6, 0xca, 0x12, 0x1d, 0xf4, 0x15,
  0xe3, 0xff, 0x0c, 0xea, 0xee, 0xf4, 0xf8, 0x24, 0xfd, 0xe3, 0x2a, 0xf4,
  0xed, 0xeb, 0xc1, 0xd1, 0xc6, 0xf3, 0x17, 0xf8, 0xec, 0xdc, 0x08, 0xf6,
  0xf1, 0xfa, 0xf9, 0x10, 0xfa, 0xdd, 0xd1, 0xcf, 0xdf, 0x27, 0xdf, 0xf6,
  0x04, 0x14, 0xd4, 0x1b, 0xf0, 0xb0, 0xfc, 0xf3, 0x01, 0x2e, 0xe8, 0xd6,
  0xe0, 0x0b, 0xba, 0x04, 0xd9, 0x26, 0xe9, 0xfd, 0xe8, 0xdc, 0x1f, 0x22,
  0xeb, 0x01, 0x0f, 0x0d, 0x04, 0xfd, 0x05, 0xe2, 0x03, 0x19, 0xf7, 0xfd,
  0xfe, 0x02, 0x13, 0xf1, 0xd8, 0x14, 0x35, 0x06, 0xf5, 0xdf, 0xc9, 0x04,
  0x06, 0x06, 0xf5, 0xf5, 0xdc, 0xed, 0xfb, 0xfe, 0xf5, 0x9b, 0xd9, 0x0e,
  0x0d, 0x02, 0xe5, 0x0e, 0x15, 0xf4, 0xd0, 0xee, 0xec, 0x00, 0x0c, 0xf6,
  0xe7, 0x70, 0xf3, 0xec, 0xec, 0x1f, 0x1a, 0x40, 0xba, 0x09, 0x3e, 0xff,
  0xf4, 0xd9, 0x06, 0x17, 0x0f, 0x03, 0x02, 0x19, 0xda, 0x16, 0x03, 0xfa,
  0xeb, 0xee, 0xf0, 0xf8, 0xe7, 0xfa, 0x04, 0xf4, 0xe6, 0xe4, 0xa6, 0xe1,
  0xeb, 0xe1, 0x14, 0x06, 0xf3, 0xfd, 0x06, 0xe7, 0xf2, 0x36, 0xfb, 0x1b,
  0xe4, 0x09, 0x3c, 0xc0, 0x17, 0x19, 0xfd, 0xf6, 0xcf, 0x17, 0x16, 0x1b,
  0xec, 0xf6, 0xf6, 0xd5, 0xf2, 0x1a, 0x03, 0xdd, 0xdc, 0x12, 0xe7, 0xf3,
  0x14, 0xf1, 0x0c, 0x1e, 0xd5, 0xf9, 0x01, 0xf4, 0xfb, 0xfa, 0xfd, 0x07,
  0x08, 0xf3, 0xfa, 0xf7, 0xe9, 0x02, 0xed, 0xf9, 0x05, 0x0f, 0xff, 0xfb,
  0xe4, 0xf7, 0x02, 0xe9, 0xee, 0xdc, 0xf6, 0xec, 0x11, 0x10, 0xf1, 0xdb,
  0xf6, 0x0a, 0x24, 0xe9, 0xf9, 0xfe, 0x0c, 0xf1, 0x01, 0x1f, 0x00, 0xf3,
  0xe3, 0xeb, 0xfb, 0x4e, 0xfd, 0xf6, 0x11, 0x2b, 0xe8, 0xf0, 0xe5, 0xcc,
  0xf9, 0xe5, 0x0b, 0xea, 0x20, 0xff, 0x24, 0xdb, 0xeb, 0xf9, 0x12, 0xfe,
  0x00, 0xeb, 0x07, 0x03, 0x13, 0x0b, 0x03, 0x20, 0xf9, 0x2c, 0xec, 0xea,
  0xfa, 0x04, 0x22, 0x1f, 0x0e, 0xec, 0x0d, 0xd9, 0xe2, 0xff, 0xcb, 0xdd,
  0xef, 0xef, 0x0b, 0x01, 0x22, 0x04, 0xfd, 0xec, 0x09, 0xfd, 0x2f, 0xd3,
  0xad, 0xfa, 0xf6, 0xc7, 0xfe, 0xf7, 0xfc, 0xa1, 0x25, 0xed, 0x16, 0xf7,
  0xf2, 0x09, 0xeb, 0xf2, 0xf4, 0xec, 0xe7, 0xed, 0xfd, 0xfa, 0x06, 0x06,
  0xfe, 0x1b, 0xc3, 0x0a, 0x01, 0xf2, 0xf9, 0xe3, 0xfd, 0xeb, 0x14, 0xe5,
  0xf9, 0xf3, 0xe0, 0x02, 0xf6, 0xec, 0xf7, 0xf0, 0xfc, 0x01, 0x0a, 0xe4,
  0xe5, 0x07, 0xf8, 0xcf, 0x14, 0x0c, 0xf7, 0x02, 0x04, 0xf7, 0xf6, 0x05,
  0x1d, 0x07, 0x24, 0x12, 0x07, 0xf0, 0xf3, 0x02, 0x0c, 0xfd, 0xef, 0x67,
  0xf8, 0xee, 0x14, 0x12, 0x02, 0x19, 0xed, 0xe1, 0x10, 0xfc, 0x08, 0xef,
  0x1a, 0x10, 0x09, 0xfe, 0x1b, 0x2d, 0x15, 0xe9, 0xe3, 0xee, 0xfc, 0x07,
  0xf0, 0xde, 0x07, 0x13, 0xfb, 0x14, 0xf0, 0x32, 0xee, 0xfe, 0x12, 0x19,
  0xea, 0xfc, 0x02, 0x2c, 0x11, 0xe7, 0xfc, 0x0a, 0xf5, 0xf7, 0x0a, 0x0e,
  0x32, 0xf3, 0xf1, 0xe3, 0x24, 0x38, 0x4a, 0xe9, 0x15, 0xdd, 0x18, 0x0a,
  0x13, 0x01, 0x04, 0xcf, 0x27, 0x05, 0x18, 0x3e, 0xf4, 0x12, 0xfd, 0xef,
  0xda, 0xf8, 0xd0, 0xc9, 0xeb, 0x15, 0xf6, 0x33, 0xfd, 0x15, 0x04, 0x1b,
  0x00, 0x08, 0xe9, 0xce, 0xff, 0xf9, 0x07, 0xf9, 0x00, 0xf2, 0x0c, 0x17,
  0xfb, 0xf9, 0x15, 0x0a, 0xf9, 0x09, 0xf0, 0xf1, 0xe6, 0x0a, 0xf9, 0xd6,
  0xf2, 0xf7, 0x04, 0x15, 0x10, 0xf7, 0xf5, 0x02, 0x0d, 0x09, 0x1d, 0xef,
  0x24, 0xfa, 0xea, 0x16, 0x15, 0xfd, 0x16, 0x1d, 0xef, 0x04, 0xeb, 0xf4,
  0x05, 0xf4, 0xe8, 0xa5, 0xf7, 0xf7, 0xdb, 0x01, 0xf5, 0x2a, 0xd9, 0x67,
  0x1b, 0x21, 0x2b, 0x3d, 0xe1, 0xec, 0x13, 0x09, 0x08, 0x03, 0x0a, 0x13,
  0x02, 0x2d, 0xd1, 0x23, 0xf6, 0xe1, 0x08, 0xfb, 0xe6, 0xfc, 0xdf, 0x6d,
  0x05, 0xf5, 0xad, 0x02, 0xec, 0x05, 0xdf, 0xef, 0x35, 0xea, 0xe6, 0x12,
  0xe6, 0x31, 0xc3, 0x09, 0x37, 0xe5, 0x15, 0xbe, 0x09, 0xf6, 0xfe, 0x2a,
  0x02, 0x11, 0x40, 0x0c, 0xe4, 0x04, 0x2e, 0xa9, 0xdb, 0xe0, 0xc6, 0x81,
  0xf3, 0x03, 0xe7, 0xee, 0xed, 0xf5, 0x15, 0xca, 0x08, 0x02, 0xf9, 0x04,
  0x35, 0xfd, 0x02, 0x0f, 0x03, 0xd8, 0xea, 0xf8, 0x0b, 0x19, 0x09, 0x01,
  0xeb, 0x18, 0x02, 0xfd, 0xdb, 0xff, 0x1b, 0xe5, 0x04, 0xfe, 0xf0, 0xcf,
  0x1e, 0x04, 0x06, 0xf6, 0x04, 0x10, 0x05, 0xea, 0x06, 0x00, 0x10, 0xf5,
  0xfc, 0xf1, 0x17, 0xd1, 0xfb, 0xf9, 0x01, 0x01, 0xf9, 0x05, 0x0b, 0x9e,
  0xd6, 0x05, 0xf7, 0xf8, 0xf2, 0x15, 0xd1, 0x62, 0x02, 0xf4, 0x29, 0x4f,
  0xe0, 0xe5, 0x1e, 0xe2, 0x01, 0x09, 0xfe, 0xf9, 0x04, 0x13, 0xfd, 0x16,
  0xe3, 0xfa, 0x07, 0xd7, 0x04, 0xda, 0xf3, 0x56, 0xe0, 0xe5, 0xea, 0xa0,
  0xe0, 0xf7, 0xec, 0x0c, 0xd9, 0x0e, 0xe7, 0x0b, 0xe9, 0xea, 0xe1, 0xdd,
  0x12, 0x04, 0x17, 0xb8, 0xf0, 0xf7, 0xd3, 0x3d, 0x0c, 0xe8, 0x07, 0x04,
  0x0b, 0x0f, 0x01, 0xe2, 0xe6, 0xec, 0xab, 0xdc, 0x03, 0xf0, 0x33, 0xf5,
  0x1b, 0xf2, 0x0b, 0xf8, 0x08, 0x0d, 0x03, 0x00, 0xfb, 0x14, 0x00, 0x02,
  0xf0, 0xe6, 0xf3, 0x0e, 0xff, 0x05, 0xf6, 0x1b, 0xe3, 0xf2, 0xf7, 0xf5,
  0x0b, 0xff, 0xf5, 0xeb, 0x1c, 0xfc, 0x11, 0xf6, 0x06, 0x08, 0x0a, 0x14,
  0xfd, 0x09, 0x00, 0x07, 0xf0, 0xee, 0x1d, 0x06, 0xf6, 0xf9, 0x0c, 0xd5,
  0x0a, 0xf8, 0xf9, 0xe2, 0xfd, 0xe9, 0x04, 0x9c, 0xe2, 0x16, 0xf6, 0xff,
  0xf6, 0xf5, 0xd9, 0x17, 0xcc, 0xfa, 0xf5, 0x2d, 0xe2, 0x0e, 0x04, 0xfa,
  0x0d, 0x21, 0x12, 0xdf, 0x10, 0x05, 0x0a, 0x05, 0xd8, 0x04, 0xef, 0x08,
  0xf2, 0xfe, 0xed, 0x7c, 0xec, 0xe9, 0x22, 0xae, 0xe2, 0x0d, 0xed, 0x24,
  0xd9, 0x08, 0xe0, 0xef, 0xd6, 0xf9, 0xae, 0xd6, 0x11, 0x27, 0xdb, 0xdc,
  0x2a, 0xfa, 0xf6, 0x20, 0x19, 0x01, 0xf3, 0xf4, 0x10, 0x08, 0xe8, 0x29,
  0xe1, 0x4c, 0xef, 0xfd, 0x08, 0xd8, 0xfd, 0x1b, 0x3e, 0xf0, 0xfb, 0x37,
  0xda, 0x1f, 0xe3, 0xbb, 0x0f, 0xff, 0x06, 0x06, 0xef, 0xfc, 0x08, 0x16,
  0x07, 0x05, 0xf7, 0x06, 0x0a, 0x21, 0x12, 0xef, 0xfc, 0x19, 0xe9, 0xe7,
  0x18, 0xd0, 0x16, 0x02, 0x01, 0x15, 0xf6, 0x0a, 0xe9, 0x1e, 0xff, 0xfa,
  0x21, 0x00, 0xfe, 0xfa, 0x33, 0x13, 0x0e, 0x1f, 0x08, 0x24, 0xe8, 0xd8,
  0xfc, 0x1b, 0xc4, 0x20, 0x09, 0x14, 0xd8, 0xe7, 0x09, 0xe0, 0x09, 0xf1,
  0xfd, 0x12, 0xf1, 0xdf, 0xfd, 0x0e, 0xe9, 0x09, 0x24, 0x07, 0xf3, 0xf2,
  0xfe, 0xf5, 0xe2, 0x2f, 0x10, 0x1c, 0xfc, 0xe7, 0x1e, 0xec, 0x17, 0xf0,
  0x2b, 0x39, 0x0e, 0x0a, 0x1b, 0x04, 0x22, 0xe4, 0x14, 0xfc, 0x00, 0x0a,
  0x03, 0x00, 0xbb, 0x26, 0xe7, 0xcf, 0xf0, 0x10, 0xef, 0xde, 0xe2, 0x28,
  0x19, 0x10, 0xf9, 0xf9, 0x09, 0x1f, 0x16, 0xfa, 0xf5, 0x09, 0x04, 0xfb,
  0x20, 0xfe, 0x21, 0x0b, 0x24, 0xe5, 0x1c, 0xdd, 0xfc, 0x05, 0xeb, 0x34,
  0x17, 0x15, 0xe3, 0x07, 0xf1, 0x2c, 0x01, 0xf1, 0x1c, 0x0f, 0xe8, 0xeb,
  0x18, 0x08, 0x05, 0xf3, 0xf1, 0x21, 0x24, 0xfd, 0xf5, 0x35, 0x0a, 0x06,
  0xe1, 0x26, 0x0c, 0x04, 0x01, 0xfc, 0x13, 0x08, 0x1a, 0xf4, 0xeb, 0x09,
  0xef, 0xf5, 0xe4, 0xe0, 0x1b, 0xe3, 0xd6, 0xeb, 0x11, 0xdf, 0xca, 0x28,
  0x03, 0xea, 0xf4, 0x07, 0x26, 0xe0, 0x09, 0xfa, 0xfd, 0x37, 0x17, 0xfd,
  0x0d, 0xe1, 0xe2, 0xf2, 0x18, 0xf7, 0xe3, 0xee, 0x20, 0xf8, 0xd3, 0x15,
  0xec, 0xea, 0xed, 0x05, 0x3b, 0x2b, 0xe2, 0x13, 0x14, 0x11, 0xf4, 0xd6,
  0x08, 0xde, 0x0b, 0x05, 0x03, 0xf8, 0xf7, 0x03, 0xd1, 0xb5, 0x08, 0x23,
  0xf5, 0xf3, 0x18, 0x15, 0xd1, 0xff, 0xdc, 0xf8, 0x05, 0xf8, 0xf8, 0xe1,
  0x18, 0xdb, 0x26, 0xe9, 0xd1, 0x0b, 0x0b, 0x0c, 0x01, 0xff, 0xd4, 0x06,
  0x18, 0xe9, 0xf8, 0xd5, 0x24, 0xec, 0xf1, 0x7f, 0xf6, 0xe9, 0x11, 0xe7,
  0xf3, 0x12, 0x09, 0xf3, 0x12, 0xf0, 0x0b, 0xf7, 0xfd, 0x0a, 0xdd, 0xd5,
  0x0a, 0x07, 0xfd, 0x05, 0xd2, 0x1e, 0x19, 0xd7, 0x0c, 0x08, 0x13, 0x01,
  0x10, 0x06, 0x12, 0x1d, 0x09, 0xf7, 0xe5, 0x05, 0xe4, 0xd6, 0xf0, 0xf2,
  0x10, 0xdb, 0xf3, 0xe2, 0xfc, 0xcf, 0x0d, 0x0a, 0xd2, 0xe1, 0xf8, 0xdb,
  0x16, 0x15, 0x0f, 0xeb, 0xf7, 0x27, 0xd1, 0xde, 0x10, 0xe6, 0xdf, 0xfc,
  0x0d, 0xf4, 0x07, 0x0a, 0x51, 0x1b, 0xd3, 0xee, 0xe5, 0xf5, 0xf9, 0xd1,
  0xf4, 0x4f, 0xdc, 0xf7, 0x14, 0x08, 0x06, 0xd6, 0xf8, 0xd7, 0x00, 0xfd,
  0x0d, 0xfa, 0xe8, 0x0f, 0x24, 0x04, 0x19, 0x11, 0x08, 0xe1, 0x08, 0xf0,
  0xac, 0x2e, 0xf3, 0xc3, 0x2e, 0xf1, 0xf0, 0x12, 0x14, 0xaf, 0x03, 0xd3,
  0xe0, 0xd7, 0xff, 0xda, 0x04, 0xf3, 0xa9, 0xd7, 0xa3, 0xf8, 0xfc, 0xba,
  0x25, 0xfe, 0x26, 0x22, 0xf5, 0xf8, 0xfb, 0x11, 0x03, 0xd0, 0xe3, 0x0f,
  0x26, 0xfd, 0xfb, 0x04, 0xd2, 0xfa, 0xd8, 0xd6, 0x07, 0x1b, 0xf8, 0xde,
  0xf9, 0xb2, 0xd1, 0xe5, 0x26, 0x0f, 0xf0, 0xf2, 0x0f, 0x00, 0xd6, 0x08,
  0x1d, 0x09, 0xf4, 0xfe, 0xe1, 0xc2, 0xe8, 0xeb, 0xe5, 0x0f, 0xf3, 0xcb,
  0x25, 0xe7, 0x19, 0x24, 0xd5, 0x15, 0x0c, 0xda, 0xfc, 0x02, 0xde, 0xe4,
  0xc9, 0xe5, 0xcc, 0xcb, 0x1c, 0xd3, 0xf0, 0xe5, 0x04, 0x1a, 0x04, 0x10,
  0x0a, 0xf1, 0xed, 0xf4, 0xe2, 0x17, 0x0d, 0xc9, 0xed, 0x32, 0xfd, 0xfc,
  0x24, 0xed, 0x02, 0x1e, 0xef, 0x21, 0xeb, 0x02, 0xe8, 0xec, 0x0c, 0xec,
  0xde, 0x2f, 0xdb, 0xfd, 0xf7, 0x17, 0x04, 0xff, 0xa3, 0xf6, 0x2e, 0xc1,
  0x34, 0xfa, 0xee, 0x18, 0xef, 0xc2, 0x09, 0x0f, 0x02, 0xf7, 0xfc, 0x0a,
  0x1a, 0xef, 0xf6, 0xe0, 0x35, 0x2f, 0x13, 0xec, 0x08, 0x01, 0x09, 0xf1,
  0x0e, 0xfc, 0x04, 0x0e, 0x1c, 0x08, 0x0b, 0x04, 0x06, 0x0f, 0xff, 0x15,
  0xf4, 0x0c, 0xff, 0xcf, 0xd2, 0x16, 0xe1, 0xe7, 0xe2, 0xdb, 0xfa, 0x12,
  0x0d, 0x00, 0x04, 0x0d, 0xea, 0xe1, 0xdb, 0x08, 0x1b, 0x09, 0x0a, 0xfe,
  0xeb, 0xa3, 0xea, 0xfa, 0x12, 0xde, 0xd9, 0x34, 0x14, 0xf7, 0x41, 0xdf,
  0xc8, 0x09, 0x0b, 0x22, 0x03, 0x40, 0x2a, 0xdd, 0xc6, 0xe8, 0xf4, 0xc8,
  0xeb, 0xf0, 0x0d, 0x05, 0xfe, 0xff, 0xfb, 0x11, 0x03, 0xf0, 0x13, 0xed,
  0xde, 0x04, 0xfd, 0xe2, 0xce, 0x14, 0x57, 0x1a, 0x22, 0xf7, 0xf3, 0xf4,
  0xee, 0x33, 0x29, 0x03, 0x18, 0x01, 0x0f, 0x0b, 0x18, 0x57, 0xd0, 0x1a,
  0xe1, 0x01, 0xf8, 0xf4, 0xe7, 0xef, 0x11, 0xda, 0x0c, 0x0a, 0xe5, 0x03,
  0xe7, 0xf6, 0x0f, 0x22, 0x02, 0x18, 0xe9, 0xe7, 0xfd, 0x1b, 0xf5, 0x07,
  0x13, 0x1b, 0xcd, 0xe6, 0xd8, 0xf3, 0xe1, 0x23, 0x01, 0x0a, 0xf8, 0xfb,
  0xff, 0x02, 0x06, 0x27, 0xf5, 0xe2, 0xf3, 0xff, 0x0d, 0x2f, 0xe8, 0xf7,
  0x18, 0x09, 0x19, 0xfe, 0xf6, 0x11, 0x1a, 0xfd, 0x1c, 0xfb, 0xfa, 0xfa,
  0x00, 0xfc, 0xd8, 0xff, 0x1f, 0xe1, 0xfb, 0xf2, 0x07, 0x0f, 0x05, 0xfc,
  0x0b, 0x0a, 0x16, 0xfa, 0x05, 0xa5, 0xfc, 0x2b, 0xe2, 0x25, 0x0e, 0x14,
  0x1f, 0x07, 0xed, 0xe9, 0xf5, 0x32, 0x04, 0xfb, 0xfc, 0x03, 0xff, 0xef,
  0x11, 0xef, 0x08, 0xd6, 0x0c, 0x13, 0xd3, 0xe7, 0xd2, 0x04, 0x10, 0xe9,
  0xf5, 0x1e, 0xfa, 0xd3, 0xdf, 0xe3, 0xef, 0xba, 0xf6, 0xfc, 0x15, 0xfe,
  0x11, 0x04, 0x0b, 0xe9, 0xdd, 0xf8, 0x2b, 0x54, 0xfe, 0xce, 0xcc, 0x1f,
  0xee, 0xd4, 0xee, 0xd7, 0x04, 0x02, 0xfd, 0x01, 0xfe, 0x19, 0x01, 0x1a,
  0x24, 0x16, 0xfd, 0x14, 0x0d, 0x1d, 0x26, 0xb3, 0x22, 0xf2, 0xd5, 0x0d,
  0xeb, 0xfa, 0xf4, 0xfe, 0x59, 0xef, 0xf2, 0x05, 0xf9, 0x1d, 0xfa, 0x18,
  0xeb, 0xf8, 0x03, 0xfd, 0xf3, 0x0f, 0xfb, 0xfe, 0x2e, 0x2d, 0x23, 0x0b,
  0x08, 0xfe, 0x15, 0x1d, 0xf3, 0x11, 0x0d, 0xfd, 0xf1, 0xf4, 0xe0, 0xfc,
  0x20, 0x07, 0x11, 0xe6, 0x03, 0x22, 0x0e, 0x44, 0xef, 0xd6, 0x0f, 0xde,
  0xe5, 0xb0, 0xdc, 0x2c, 0x00, 0x24, 0xe2, 0xf5, 0xfa, 0xf6, 0xf5, 0xdb,
  0xfb, 0x45, 0xf7, 0x13, 0xfc, 0xf7, 0xf2, 0xf8, 0x1d, 0x07, 0x05, 0xf8,
  0x11, 0x44, 0xe7, 0xc4, 0xbd, 0x06, 0xd5, 0x07, 0x0c, 0xfd, 0xcc, 0x17,
  0xd8, 0xfd, 0x04, 0xdd, 0xf8, 0x0c, 0x1c, 0xdd, 0xe6, 0xfc, 0xfc, 0x02,
  0x36, 0x00, 0xd9, 0x2d, 0x4d, 0xfd, 0xed, 0xed, 0xd9, 0xab, 0x07, 0xe2,
  0x19, 0x1d, 0xf8, 0x0c, 0xe7, 0xea, 0x1d, 0xff, 0x32, 0x14, 0x15, 0x00,
  0x0f, 0xed, 0x14, 0xc2, 0xfb, 0xd9, 0x03, 0x10, 0xf4, 0xd3, 0xf9, 0xe8,
  0x4e, 0xeb, 0xfb, 0xf6, 0x06, 0x0f, 0xf8, 0xfa, 0xee, 0xf6, 0xf5, 0xf8,
  0xf2, 0x08, 0x06, 0xfe, 0x30, 0x0b, 0xf8, 0x1c, 0x02, 0x23, 0xee, 0x05,
  0x00, 0x15, 0x15, 0x1a, 0xeb, 0xfc, 0x19, 0x00, 0x12, 0xfa, 0x46, 0xf6,
  0x10, 0x01, 0xe0, 0x1e, 0xf0, 0xfd, 0x16, 0xd9, 0xec, 0xad, 0xfc, 0x29,
  0xe6, 0x11, 0xd1, 0xd9, 0xd4, 0x12, 0xfd, 0xef, 0x2d, 0x30, 0x29, 0xfd,
  0xfc, 0xf4, 0xe6, 0x06, 0xf8, 0x0d, 0x2f, 0x04, 0xff, 0x2d, 0xe5, 0xd8,
  0xab, 0xe1, 0xc8, 0x04, 0xe2, 0x0c, 0x05, 0x2d, 0xcb, 0xda, 0xe1, 0x28,
  0x19, 0xca, 0x25, 0xdc, 0x03, 0xf4, 0xfc, 0x03, 0x1b, 0xda, 0x07, 0xe1,
  0x23, 0xff, 0x02, 0xcd, 0xe3, 0xe4, 0xfd, 0x0c, 0xf1, 0x19, 0xe2, 0x06,
  0xca, 0xc4, 0x23, 0xed, 0x17, 0x00, 0x7f, 0x03, 0x06, 0xa5, 0xd3, 0xb7,
  0xdc, 0xe1, 0xec, 0x08, 0x19, 0xfd, 0x06, 0xf2, 0x08, 0xf7, 0x06, 0xf1,
  0xf6, 0xed, 0xfd, 0xde, 0x04, 0xfc, 0xe9, 0xfa, 0x23, 0xed, 0x21, 0x0e,
  0xfe, 0xfa, 0xff, 0xf7, 0x04, 0x20, 0xf4, 0xde, 0x02, 0x15, 0xec, 0xf4,
  0xf4, 0xeb, 0x2d, 0x01, 0x00, 0xf9, 0x0b, 0xfa, 0x0d, 0xe0, 0xfa, 0xf9,
  0xfe, 0xee, 0x0e, 0xd0, 0x0a, 0xb0, 0x11, 0xfd, 0x0a, 0x02, 0xd4, 0x1f,
  0xde, 0xef, 0x19, 0x10, 0xf9, 0xe0, 0x4c, 0xe5, 0xee, 0x14, 0xd3, 0xf6,
  0xf1, 0xf7, 0x0f, 0x21, 0xf8, 0x08, 0x0e, 0x12, 0xc0, 0xe9, 0x22, 0xf1,
  0xf9, 0xed, 0xf9, 0x05, 0xb0, 0xd7, 0xc5, 0x14, 0xe7, 0xd0, 0xeb, 0xe7,
  0x0d, 0xf1, 0xe5, 0xfe, 0xf3, 0xc8, 0xfe, 0x38, 0xff, 0x4c, 0x22, 0xf9,
  0x0b, 0x03, 0x26, 0xf3, 0x0c, 0x13, 0xf3, 0xfc, 0xdd, 0xe6, 0x22, 0xe1,
  0x21, 0x09, 0x11, 0x04, 0xd5, 0xf9, 0xd5, 0xbd, 0xef, 0xe1, 0x0b, 0x0d,
  0xfa, 0x03, 0x07, 0xfc, 0xf1, 0xff, 0xf5, 0xf1, 0x1a, 0x16, 0x02, 0xe7,
  0x12, 0xf7, 0xdd, 0x05, 0x1f, 0x17, 0x0e, 0x02, 0xeb, 0xda, 0x23, 0xeb,
  0x01, 0x09, 0xfa, 0x07, 0xe4, 0x0c, 0x00, 0xeb, 0xfe, 0x0e, 0x10, 0xef,
  0xfe, 0xfa, 0xf1, 0x0f, 0x05, 0xec, 0x07, 0xef, 0xf8, 0xf8, 0xf2, 0xf4,
  0xf3, 0x1a, 0x17, 0xe7, 0xfb, 0x05, 0xff, 0x1b, 0xc5, 0x1f, 0x23, 0x23,
  0xec, 0xd9, 0x0e, 0x0a, 0xef, 0x18, 0xf2, 0xf2, 0xe2, 0x08, 0xd6, 0x13,
  0x12, 0x00, 0xfb, 0xfb, 0xf1, 0x10, 0x59, 0xf8, 0xe7, 0xff, 0xe7, 0x0f,
  0xe0, 0x07, 0xd5, 0xf5, 0xf6, 0xf7, 0x0c, 0x11, 0xf3, 0xe7, 0xea, 0x01,
  0xdd, 0xbe, 0x1a, 0x01, 0x07, 0xfc, 0xce, 0x1b, 0x17, 0x09, 0x12, 0xd6,
  0xf4, 0xef, 0xf4, 0xea, 0xfb, 0x1f, 0xf0, 0x04, 0x13, 0xe8, 0xc1, 0x0c,
  0xfc, 0x1c, 0x07, 0xe3, 0x10, 0x05, 0x12, 0xee, 0x29, 0x15, 0xe0, 0x01,
  0x11, 0xfb, 0xf1, 0xea, 0x11, 0xfd, 0xfc, 0x01, 0x03, 0xf8, 0x02, 0x00,
  0x02, 0x1d, 0xff, 0x15, 0xff, 0x18, 0x0e, 0x0e, 0xfa, 0xfd, 0xf1, 0x06,
  0x11, 0xe6, 0xfe, 0xe6, 0x08, 0x26, 0xf6, 0xfb, 0xec, 0xee, 0xf3, 0xf9,
  0x12, 0x18, 0xee, 0x20, 0xe1, 0xf8, 0x0b, 0x05, 0x27, 0xa7, 0x18, 0xe0,
  0xf6, 0x07, 0x04, 0xec, 0x09, 0xe5, 0x15, 0xe4, 0x13, 0x1c, 0xde, 0xfd,
  0x0f, 0xfb, 0xf9, 0xe5, 0xf0, 0x00, 0x04, 0x01, 0xeb, 0xe9, 0xde, 0xf2,
  0xed, 0x0b, 0xe0, 0xe9, 0xc6, 0xe2, 0x02, 0x06, 0xd5, 0x12, 0x0b, 0xf8,
  0x01, 0x0d, 0x02, 0x0c, 0x10, 0x0c, 0xf3, 0x2b, 0xe7, 0xc7, 0xfb, 0xd5,
  0x30, 0xef, 0xdb, 0xeb, 0xef, 0xdc, 0xed, 0xf5, 0xe6, 0x08, 0x15, 0x1c,
  0x06, 0x09, 0x1a, 0x06, 0x0e, 0x12, 0x2b, 0x02, 0x23, 0x03, 0xc9, 0xdd,
  0x12, 0xf9, 0xe1, 0x1a, 0x37, 0xe1, 0xf5, 0x02, 0xfc, 0xef, 0xf0, 0xf3,
  0x0b, 0x05, 0xdd, 0x0d, 0xf6, 0xee, 0xfc, 0x03, 0x18, 0x03, 0xeb, 0xe9,
  0x2c, 0x22, 0xeb, 0x0f, 0xec, 0x13, 0x00, 0x07, 0x14, 0x0d, 0x11, 0xfe,
  0xed, 0x47, 0x08, 0xf8, 0xfd, 0xe1, 0xfb, 0x00, 0xf2, 0xfa, 0xc3, 0x05,
  0xf2, 0xda, 0xf7, 0x13, 0x12, 0xe9, 0x05, 0xd1, 0xe2, 0xee, 0x1f, 0xfe,
  0x05, 0x0b, 0xdf, 0xd2, 0xf3, 0x30, 0xde, 0x20, 0xed, 0xcd, 0x08, 0xfd,
  0xe7, 0x48, 0xf9, 0xd8, 0xdc, 0xdf, 0x0b, 0xe5, 0x10, 0xe1, 0xd8, 0xed,
  0xce, 0x16, 0xe5, 0xe2, 0xd8, 0xbe, 0x1c, 0xc6, 0x05, 0x0e, 0xe1, 0x0c,
  0x0b, 0xce, 0x00, 0xff, 0xe7, 0x01, 0xf4, 0xf0, 0x15, 0x23, 0xc9, 0x47,
  0xfc, 0x13, 0x2c, 0xf4, 0xd8, 0x1c, 0x0e, 0x04, 0x04, 0x0e, 0x09, 0x2b,
  0xfc, 0x18, 0x0f, 0x0a, 0xf8, 0x01, 0xd1, 0x09, 0x05, 0x07, 0xfd, 0x22,
  0xf1, 0xea, 0xfb, 0x1c, 0xcc, 0xed, 0x0b, 0x03, 0x2a, 0xe8, 0xba, 0xe9,
  0xf8, 0x00, 0xf7, 0x03, 0x06, 0x0f, 0xc7, 0xfb, 0x1d, 0xf6, 0xfb, 0x07,
  0xdd, 0x10, 0x09, 0x02, 0x17, 0x27, 0xec, 0x0f, 0xe7, 0x7e, 0x1f, 0x05,
  0xfa, 0xdc, 0xf2, 0x0c, 0x0d, 0xff, 0x9b, 0xcf, 0xe7, 0xe6, 0xfc, 0x3e,
  0x17, 0xc3, 0xe8, 0xe8, 0xe3, 0xd0, 0x06, 0xef, 0xe5, 0x72, 0x07, 0xb0,
  0xe0, 0x48, 0xeb, 0xf6, 0xee, 0x05, 0x04, 0xfd, 0xf0, 0x1e, 0xef, 0xfe,
  0xfb, 0x9c, 0x1d, 0x1d, 0x08, 0x9e, 0xf3, 0xdf, 0xf6, 0x12, 0xd4, 0xc9,
  0xf4, 0xe3, 0xec, 0xe4, 0x0a, 0xb9, 0xaf, 0xf9, 0x10, 0xcc, 0xf8, 0x0a,
  0x08, 0x22, 0xb4, 0xc4, 0xe4, 0x23, 0xc9, 0x24, 0x0c, 0xf3, 0x3a, 0xfb,
  0xd9, 0x26, 0x19, 0xde, 0xd4, 0xfb, 0xf2, 0x0a, 0xd5, 0x20, 0xf6, 0x04,
  0x9c, 0xd5, 0xcb, 0x05, 0xf8, 0xbd, 0xef, 0xd8, 0xd7, 0xf0, 0xeb, 0x04,
  0xd5, 0xfe, 0x0d, 0xfd, 0x18, 0xca, 0xcc, 0xef, 0x05, 0x08, 0xf7, 0x09,
  0xf8, 0xd5, 0xd3, 0xee, 0x05, 0xf8, 0xf7, 0xfc, 0x1a, 0xf9, 0xf2, 0xee,
  0x02, 0xeb, 0xf8, 0x12, 0xe4, 0x30, 0x15, 0xf7, 0x04, 0xc8, 0x14, 0xfd,
  0x08, 0x15, 0xc6, 0xff, 0xfc, 0xfd, 0x00, 0x39, 0xf8, 0xa2, 0x12, 0xfe,
  0xf7, 0xe9, 0xf2, 0xda, 0xb9, 0x52, 0x27, 0xdb, 0xd9, 0xd2, 0xdf, 0xc7,
  0xf9, 0x05, 0xe9, 0xef, 0xe5, 0xfa, 0xe3, 0x00, 0xb7, 0xd5, 0xe1, 0x2a,
  0xf2, 0xec, 0x24, 0xf2, 0x10, 0xd4, 0xcd, 0xdf, 0xe4, 0x16, 0x04, 0xf2,
  0xf5, 0xc2, 0xb1, 0xf0, 0xff, 0xe9, 0xf3, 0x04, 0xc9, 0xde, 0xdc, 0xc2,
  0xf7, 0x10, 0xfd, 0xe5, 0xdb, 0xf7, 0xe8, 0xf9, 0xcc, 0x0c, 0x1f, 0x02,
  0xf8, 0x1f, 0xd5, 0xec, 0xeb, 0x05, 0xd9, 0x22, 0xcd, 0xdb, 0xde, 0xfc,
  0xe1, 0xe9, 0x12, 0xfb, 0xdd, 0x0c, 0xf0, 0xf8, 0x10, 0xfb, 0x05, 0xf7,
  0x12, 0xeb, 0x15, 0x02, 0x00, 0x06, 0xfe, 0xf8, 0xd7, 0x01, 0x12, 0xc6,
  0x06, 0xfa, 0xf6, 0xfb, 0xf7, 0xff, 0xfb, 0xe0, 0x0f, 0x05, 0xf6, 0x05,
  0x18, 0xa9, 0xe7, 0xfa, 0x15, 0xed, 0xeb, 0x0b, 0x0b, 0xd2, 0xd4, 0x12,
  0x1c, 0xff, 0xf7, 0x0b, 0x03, 0x23, 0x16, 0x1e, 0x01, 0x04, 0x08, 0x42,
  0xad, 0x20, 0x19, 0x1d, 0xdf, 0xb9, 0x0b, 0xc9, 0x00, 0xd2, 0xe8, 0xea,
  0xcc, 0x15, 0xe3, 0xf0, 0xe1, 0x20, 0x2c, 0xe2, 0xd3, 0x05, 0x06, 0x04,
  0xf8, 0xf5, 0xb7, 0xcc, 0xf7, 0xfd, 0xd9, 0x0f, 0xec, 0xfe, 0xe7, 0x00,
  0x13, 0x25, 0x07, 0x15, 0x0c, 0xf2, 0x3e, 0xc3, 0x18, 0x26, 0x25, 0x05,
  0xdc, 0x3f, 0xd8, 0xf6, 0xe3, 0x01, 0xdb, 0xc6, 0x0f, 0x13, 0xf4, 0x05,
  0xf8, 0x08, 0xf2, 0xe6, 0x22, 0xf2, 0x08, 0x0f, 0xdb, 0xee, 0xdd, 0x0a,
  0x07, 0x01, 0x07, 0xff, 0xf8, 0xf5, 0xf0, 0x03, 0xf6, 0xfb, 0xec, 0xfb,
  0x05, 0x08, 0x16, 0x10, 0xe6, 0x05, 0x1c, 0x08, 0xe8, 0xe1, 0xf9, 0x25,
  0xf2, 0x1c, 0xd9, 0xfd, 0xee, 0xf7, 0x0b, 0xee, 0xf4, 0xfd, 0x0b, 0x15,
  0x07, 0x08, 0x00, 0xe7, 0xcd, 0x04, 0xd1, 0x3d, 0x29, 0xd3, 0x2a, 0x49,
  0x1a, 0x1e, 0x0c, 0xd5, 0xfa, 0x06, 0x0a, 0xcb, 0x20, 0xfc, 0x14, 0x02,
  0xec, 0xff, 0x02, 0x22, 0xe1, 0x04, 0xe9, 0x13, 0xf9, 0x02, 0xfe, 0x04,
  0xfc, 0x11, 0xf7, 0x07, 0x15, 0x1c, 0x0e, 0x2e, 0xde, 0xe9, 0x0a, 0xe7,
  0xf5, 0xcf, 0xd1, 0x02, 0xfa, 0xfe, 0x1a, 0x03, 0x16, 0x05, 0x0d, 0x0f,
  0x0e, 0xea, 0xc9, 0x02, 0xda, 0x06, 0xe4, 0xe6, 0xd3, 0xf9, 0x0c, 0xdd,
  0x11, 0x08, 0xe1, 0x01, 0xe1, 0xfb, 0xf6, 0x07, 0xf7, 0x07, 0xfb, 0x01,
  0xfc, 0xf9, 0x0f, 0x0f, 0xfa, 0x29, 0xcf, 0xf8, 0x0d, 0xef, 0xf1, 0xe7,
  0xeb, 0xf5, 0x0e, 0xfb, 0x02, 0xec, 0xf8, 0x14, 0xfa, 0xe9, 0x01, 0xfe,
  0xf8, 0xef, 0xfa, 0xf7, 0xd9, 0x08, 0x20, 0xfc, 0xde, 0x17, 0x03, 0x18,
  0x0f, 0xef, 0xe8, 0x19, 0xf7, 0xf5, 0xe2, 0x01, 0xe6, 0xf7, 0x02, 0xce,
  0xfb, 0x03, 0xd5, 0x32, 0xe9, 0xe4, 0xfc, 0x1f, 0x1d, 0x24, 0xf2, 0xdb,
  0xf3, 0x0f, 0x02, 0xe6, 0x18, 0xeb, 0x04, 0xd6, 0xfb, 0x14, 0x00, 0xf0,
  0xdf, 0xed, 0xf5, 0x0d, 0xe4, 0xdc, 0x08, 0x09, 0x08, 0x0f, 0xef, 0x3f,
  0x18, 0xf0, 0x06, 0x22, 0xd6, 0xd5, 0x06, 0x48, 0x0e, 0xc5, 0xe8, 0x32,
  0x0c, 0x00, 0x19, 0x00, 0x17, 0xe3, 0xeb, 0x1a, 0x03, 0xdb, 0x2e, 0xd6,
  0xf5, 0xf6, 0x0c, 0xeb, 0xec, 0xf0, 0x10, 0xcb, 0xf4, 0xf9, 0xed, 0xd0,
  0xdb, 0x0a, 0x05, 0xff, 0xe6, 0xe6, 0xda, 0xde, 0xe4, 0x29, 0xf4, 0xfd,
  0x02, 0x08, 0xef, 0xfd, 0x1c, 0x05, 0xf0, 0xe8, 0x18, 0xed, 0xfe, 0x04,
  0x17, 0xec, 0x0b, 0xf9, 0x05, 0xe5, 0x08, 0x04, 0xf9, 0x02, 0x03, 0xec,
  0xcc, 0x09, 0x0c, 0xf5, 0xed, 0xfe, 0xef, 0xfc, 0x1a, 0xf8, 0x0c, 0x02,
  0x18, 0xe6, 0xea, 0xed, 0xea, 0xef, 0xdc, 0xec, 0x1f, 0xef, 0x13, 0x22,
  0xeb, 0xfd, 0xe3, 0x26, 0x07, 0x19, 0xf9, 0xdd, 0x07, 0xed, 0xf5, 0xd4,
  0xd0, 0xf0, 0xf6, 0xf3, 0x03, 0xd8, 0x07, 0xe9, 0xc9, 0xe0, 0xfb, 0xf9,
  0xfc, 0xf2, 0xfd, 0x18, 0xf8, 0x27, 0xd0, 0x67, 0x22, 0xe9, 0xfc, 0x23,
  0xcc, 0xd6, 0xfa, 0x2b, 0x07, 0xbc, 0xd4, 0xe2, 0x05, 0x0f, 0xe3, 0xda,
  0x13, 0x11, 0xf2, 0xd8, 0x27, 0x1a, 0xf0, 0x03, 0x1f, 0x44, 0x0e, 0xe7,
  0xea, 0xd6, 0xf0, 0xdd, 0xe2, 0xf9, 0xf9, 0xe4, 0xe5, 0xdc, 0x17, 0xb6,
  0x06, 0xd1, 0xcc, 0x96, 0xfb, 0x25, 0xf0, 0xe8, 0xf1, 0xf7, 0x08, 0xcd,
  0x02, 0x02, 0xf8, 0xee, 0x38, 0xf9, 0x00, 0x06, 0x10, 0xf6, 0xf0, 0xd8,
  0x0a, 0x09, 0xfc, 0xec, 0xf2, 0xe0, 0xf4, 0xfe, 0xc9, 0x06, 0x20, 0xf4,
  0x0f, 0x03, 0xf0, 0xc9, 0x15, 0xfb, 0x17, 0x04, 0x0d, 0x01, 0x0f, 0xed,
  0x0a, 0xff, 0xe0, 0xda, 0x0d, 0x16, 0x23, 0xe7, 0xe5, 0x07, 0xe5, 0xe6,
  0x23, 0xe5, 0xfd, 0xb4, 0xe4, 0x0e, 0x02, 0xd6, 0xe6, 0xf3, 0xdc, 0xbc,
  0xef, 0xc4, 0xf5, 0x24, 0xc8, 0xe1, 0x02, 0x1a, 0xf5, 0x00, 0xf6, 0xf4,
  0x03, 0x1b, 0xdf, 0x7f, 0xd7, 0xfd, 0x02, 0xdb, 0xc2, 0xe9, 0xe9, 0x0e,
  0xd3, 0xda, 0xf7, 0xc1, 0xd8, 0xfb, 0xe3, 0xe7, 0xd1, 0xf1, 0xed, 0xe0,
  0xfd, 0x06, 0xfb, 0x04, 0xeb, 0x33, 0xed, 0xc3, 0xe0, 0xef, 0xe2, 0x3e,
  0xde, 0xf4, 0xe8, 0x26, 0x02, 0x03, 0x29, 0xbf, 0xfe, 0xe8, 0xd2, 0xb7,
  0x19, 0xfd, 0x10, 0xf0, 0x28, 0xe9, 0x06, 0xd4, 0x0e, 0x0e, 0xf1, 0x01,
  0x0a, 0x09, 0x09, 0xf9, 0x12, 0x09, 0xfb, 0x14, 0x2b, 0x06, 0x02, 0x14,
  0xf1, 0xd5, 0x0a, 0x0d, 0xec, 0x29, 0x01, 0x25, 0x0a, 0xec, 0x05, 0xe7,
  0x05, 0xfd, 0xfa, 0x34, 0x05, 0x0b, 0x01, 0x2f, 0x0c, 0x1f, 0x1d, 0x00,
  0x07, 0x11, 0x0d, 0xf8, 0xfc, 0xf1, 0x01, 0xe4, 0xfb, 0xf3, 0x01, 0xca,
  0xec, 0x24, 0xf2, 0x1c, 0xfd, 0xea, 0xf5, 0x0a, 0xba, 0xaf, 0xe4, 0x22,
  0xde, 0xef, 0xfd, 0x30, 0x13, 0x33, 0x18, 0x1e, 0xfa, 0xee, 0x01, 0xe9,
  0xf6, 0x0f, 0xf6, 0xcc, 0xc0, 0xf3, 0xe5, 0x29, 0x0c, 0xfd, 0xfa, 0xa4,
  0xec, 0x14, 0xf1, 0x15, 0xee, 0xf8, 0xf3, 0xff, 0x17, 0xe5, 0xd9, 0xee,
  0x1b, 0x27, 0xf7, 0xee, 0xdc, 0x15, 0xe2, 0x31, 0xfb, 0xe3, 0xd0, 0x2b,
  0x2b, 0x1d, 0xd8, 0x3a, 0xeb, 0x18, 0x12, 0xf2, 0x26, 0xe5, 0xf2, 0xe8,
  0x58, 0x0a, 0xfa, 0xfc, 0xe0, 0x2a, 0x08, 0xc5, 0x01, 0x1f, 0xe5, 0xfe,
  0xfe, 0x22, 0x09, 0x0f, 0xfa, 0x0a, 0xfc, 0xf3, 0x24, 0xff, 0xf7, 0x0d,
  0x0a, 0x16, 0xeb, 0x04, 0x1d, 0xd7, 0xee, 0x1e, 0xe2, 0x30, 0xe3, 0xe0,
  0xee, 0x1c, 0xec, 0x0a, 0xfa, 0x0e, 0x11, 0xf4, 0x22, 0x2c, 0x28, 0x01,
  0x2e, 0x19, 0xd5, 0xef, 0xee, 0x26, 0xc2, 0x3a, 0x30, 0x05, 0xf6, 0x0a,
  0x0d, 0xab, 0x10, 0xf5, 0x10, 0xf4, 0x0b, 0xe0, 0xee, 0x31, 0xf3, 0xfb,
  0x1c, 0xfe, 0xe9, 0xf9, 0xf4, 0xdb, 0xee, 0x1e, 0xf9, 0x2b, 0xec, 0xdf,
  0xbe, 0x12, 0x03, 0xf2, 0xf4, 0xfb, 0xee, 0xd7, 0xf9, 0xdc, 0x2f, 0xfb,
  0x00, 0xeb, 0x0d, 0x00, 0x26, 0x09, 0xbd, 0x2e, 0xff, 0x02, 0xef, 0x10,
  0x03, 0x00, 0xdb, 0x30, 0xe6, 0x13, 0x0c, 0xf1, 0xe5, 0x12, 0x05, 0x10,
  0x08, 0x11, 0x12, 0xe8, 0x06, 0x0c, 0x29, 0x26, 0x37, 0xdd, 0x05, 0xe6,
  0x01, 0xfd, 0xf6, 0x3b, 0x03, 0x17, 0xde, 0x04, 0xf7, 0x1a, 0x03, 0xf2,
  0x1a, 0x19, 0xf7, 0xf2, 0x28, 0xff, 0x07, 0x03, 0x16, 0x0f, 0x0b, 0x03,
  0xfe, 0x30, 0x12, 0x06, 0xdb, 0x19, 0xe9, 0x03, 0xc7, 0x0a, 0x2d, 0xe6,
  0xf3, 0x1e, 0xfb, 0xf4, 0x0d, 0x06, 0x18, 0xc8, 0x1f, 0xd5, 0xff, 0xd7,
  0xf3, 0x29, 0xc1, 0x2e, 0x38, 0xd5, 0x0a, 0x17, 0x23, 0xa3, 0x2b, 0x10,
  0xed, 0x0d, 0x10, 0x13, 0xe3, 0x0d, 0xf4, 0xdb, 0x10, 0xf4, 0xf2, 0xe8,
  0x15, 0x15, 0xd3, 0xe7, 0x08, 0xe3, 0xf1, 0x03, 0x0d, 0x6f, 0x1d, 0x20,
  0x05, 0xd8, 0xda, 0xaf, 0xec, 0xa9, 0x10, 0xfa, 0x18, 0xed, 0x08, 0x1f,
  0x2d, 0xcf, 0xf3, 0x0f, 0xf5, 0xcd, 0x07, 0x1a, 0xc9, 0x0e, 0xbb, 0xf7,
  0xaa, 0x08, 0x03, 0xe3, 0xfa, 0x0d, 0x26, 0x19, 0xff, 0x24, 0xed, 0xe7,
  0xec, 0x00, 0xe9, 0x29, 0xfd, 0xeb, 0xf5, 0xe6, 0x2e, 0xf2, 0xfa, 0x5c,
  0x00, 0xfc, 0xf7, 0xe9, 0x09, 0xc0, 0xfb, 0xfd, 0x28, 0xe7, 0xf9, 0x15,
  0x13, 0x0f, 0xe5, 0xd3, 0x09, 0xf5, 0x1e, 0x0e, 0xd6, 0x2b, 0x1f, 0xe4,
  0x32, 0x01, 0xf2, 0x03, 0x04, 0xf4, 0x57, 0xf6, 0x02, 0xf1, 0xe2, 0xfb,
  0xfd, 0xda, 0x21, 0xf5, 0xee, 0xe2, 0x00, 0xd2, 0xed, 0xe4, 0xb6, 0xf3,
  0xf1, 0xc8, 0xf4, 0xf3, 0xe6, 0x01, 0x53, 0xea, 0xd7, 0x29, 0xc2, 0x16,
  0x1c, 0xfb, 0x07, 0xeb, 0x04, 0xe6, 0x0a, 0xfc, 0x0f, 0x11, 0xca, 0xf2,
  0x15, 0xe1, 0xed, 0xb2, 0x33, 0x16, 0xf7, 0x10, 0x16, 0xec, 0xe9, 0xd3,
  0xe0, 0x81, 0xcb, 0xf6, 0xcf, 0x0d, 0xe6, 0x05, 0x0b, 0xc7, 0x31, 0xf7,
  0xfa, 0xa8, 0x48, 0xee, 0x99, 0x0d, 0x21, 0xca, 0xb9, 0xf9, 0xe4, 0x07,
  0x22, 0xaa, 0x4d, 0xd0, 0xe5, 0xcf, 0x15, 0xf3, 0xf7, 0xeb, 0x9f, 0xc2,
  0xa5, 0xea, 0xd9, 0xa1, 0x24, 0xe0, 0x2b, 0x0b, 0x07, 0x08, 0xff, 0x12,
  0x18, 0x89, 0xec, 0xfe, 0x27, 0xee, 0xff, 0x14, 0xbc, 0x0c, 0xc1, 0xcc,
  0xe2, 0xe5, 0x22, 0xec, 0xf8, 0xcd, 0xd3, 0xec, 0x35, 0x19, 0xe9, 0xfb,
  0x22, 0xe6, 0xfe, 0x07, 0x0d, 0xe6, 0xf2, 0x02, 0x24, 0x95, 0xd5, 0x0b,
  0x07, 0x08, 0xf9, 0xc9, 0xde, 0xb7, 0xef, 0xf3, 0xde, 0xfe, 0xf7, 0xee,
  0xed, 0x3b, 0xfa, 0xc8, 0xa7, 0x06, 0xb4, 0xbb, 0x1d, 0xde, 0xfa, 0xf0,
  0x05, 0x01, 0x12, 0x13, 0x00, 0x24, 0xdf, 0xd5, 0xd5, 0x06, 0x0e, 0xac,
  0x1e, 0x14, 0x02, 0x07, 0x44, 0xf4, 0xcd, 0x29, 0xe3, 0xbb, 0xc4, 0xe3,
  0xca, 0x0c, 0x05, 0xdd, 0xed, 0x33, 0xcd, 0xe4, 0xbd, 0x10, 0xee, 0xfe,
  0xae, 0x35, 0x49, 0xbd, 0x57, 0x02, 0x06, 0x28, 0xf9, 0xa9, 0x2d, 0xf2,
  0xde, 0xd0, 0x08, 0x06, 0x16, 0xcc, 0x0f, 0xc0, 0x5a, 0xfd, 0x08, 0xe4,
  0x0b, 0xe7, 0x14, 0xeb, 0x0b, 0x01, 0x00, 0x0e, 0x0f, 0xd7, 0xfb, 0xfb,
  0x13, 0x04, 0x00, 0x0c, 0xbe, 0x12, 0xeb, 0xe1, 0xf1, 0xed, 0x14, 0xd2,
  0xee, 0xf1, 0xf7, 0x0b, 0xef, 0x13, 0xe3, 0xff, 0x0b, 0xf1, 0xbf, 0x28,
  0x07, 0xf6, 0xef, 0xf3, 0x06, 0xa1, 0xdc, 0xf0, 0xf3, 0xe1, 0xe3, 0x03,
  0x1c, 0xb1, 0x45, 0xe2, 0xef, 0x10, 0x3a, 0x2b, 0xf2, 0x63, 0xed, 0xde,
  0xb5, 0xed, 0xd8, 0xa6, 0xee, 0x0e, 0xd7, 0xf5, 0xfb, 0xf9, 0x11, 0x07,
  0xff, 0xe2, 0x15, 0xec, 0xf4, 0xf8, 0x14, 0xe1, 0x55, 0xdc, 0xe8, 0x11,
  0x39, 0xf7, 0x00, 0xfa, 0xd5, 0x2a, 0xfc, 0x10, 0xf4, 0x07, 0x07, 0xf4,
  0x05, 0x37, 0xdb, 0xdd, 0xdc, 0xc8, 0x1a, 0xc2, 0xb0, 0x0d, 0x0d, 0xc8,
  0x51, 0x05, 0xf3, 0x13, 0x00, 0xe3, 0x21, 0x09, 0xff, 0x00, 0x02, 0x0e,
  0x25, 0xee, 0x05, 0x10, 0x45, 0x18, 0xf1, 0xf9, 0xf3, 0xf8, 0xf7, 0x01,
  0x00, 0x05, 0xfc, 0xfd, 0x07, 0xf5, 0xf3, 0x05, 0x0f, 0xf3, 0x03, 0xea,
  0x1f, 0x20, 0xef, 0xfe, 0x42, 0x1c, 0x03, 0x12, 0xf2, 0x1e, 0x1a, 0x04,
  0x08, 0xef, 0xfa, 0xef, 0x14, 0x15, 0x13, 0xf6, 0xff, 0x00, 0x03, 0xfd,
  0x0a, 0x0f, 0xef, 0xf5, 0x12, 0x1c, 0x1a, 0xd4, 0xf5, 0xc3, 0xf8, 0x2e,
  0xea, 0x1a, 0xe5, 0x08, 0x1a, 0x1c, 0x14, 0xfa, 0x19, 0x0e, 0x1f, 0xee,
  0x00, 0xed, 0x0d, 0xdc, 0x02, 0xe0, 0x08, 0xe4, 0x1f, 0x20, 0xfa, 0xf0,
  0xe0, 0x0f, 0x16, 0xf1, 0x20, 0x06, 0x00, 0xbd, 0xd3, 0xf0, 0xce, 0xeb,
  0x19, 0x16, 0xf4, 0x02, 0x1c, 0xee, 0x09, 0xe5, 0xff, 0xf2, 0xfd, 0x22,
  0x35, 0xd4, 0xa0, 0x06, 0xf0, 0xee, 0xfd, 0xb6, 0x19, 0x41, 0x17, 0xe7,
  0xf3, 0x14, 0x02, 0x0c, 0xfb, 0x26, 0xe6, 0x01, 0x05, 0x0d, 0x07, 0xc5,
  0x16, 0x0e, 0xd5, 0xfb, 0x11, 0x00, 0xf8, 0xff, 0x25, 0xf8, 0xf9, 0xf3,
  0xf9, 0xfd, 0xfb, 0xf3, 0xf2, 0xfe, 0xfd, 0xeb, 0xf4, 0x1d, 0xf1, 0xff,
  0x23, 0x0d, 0xf8, 0x03, 0x08, 0x04, 0x07, 0x15, 0xdc, 0xde, 0x0f, 0xf3,
  0x08, 0x06, 0x01, 0x0b, 0x1b, 0xfb, 0xe1, 0xf8, 0x0e, 0x0d, 0x25, 0x53,
  0xff, 0x00, 0x0b, 0xb2, 0x02, 0xcd, 0xec, 0x0d, 0xe0, 0x16, 0xeb, 0xf8,
  0xf3, 0xd1, 0x26, 0xf2, 0x30, 0x18, 0x21, 0xe2, 0xfb, 0x04, 0x05, 0x04,
  0xfd, 0xe8, 0x12, 0xcf, 0x10, 0x32, 0xf3, 0xc0, 0xe2, 0x0a, 0xb6, 0x14,
  0x08, 0xf6, 0xe0, 0x2f, 0xfe, 0x08, 0xdf, 0xf1, 0xfe, 0xfc, 0x07, 0xf2,
  0xf6, 0xfc, 0xf5, 0xee, 0x08, 0xe8, 0xea, 0x0f, 0x2c, 0xe7, 0x01, 0xd6,
  0xe6, 0xd2, 0xfe, 0xd3, 0x30, 0x18, 0x15, 0x06, 0xcf, 0xf1, 0xf7, 0x1f,
  0x1a, 0xf1, 0x05, 0x0e, 0x12, 0xc7, 0x25, 0xec, 0xf1, 0xfb, 0xe8, 0xe4,
  0x04, 0x04, 0x0a, 0xf7, 0x25, 0x07, 0xef, 0x02, 0xfb, 0xcd, 0xfb, 0xd6,
  0xfa, 0xf4, 0xfc, 0xea, 0xf5, 0x07, 0xf3, 0xf8, 0x41, 0x0d, 0xe9, 0xf9,
  0x12, 0x2e, 0xe8, 0xb8, 0xd4, 0xf9, 0xd8, 0xea, 0xe6, 0xe6, 0xe2, 0x03,
  0x31, 0xf6, 0x27, 0xf5, 0x12, 0xdd, 0xfc, 0x2c, 0xff, 0x00, 0x49, 0xa1,
  0x1a, 0xc6, 0xdf, 0x27, 0xca, 0x2d, 0xfb, 0xe7, 0xce, 0xc3, 0xef, 0x13,
  0x42, 0xfa, 0x30, 0xe4, 0xef, 0x07, 0xf9, 0x0a, 0xfc, 0xf1, 0x41, 0xe8,
  0x1a, 0x25, 0x0d, 0xd8, 0xcf, 0x17, 0xd7, 0x0b, 0x09, 0xe3, 0xe6, 0x63,
  0xc9, 0xf6, 0x9f, 0x05, 0x1f, 0xd9, 0x1b, 0xdc, 0x11, 0xe8, 0xeb, 0xf2,
  0xe7, 0xfd, 0x01, 0xcc, 0x2d, 0x05, 0xf6, 0x06, 0xe7, 0xcb, 0xf5, 0xee,
  0x16, 0x28, 0xee, 0xf1, 0xcb, 0xd3, 0xfa, 0xea, 0x17, 0x02, 0xfb, 0x0b,
  0x09, 0xc9, 0xd2, 0xd5, 0xe4, 0xee, 0xf2, 0x00, 0xfc, 0x07, 0x17, 0x0b,
  0xed, 0xf4, 0xf9, 0x01, 0xf1, 0xcf, 0xf1, 0xbd, 0x0c, 0xfa, 0xe7, 0xf7,
  0x22, 0x07, 0xfc, 0xe8, 0x0e, 0xf5, 0xee, 0x05, 0x04, 0x00, 0xd6, 0xa3,
  0xf0, 0x0b, 0x09, 0xf4, 0xde, 0xea, 0x13, 0x0b, 0x1b, 0xf5, 0x34, 0xf3,
  0x0f, 0xd9, 0x14, 0xe2, 0x15, 0xef, 0x10, 0xd3, 0x39, 0xd6, 0xfe, 0xf6,
  0xfa, 0x1f, 0xbf, 0xf9, 0xcc, 0xc8, 0xfe, 0x27, 0x32, 0xdb, 0x48, 0xdf,
  0xee, 0x14, 0xec, 0x04, 0xfc, 0x09, 0x19, 0x15, 0xf2, 0x29, 0x02, 0x24,
  0xf4, 0x24, 0x42, 0xeb, 0xe7, 0xf3, 0xef, 0x4b, 0xba, 0xf9, 0xc4, 0x08,
  0xea, 0xd7, 0xf8, 0x0b, 0xf3, 0x05, 0xed, 0xee, 0xd6, 0xd0, 0xe9, 0x09,
  0x0b, 0x24, 0x0e, 0x14, 0xe1, 0xf6, 0x24, 0x0c, 0x05, 0x12, 0x0e, 0xfa,
  0xc9, 0xeb, 0xfc, 0xd0, 0x1e, 0x0e, 0x31, 0x07, 0xda, 0x08, 0xe6, 0xea,
  0xf2, 0xe1, 0x0a, 0xfb, 0x05, 0xf3, 0x07, 0x06, 0xd5, 0xe8, 0x01, 0xfb,
  0x09, 0x18, 0x02, 0xda, 0x0c, 0xeb, 0x02, 0x05, 0x27, 0x07, 0x05, 0xf5,
  0xf3, 0xe5, 0xec, 0x03, 0x09, 0x0d, 0x04, 0xd9, 0xe9, 0xfb, 0x02, 0xf4,
  0xf5, 0x0f, 0x29, 0xf0, 0x09, 0x14, 0x07, 0x05, 0x10, 0xd1, 0x0a, 0xd3,
  0xe8, 0x0b, 0xde, 0xcd, 0x1f, 0x2d, 0xe9, 0xee, 0xdd, 0x0a, 0xea, 0x0b,
  0xdb, 0x27, 0x03, 0xf0, 0xf7, 0xdd, 0x0d, 0xf3, 0xf7, 0x01, 0xd5, 0x12,
  0xdc, 0xf3, 0xd6, 0x30, 0x04, 0x0f, 0x10, 0xfe, 0x30, 0xda, 0x4b, 0xd9,
  0xe9, 0x03, 0xdd, 0x14, 0xe4, 0xfa, 0xd4, 0xcc, 0x05, 0xd3, 0x0d, 0x1b,
  0xf3, 0xeb, 0x08, 0xfb, 0xca, 0xfb, 0xdf, 0x1a, 0x20, 0x08, 0x0f, 0x03,
  0x2c, 0xfa, 0x28, 0xce, 0xe5, 0x03, 0x03, 0x05, 0xf2, 0x08, 0x06, 0xfd,
  0xfd, 0x13, 0xfb, 0x03, 0xe7, 0x20, 0x18, 0x22, 0x25, 0xf7, 0x1b, 0xd7,
  0xfd, 0x0c, 0x0f, 0xe5, 0x07, 0x00, 0xf6, 0xf6, 0x06, 0xed, 0xfa, 0xf2,
  0x0a, 0x02, 0xfb, 0xf8, 0x06, 0xe8, 0xfc, 0x20, 0xf9, 0xfb, 0xf8, 0x2c,
  0xf5, 0xf0, 0xfa, 0xf4, 0xe2, 0xe5, 0x04, 0xf7, 0x06, 0xdd, 0xf4, 0x02,
  0xf9, 0x04, 0xee, 0xe4, 0x06, 0x4e, 0x2a, 0xd1, 0xdc, 0x1e, 0x0c, 0xfc,
