/*
 * Copyright 2025 The TensorFlow Authors. All Rights Reserved.
 *
 * Licensed under the Apache License, Version 2.0 (the "License");
 * you may not use this file except in compliance with the License.
 * You may obtain a copy of the License at
 *
 *     http://www.apache.org/licenses/LICENSE-2.0
 *
 * Unless required by applicable law or agreed to in writing, software
 * distributed under the License is distributed on an "AS IS" BASIS,
 * WITHOUT WARRANTIES OR CONDITIONS OF ANY KIND, either express or implied.
 * See the License for the specific language governing permissions and
 * limitations under the License.
 *
 * SPDX-License-Identifier: Apache-2.0
 */

#include "audio_preprocessor_int8_model.hpp"

alignas(8) const unsigned char g_audio_preprocessor_int8_model[] = {
        0x1c, 0x00, 0x00, 0x00, 0x54, 0x46, 0x4c, 0x33, 0x14, 0x00, 0x20, 0x00,
        0x1c, 0x00, 0x18, 0x00, 0x14, 0x00, 0x10, 0x00, 0x0c, 0x00, 0x00, 0x00,
        0x08, 0x00, 0x04, 0x00, 0x14, 0x00, 0x00, 0x00, 0x1c, 0x00, 0x00, 0x00,
        0x88, 0x00, 0x00, 0x00, 0xe0, 0x00, 0x00, 0x00, 0x80, 0x0e, 0x00, 0x00,
        0x90, 0x0e, 0x00, 0x00, 0xcc, 0x1f, 0x00, 0x00, 0x03, 0x00, 0x00, 0x00,
        0x01, 0x00, 0x00, 0x00, 0x04, 0x00, 0x00, 0x00, 0xe2, 0xeb, 0xff, 0xff,
        0x0c, 0x00, 0x00, 0x00, 0x1c, 0x00, 0x00, 0x00, 0x3c, 0x00, 0x00, 0x00,
        0x0f, 0x00, 0x00, 0x00, 0x73, 0x65, 0x72, 0x76, 0x69, 0x6e, 0x67, 0x5f,
        0x64, 0x65, 0x66, 0x61, 0x75, 0x6c, 0x74, 0x00, 0x01, 0x00, 0x00, 0x00,
        0x04, 0x00, 0x00, 0x00, 0x94, 0xff, 0xff, 0xff, 0x2a, 0x00, 0x00, 0x00,
        0x04, 0x00, 0x00, 0x00, 0x08, 0x00, 0x00, 0x00, 0x6f, 0x75, 0x74, 0x70,
        0x75, 0x74, 0x5f, 0x30, 0x00, 0x00, 0x00, 0x00, 0x01, 0x00, 0x00, 0x00,
        0x04, 0x00, 0x00, 0x00, 0xc2, 0xf5, 0xff, 0xff, 0x04, 0x00, 0x00, 0x00,
        0x0b, 0x00, 0x00, 0x00, 0x61, 0x75, 0x64, 0x69, 0x6f, 0x5f, 0x66, 0x72,
        0x61, 0x6d, 0x65, 0x00, 0x02, 0x00, 0x00, 0x00, 0x34, 0x00, 0x00, 0x00,
        0x04, 0x00, 0x00, 0x00, 0xdc, 0xff, 0xff, 0xff, 0x2d, 0x00, 0x00, 0x00,
        0x04, 0x00, 0x00, 0x00, 0x13, 0x00, 0x00, 0x00, 0x43, 0x4f, 0x4e, 0x56,
        0x45, 0x52, 0x53, 0x49, 0x4f, 0x4e, 0x5f, 0x4d, 0x45, 0x54, 0x41, 0x44,
        0x41, 0x54, 0x41, 0x00, 0x08, 0x00, 0x0c, 0x00, 0x08, 0x00, 0x04, 0x00,
        0x08, 0x00, 0x00, 0x00, 0x2c, 0x00, 0x00, 0x00, 0x04, 0x00, 0x00, 0x00,
        0x13, 0x00, 0x00, 0x00, 0x6d, 0x69, 0x6e, 0x5f, 0x72, 0x75, 0x6e, 0x74,
        0x69, 0x6d, 0x65, 0x5f, 0x76, 0x65, 0x72, 0x73, 0x69, 0x6f, 0x6e, 0x00,
        0x2e, 0x00, 0x00, 0x00, 0x9c, 0x0d, 0x00, 0x00, 0x94, 0x0d, 0x00, 0x00,
        0xc4, 0x09, 0x00, 0x00, 0x6c, 0x09, 0x00, 0x00, 0x48, 0x09, 0x00, 0x00,
        0x34, 0x09, 0x00, 0x00, 0x20, 0x09, 0x00, 0x00, 0x0c, 0x09, 0x00, 0x00,
        0xf8, 0x08, 0x00, 0x00, 0xec, 0x07, 0x00, 0x00, 0x88, 0x07, 0x00, 0x00,
        0x24, 0x07, 0x00, 0x00, 0xc0, 0x06, 0x00, 0x00, 0x38, 0x04, 0x00, 0x00,
        0xb0, 0x01, 0x00, 0x00, 0x9c, 0x01, 0x00, 0x00, 0x88, 0x01, 0x00, 0x00,
        0x74, 0x01, 0x00, 0x00, 0x60, 0x01, 0x00, 0x00, 0x4c, 0x01, 0x00, 0x00,
        0x44, 0x01, 0x00, 0x00, 0x3c, 0x01, 0x00, 0x00, 0x34, 0x01, 0x00, 0x00,
        0x2c, 0x01, 0x00, 0x00, 0x24, 0x01, 0x00, 0x00, 0x1c, 0x01, 0x00, 0x00,
        0x14, 0x01, 0x00, 0x00, 0x0c, 0x01, 0x00, 0x00, 0x04, 0x01, 0x00, 0x00,
        0xfc, 0x00, 0x00, 0x00, 0xf4, 0x00, 0x00, 0x00, 0xec, 0x00, 0x00, 0x00,
        0xe4, 0x00, 0x00, 0x00, 0xdc, 0x00, 0x00, 0x00, 0xd4, 0x00, 0x00, 0x00,
        0xcc, 0x00, 0x00, 0x00, 0xc4, 0x00, 0x00, 0x00, 0xbc, 0x00, 0x00, 0x00,
        0xb4, 0x00, 0x00, 0x00, 0xac, 0x00, 0x00, 0x00, 0xa4, 0x00, 0x00, 0x00,
        0x9c, 0x00, 0x00, 0x00, 0x94, 0x00, 0x00, 0x00, 0x8c, 0x00, 0x00, 0x00,
        0x6c, 0x00, 0x00, 0x00, 0x04, 0x00, 0x00, 0x00, 0xf2, 0xf6, 0xff, 0xff,
        0x04, 0x00, 0x00, 0x00, 0x58, 0x00, 0x00, 0x00, 0x0c, 0x00, 0x00, 0x00,
        0x08, 0x00, 0x0c, 0x00, 0x08, 0x00, 0x04, 0x00, 0x08, 0x00, 0x00, 0x00,
        0x10, 0x00, 0x00, 0x00, 0x28, 0x00, 0x00, 0x00, 0x08, 0x00, 0x0c, 0x00,
        0x08, 0x00, 0x07, 0x00, 0x08, 0x00, 0x00, 0x00, 0x00, 0x00, 0x00, 0x01,
        0x04, 0x00, 0x00, 0x00, 0x00, 0x00, 0x00, 0x00, 0x00, 0x00, 0x0a, 0x00,
        0x10, 0x00, 0x0c, 0x00, 0x08, 0x00, 0x04, 0x00, 0x0a, 0x00, 0x00, 0x00,
        0x03, 0x00, 0x00, 0x00, 0x02, 0x00, 0x00, 0x00, 0x04, 0x00, 0x00, 0x00,
        0x06, 0x00, 0x00, 0x00, 0x32, 0x2e, 0x31, 0x32, 0x2e, 0x30, 0x00, 0x00,
        0x56, 0xf7, 0xff, 0xff, 0x04, 0x00, 0x00, 0x00, 0x10, 0x00, 0x00, 0x00,
        0x32, 0x2e, 0x38, 0x2e, 0x30, 0x00, 0x00, 0x00, 0x00, 0x00, 0x00, 0x00,
        0x00, 0x00, 0x00, 0x00, 0xd4, 0xe1, 0xff, 0xff, 0xd8, 0xe1, 0xff, 0xff,
        0xdc, 0xe1, 0xff, 0xff, 0xe0, 0xe1, 0xff, 0xff, 0xe4, 0xe1, 0xff, 0xff,
        0xe8, 0xe1, 0xff, 0xff, 0xec, 0xe1, 0xff, 0xff, 0xf0, 0xe1, 0xff, 0xff,
        0xf4, 0xe1, 0xff, 0xff, 0xf8, 0xe1, 0xff, 0xff, 0xfc, 0xe1, 0xff, 0xff,
        0x00, 0xe2, 0xff, 0xff, 0x04, 0xe2, 0xff, 0xff, 0x08, 0xe2, 0xff, 0xff,
        0x0c, 0xe2, 0xff, 0xff, 0x10, 0xe2, 0xff, 0xff, 0x14, 0xe2, 0xff, 0xff,
        0x18, 0xe2, 0xff, 0xff, 0x1c, 0xe2, 0xff, 0xff, 0x20, 0xe2, 0xff, 0xff,
        0x24, 0xe2, 0xff, 0xff, 0x28, 0xe2, 0xff, 0xff, 0x2c, 0xe2, 0xff, 0xff,
        0x30, 0xe2, 0xff, 0xff, 0xd2, 0xf7, 0xff, 0xff, 0x04, 0x00, 0x00, 0x00,
        0x04, 0x00, 0x00, 0x00, 0x9a, 0x02, 0x00, 0x00, 0xe2, 0xf7, 0xff, 0xff,
        0x04, 0x00, 0x00, 0x00, 0x04, 0x00, 0x00, 0x00, 0x00, 0x01, 0x00, 0x00,
        0xf2, 0xf7, 0xff, 0xff, 0x04, 0x00, 0x00, 0x00, 0x04, 0x00, 0x00, 0x00,
        0x80, 0xff, 0xff, 0xff, 0x02, 0xf8, 0xff, 0xff, 0x04, 0x00, 0x00, 0x00,
        0x04, 0x00, 0x00, 0x00, 0xff, 0xff, 0xff, 0xff, 0x12, 0xf8, 0xff, 0xff,
        0x04, 0x00, 0x00, 0x00, 0x04, 0x00, 0x00, 0x00, 0x7f, 0x00, 0x00, 0x00,
        0x22, 0xf8, 0xff, 0xff, 0x04, 0x00, 0x00, 0x00, 0x78, 0x02, 0x00, 0x00,
        0x00, 0x00, 0x61, 0x05, 0x00, 0x00, 0x00, 0x00, 0x23, 0x0b, 0x41, 0x01,
        0x00, 0x00, 0x00, 0x00, 0xb3, 0x07, 0x00, 0x00, 0x00, 0x00, 0x00, 0x00,
        0x00, 0x00, 0x74, 0x0e, 0x80, 0x05, 0x00, 0x00, 0x00, 0x00, 0xd1, 0x0c,
        0x63, 0x04, 0x00, 0x00, 0x00, 0x00, 0x34, 0x0c, 0x3f, 0x04, 0x00, 0x00,
        0x00, 0x00, 0x81, 0x0c, 0xf7, 0x04, 0x00, 0x00, 0x00, 0x00, 0x9f, 0x0d,
        0x77, 0x06, 0x00, 0x00, 0x00, 0x00, 0x7b, 0x0f, 0xa9, 0x08, 0x01, 0x02,
        0x7f, 0x0b, 0x22, 0x05, 0x00, 0x00, 0x00, 0x00, 0xe9, 0x0e, 0xd1, 0x08,
        0xdb, 0x02, 0x00, 0x00, 0x00, 0x00, 0x03, 0x0d, 0x4a, 0x07, 0xad, 0x01,
        0x2c, 0x0c, 0xc6, 0x06, 0x79, 0x01, 0x00, 0x00, 0x00, 0x00, 0x45, 0x0c,
        0x29, 0x07, 0x23, 0x02, 0x34, 0x0d, 0x5b, 0x08, 0x96, 0x03, 0x00, 0x00,
        0x00, 0x00, 0xe5, 0x0e, 0x48, 0x0a, 0xbd, 0x05, 0x45, 0x01, 0x00, 0x00,
        0x00, 0x00, 0x00, 0x00, 0x00, 0x00, 0xde, 0x0c, 0x88, 0x08, 0x43, 0x04,
        0x0e, 0x00, 0x00, 0x00, 0x00, 0x00, 0x00, 0x00, 0x00, 0x00, 0xe9, 0x0b,
        0xd3, 0x07, 0xcb, 0x03, 0xd2, 0x0f, 0xe7, 0x0b, 0x09, 0x08, 0x39, 0x04,
        0x76, 0x00, 0x00, 0x00, 0x00, 0x00, 0x00, 0x00, 0x00, 0x00, 0xbf, 0x0c,
        0x14, 0x09, 0x75, 0x05, 0xe2, 0x01, 0x00, 0x00, 0x00, 0x00, 0x00, 0x00,
        0x00, 0x00, 0x5a, 0x0e, 0xdd, 0x0a, 0x6b, 0x07, 0x03, 0x04, 0xa6, 0x00,
        0x00, 0x00, 0x00, 0x00, 0x53, 0x0d, 0x09, 0x0a, 0xc9, 0x06, 0x93, 0x03,
        0x65, 0x00, 0x00, 0x00, 0x00, 0x00, 0x00, 0x00, 0x00, 0x00, 0x41, 0x0d,
        0x25, 0x0a, 0x12, 0x07, 0x07, 0x04, 0x05, 0x01, 0x00, 0x00, 0x00, 0x00,
        0x0a, 0x0e, 0x17, 0x0b, 0x2c, 0x08, 0x49, 0x05, 0x6d, 0x02, 0x00, 0x00,
        0x00, 0x00, 0x00, 0x00, 0x00, 0x00, 0x98, 0x0f, 0xcb, 0x0c, 0x04, 0x0a,
        0x44, 0x07, 0x8b, 0x04, 0xd8, 0x01, 0x00, 0x00, 0x00, 0x00, 0x2c, 0x0f,
        0x87, 0x0c, 0xe7, 0x09, 0x4e, 0x07, 0xba, 0x04, 0x2d, 0x02, 0x00, 0x00,
        0x00, 0x00, 0xa5, 0x0f, 0x23, 0x0d, 0xa7, 0x0a, 0x30, 0x08, 0xbe, 0x05,
        0x52, 0x03, 0xeb, 0x00, 0x89, 0x0e, 0x2c, 0x0c, 0xd4, 0x09, 0x81, 0x07,
        0x33, 0x05, 0xe9, 0x02, 0xa5, 0x00, 0x00, 0x00, 0x00, 0x00, 0x64, 0x0e,
        0x29, 0x0c, 0xf1, 0x09, 0xbe, 0x07, 0x90, 0x05, 0x65, 0x03, 0x3f, 0x01,
        0x1d, 0x0f, 0xff, 0x0c, 0xe5, 0x0a, 0xcf, 0x08, 0xbc, 0x06, 0xae, 0x04,
        0xa3, 0x02, 0x9c, 0x00, 0x99, 0x0e, 0x99, 0x0c, 0x9d, 0x0a, 0xa4, 0x08,
        0xaf, 0x06, 0xbd, 0x04, 0xcf, 0x02, 0xe4, 0x00, 0xfc, 0x0e, 0x17, 0x0d,
        0x36, 0x0b, 0x57, 0x09, 0x7c, 0x07, 0xa4, 0x05, 0xcf, 0x03, 0xfd, 0x01,
        0x2e, 0x00, 0x00, 0x00, 0x00, 0x00, 0x00, 0x00, 0x00, 0x00, 0x62, 0x0e,
        0x98, 0x0c, 0xd2, 0x0a, 0x0e, 0x09, 0x4d, 0x07, 0x8f, 0x05, 0xd4, 0x03,
        0x1b, 0x02, 0x65, 0x00, 0x00, 0x00, 0x00, 0x00, 0xb1, 0x0e, 0x00, 0x0d,
        0x52, 0x0b, 0xa6, 0x09, 0xfd, 0x07, 0x56, 0x06, 0xb1, 0x04, 0x0f, 0x03,
        0x6f, 0x01, 0x00, 0x00, 0x00, 0x00, 0x00, 0x00, 0x00, 0x00, 0xd2, 0x0f,
        0x37, 0x0e, 0x9e, 0x0c, 0x08, 0x0b, 0x73, 0x09, 0xe1, 0x07, 0x52, 0x06,
        0xc4, 0x04, 0x38, 0x03, 0xaf, 0x01, 0x28, 0x00, 0xa3, 0x0e, 0x1f, 0x0d,
        0x9e, 0x0b, 0x1f, 0x0a, 0xa2, 0x08, 0x27, 0x07, 0xae, 0x05, 0x37, 0x04,
        0xc2, 0x02, 0x4e, 0x01, 0x00, 0x00, 0x00, 0x00, 0xdd, 0x0f, 0x6d, 0x0e,
        0xff, 0x0c, 0x93, 0x0b, 0x29, 0x0a, 0xc1, 0x08, 0x5a, 0x07, 0xf5, 0x05,
        0x92, 0x04, 0x30, 0x03, 0xd1, 0x01, 0x73, 0x00, 0x16, 0x0f, 0xbc, 0x0d,
        0x62, 0x0c, 0x0b, 0x0b, 0xb5, 0x09, 0x61, 0x08, 0x0e, 0x07, 0xbd, 0x05,
        0x6d, 0x04, 0x1f, 0x03, 0xd3, 0x01, 0x88, 0x00, 0x3e, 0x0f, 0xf6, 0x0d,
        0xaf, 0x0c, 0x6a, 0x0b, 0x27, 0x0a, 0xe4, 0x08, 0xa3, 0x07, 0x64, 0x06,
        0x26, 0x05, 0xe9, 0x03, 0xae, 0x02, 0x74, 0x01, 0x3b, 0x00, 0x00, 0x00,
        0x00, 0x00, 0x00, 0x00, 0x00, 0x00, 0x04, 0x0f, 0xce, 0x0d, 0x99, 0x0c,
        0x66, 0x0b, 0x34, 0x0a, 0x03, 0x09, 0xd3, 0x07, 0xa5, 0x06, 0x78, 0x05,
        0x4c, 0x04, 0x22, 0x03, 0xf8, 0x01, 0xd0, 0x00, 0x00, 0x00, 0x00, 0x00,
        0xa9, 0x0f, 0x83, 0x0e, 0x5f, 0x0d, 0x3b, 0x0c, 0x19, 0x0b, 0xf8, 0x09,
        0xd8, 0x08, 0xb9, 0x07, 0x9b, 0x06, 0x7e, 0x05, 0x63, 0x04, 0x48, 0x03,
        0x2f, 0x02, 0x17, 0x01, 0x00, 0x00, 0x00, 0x00, 0xa6, 0xfa, 0xff, 0xff,
        0x04, 0x00, 0x00, 0x00, 0x78, 0x02, 0x00, 0x00, 0x00, 0x00, 0x9e, 0x0a,
        0x00, 0x00, 0x00, 0x00, 0xdc, 0x04, 0xbe, 0x0e, 0x00, 0x00, 0x00, 0x00,
        0x4c, 0x08, 0x00, 0x00, 0x00, 0x00, 0x00, 0x00, 0x00, 0x00, 0x8b, 0x01,
        0x7f, 0x0a, 0x00, 0x00, 0x00, 0x00, 0x2e, 0x03, 0x9c, 0x0b, 0x00, 0x00,
        0x00, 0x00, 0xcb, 0x03, 0xc0, 0x0b, 0x00, 0x00, 0x00, 0x00, 0x7e, 0x03,
        0x08, 0x0b, 0x00, 0x00, 0x00, 0x00, 0x60, 0x02, 0x88, 0x09, 0x00, 0x00,
        0x00, 0x00, 0x84, 0x00, 0x56, 0x07, 0xfe, 0x0d, 0x80, 0x04, 0xdd, 0x0a,
        0x00, 0x00, 0x00, 0x00, 0x16, 0x01, 0x2e, 0x07, 0x24, 0x0d, 0x00, 0x00,
        0x00, 0x00, 0xfc, 0x02, 0xb5, 0x08, 0x52, 0x0e, 0xd3, 0x03, 0x39, 0x09,
        0x86, 0x0e, 0x00, 0x00, 0x00, 0x00, 0xba, 0x03, 0xd6, 0x08, 0xdc, 0x0d,
        0xcb, 0x02, 0xa4, 0x07, 0x69, 0x0c, 0x00, 0x00, 0x00, 0x00, 0x1a, 0x01,
        0xb7, 0x05, 0x42, 0x0a, 0xba, 0x0e, 0x00, 0x00, 0x00, 0x00, 0x00, 0x00,
        0x00, 0x00, 0x21, 0x03, 0x77, 0x07, 0xbc, 0x0b, 0xf1, 0x0f, 0x00, 0x00,
        0x00, 0x00, 0x00, 0x00, 0x00, 0x00, 0x16, 0x04, 0x2c, 0x08, 0x34, 0x0c,
        0x2d, 0x00, 0x18, 0x04, 0xf6, 0x07, 0xc6, 0x0b, 0x89, 0x0f, 0x00, 0x00,
        0x00, 0x00, 0x00, 0x00, 0x00, 0x00, 0x40, 0x03, 0xeb, 0x06, 0x8a, 0x0a,
        0x1d, 0x0e, 0x00, 0x00, 0x00, 0x00, 0x00, 0x00, 0x00, 0x00, 0xa5, 0x01,
        0x22, 0x05, 0x94, 0x08, 0xfc, 0x0b, 0x59, 0x0f, 0x00, 0x00, 0x00, 0x00,
        0xac, 0x02, 0xf6, 0x05, 0x36, 0x09, 0x6c, 0x0c, 0x9a, 0x0f, 0x00, 0x00,
        0x00, 0x00, 0x00, 0x00, 0x00, 0x00, 0xbe, 0x02, 0xda, 0x05, 0xed, 0x08,
        0xf8, 0x0b, 0xfa, 0x0e, 0x00, 0x00, 0x00, 0x00, 0xf5, 0x01, 0xe8, 0x04,
        0xd3, 0x07, 0xb6, 0x0a, 0x92, 0x0d, 0x00, 0x00, 0x00, 0x00, 0x00, 0x00,
        0x00, 0x00, 0x67, 0x00, 0x34, 0x03, 0xfb, 0x05, 0xbb, 0x08, 0x74, 0x0b,
        0x27, 0x0e, 0x00, 0x00, 0x00, 0x00, 0xd3, 0x00, 0x78, 0x03, 0x18, 0x06,
        0xb1, 0x08, 0x45, 0x0b, 0xd2, 0x0d, 0x00, 0x00, 0x00, 0x00, 0x5a, 0x00,
        0xdc, 0x02, 0x58, 0x05, 0xcf, 0x07, 0x41, 0x0a, 0xad, 0x0c, 0x14, 0x0f,
        0x76, 0x01, 0xd3, 0x03, 0x2b, 0x06, 0x7e, 0x08, 0xcc, 0x0a, 0x16, 0x0d,
        0x5a, 0x0f, 0x00, 0x00, 0x00, 0x00, 0x9b, 0x01, 0xd6, 0x03, 0x0e, 0x06,
        0x41, 0x08, 0x6f, 0x0a, 0x9a, 0x0c, 0xc0, 0x0e, 0xe2, 0x00, 0x00, 0x03,
        0x1a, 0x05, 0x30, 0x07, 0x43, 0x09, 0x51, 0x0b, 0x5c, 0x0d, 0x63, 0x0f,
        0x66, 0x01, 0x66, 0x03, 0x62, 0x05, 0x5b, 0x07, 0x50, 0x09, 0x42, 0x0b,
        0x30, 0x0d, 0x1b, 0x0f, 0x03, 0x01, 0xe8, 0x02, 0xc9, 0x04, 0xa8, 0x06,
        0x83, 0x08, 0x5b, 0x0a, 0x30, 0x0c, 0x02, 0x0e, 0xd1, 0x0f, 0x00, 0x00,
        0x00, 0x00, 0x00, 0x00, 0x00, 0x00, 0x9d, 0x01, 0x67, 0x03, 0x2d, 0x05,
        0xf1, 0x06, 0xb2, 0x08, 0x70, 0x0a, 0x2b, 0x0c, 0xe4, 0x0d, 0x9a, 0x0f,
        0x00, 0x00, 0x00, 0x00, 0x4e, 0x01, 0xff, 0x02, 0xad, 0x04, 0x59, 0x06,
        0x02, 0x08, 0xa9, 0x09, 0x4e, 0x0b, 0xf0, 0x0c, 0x90, 0x0e, 0x00, 0x00,
        0x00, 0x00, 0x00, 0x00, 0x00, 0x00, 0x2d, 0x00, 0xc8, 0x01, 0x61, 0x03,
        0xf7, 0x04, 0x8c, 0x06, 0x1e, 0x08, 0xad, 0x09, 0x3b, 0x0b, 0xc7, 0x0c,
        0x50, 0x0e, 0xd7, 0x0f, 0x5c, 0x01, 0xe0, 0x02, 0x61, 0x04, 0xe0, 0x05,
        0x5d, 0x07, 0xd8, 0x08, 0x51, 0x0a, 0xc8, 0x0b, 0x3d, 0x0d, 0xb1, 0x0e,
        0x00, 0x00, 0x00, 0x00, 0x22, 0x00, 0x92, 0x01, 0x00, 0x03, 0x6c, 0x04,
        0xd6, 0x05, 0x3e, 0x07, 0xa5, 0x08, 0x0a, 0x0a, 0x6d, 0x0b, 0xcf, 0x0c,
        0x2e, 0x0e, 0x8c, 0x0f, 0xe9, 0x00, 0x43, 0x02, 0x9d, 0x03, 0xf4, 0x04,
        0x4a, 0x06, 0x9e, 0x07, 0xf1, 0x08, 0x42, 0x0a, 0x92, 0x0b, 0xe0, 0x0c,
        0x2c, 0x0e, 0x77, 0x0f, 0xc1, 0x00, 0x09, 0x02, 0x50, 0x03, 0x95, 0x04,
        0xd8, 0x05, 0x1b, 0x07, 0x5c, 0x08, 0x9b, 0x09, 0xd9, 0x0a, 0x16, 0x0c,
        0x51, 0x0d, 0x8b, 0x0e, 0xc4, 0x0f, 0x00, 0x00, 0x00, 0x00, 0x00, 0x00,
        0x00, 0x00, 0xfb, 0x00, 0x31, 0x02, 0x66, 0x03, 0x99, 0x04, 0xcb, 0x05,
        0xfc, 0x06, 0x2c, 0x08, 0x5a, 0x09, 0x87, 0x0a, 0xb3, 0x0b, 0xdd, 0x0c,
        0x07, 0x0e, 0x2f, 0x0f, 0x00, 0x00, 0x00, 0x00, 0x56, 0x00, 0x7c, 0x01,
        0xa0, 0x02, 0xc4, 0x03, 0xe6, 0x04, 0x07, 0x06, 0x27, 0x07, 0x46, 0x08,
        0x64, 0x09, 0x81, 0x0a, 0x9c, 0x0b, 0xb7, 0x0c, 0xd0, 0x0d, 0xe8, 0x0e,
        0x00, 0x10, 0x00, 0x00, 0x2a, 0xfd, 0xff, 0xff, 0x04, 0x00, 0x00, 0x00,
        0x52, 0x00, 0x00, 0x00, 0x04, 0x00, 0x06, 0x00, 0x08, 0x00, 0x08, 0x00,
        0x0a, 0x00, 0x0c, 0x00, 0x0e, 0x00, 0x10, 0x00, 0x12, 0x00, 0x16, 0x00,
        0x18, 0x00, 0x1a, 0x00, 0x1e, 0x00, 0x20, 0x00, 0x24, 0x00, 0x26, 0x00,
        0x2a, 0x00, 0x2e, 0x00, 0x32, 0x00, 0x36, 0x00, 0x3a, 0x00, 0x40, 0x00,
        0x44, 0x00, 0x4a, 0x00, 0x4e, 0x00, 0x54, 0x00, 0x5a, 0x00, 0x62, 0x00,
        0x68, 0x00, 0x70, 0x00, 0x78, 0x00, 0x80, 0x00, 0x88, 0x00, 0x92, 0x00,
        0x9a, 0x00, 0xa6, 0x00, 0xb0, 0x00, 0xbc, 0x00, 0xc8, 0x00, 0xd4, 0x00,
        0xe2, 0x00, 0x00, 0x00, 0x8a, 0xfd, 0xff, 0xff, 0x04, 0x00, 0x00, 0x00,
        0x52, 0x00, 0x00, 0x00, 0x00, 0x00, 0x04, 0x00, 0x08, 0x00, 0x0c, 0x00,
        0x10, 0x00, 0x14, 0x00, 0x18, 0x00, 0x1c, 0x00, 0x20, 0x00, 0x24, 0x00,
        0x28, 0x00, 0x2c, 0x00, 0x30, 0x00, 0x34, 0x00, 0x38, 0x00, 0x3c, 0x00,
        0x44, 0x00, 0x4c, 0x00, 0x50, 0x00, 0x58, 0x00, 0x60, 0x00, 0x68, 0x00,
        0x70, 0x00, 0x78, 0x00, 0x80, 0x00, 0x88, 0x00, 0x90, 0x00, 0x98, 0x00,
        0xa0, 0x00, 0xa8, 0x00, 0xb0, 0x00, 0xb8, 0x00, 0xc4, 0x00, 0xd0, 0x00,
        0xdc, 0x00, 0xe8, 0x00, 0xf4, 0x00, 0x00, 0x01, 0x0c, 0x01, 0x1c, 0x01,
        0x2c, 0x01, 0x00, 0x00, 0xea, 0xfd, 0xff, 0xff, 0x04, 0x00, 0x00, 0x00,
        0x52, 0x00, 0x00, 0x00, 0x04, 0x00, 0x04, 0x00, 0x04, 0x00, 0x04, 0x00,
        0x04, 0x00, 0x04, 0x00, 0x04, 0x00, 0x04, 0x00, 0x04, 0x00, 0x04, 0x00,
        0x04, 0x00, 0x04, 0x00, 0x04, 0x00, 0x04, 0x00, 0x04, 0x00, 0x08, 0x00,
        0x08, 0x00, 0x04, 0x00, 0x08, 0x00, 0x08, 0x00, 0x08, 0x00, 0x08, 0x00,
        0x08, 0x00, 0x08, 0x00, 0x08, 0x00, 0x08, 0x00, 0x08, 0x00, 0x08, 0x00,
        0x08, 0x00, 0x08, 0x00, 0x08, 0x00, 0x0c, 0x00, 0x0c, 0x00, 0x0c, 0x00,
        0x0c, 0x00, 0x0c, 0x00, 0x0c, 0x00, 0x0c, 0x00, 0x10, 0x00, 0x10, 0x00,
        0x10, 0x00, 0x00, 0x00, 0x4a, 0xfe, 0xff, 0xff, 0x04, 0x00, 0x00, 0x00,
        0xfa, 0x00, 0x00, 0x00, 0x7c, 0x7f, 0x79, 0x7f, 0x76, 0x7f, 0xfa, 0xff,
        0x00, 0x00, 0x00, 0x00, 0x70, 0x7f, 0xf4, 0xff, 0x00, 0x00, 0x00, 0x00,
        0x64, 0x7f, 0xe9, 0xff, 0xfe, 0xff, 0x00, 0x00, 0x4b, 0x7f, 0xd0, 0xff,
        0x00, 0x00, 0x00, 0x00, 0x1b, 0x7f, 0xa0, 0xff, 0x00, 0x00, 0x00, 0x00,
        0xbb, 0x7e, 0x42, 0xff, 0x00, 0x00, 0x00, 0x00, 0xfd, 0x7d, 0x86, 0xfe,
        0x04, 0x00, 0x00, 0x00, 0x87, 0x7c, 0x1d, 0xfd, 0x12, 0x00, 0x00, 0x00,
        0xb6, 0x79, 0x7f, 0xfa, 0x3e, 0x00, 0x00, 0x00, 0x73, 0x74, 0xf9, 0xf5,
        0xca, 0x00, 0x00, 0x00, 0x36, 0x6b, 0x33, 0xef, 0x32, 0x02, 0x00, 0x00,
        0x9b, 0x5c, 0x87, 0xe7, 0xce, 0x04, 0x00, 0x00, 0xf0, 0x48, 0xde, 0xe2,
        0xa0, 0x07, 0x00, 0x00, 0x6e, 0x33, 0x8a, 0xe4, 0xa4, 0x08, 0x00, 0x00,
        0x9c, 0x20, 0x22, 0xeb, 0x4c, 0x07, 0x00, 0x00, 0x0a, 0x13, 0x7d, 0xf2,
        0x02, 0x05, 0x00, 0x00, 0x89, 0x0a, 0x17, 0xf8, 0x06, 0x03, 0x00, 0x00,
        0xa6, 0x05, 0xa0, 0xfb, 0xb4, 0x01, 0x00, 0x00, 0xfa, 0x02, 0xac, 0xfd,
        0xe8, 0x00, 0x00, 0x00, 0x8e, 0x01, 0xc7, 0xfe, 0x7a, 0x00, 0x00, 0x00,
        0xcf, 0x00, 0x5c, 0xff, 0x40, 0x00, 0x00, 0x00, 0x6b, 0x00, 0xab, 0xff,
        0x22, 0x00, 0x00, 0x00, 0x38, 0x00, 0xd3, 0xff, 0x12, 0x00, 0x00, 0x00,
        0x1d, 0x00, 0xea, 0xff, 0x08, 0x00, 0x00, 0x00, 0x0f, 0x00, 0xf3, 0xff,
        0x06, 0x00, 0x00, 0x00, 0x08, 0x00, 0xf8, 0xff, 0x04, 0x00, 0x00, 0x00,
        0x04, 0x00, 0xfe, 0xff, 0x00, 0x00, 0x00, 0x00, 0x02, 0x00, 0xfd, 0xff,
        0x02, 0x00, 0x00, 0x00, 0x01, 0x00, 0x00, 0x00, 0x00, 0x00, 0x00, 0x00,
        0x01, 0x00, 0xfd, 0xff, 0x02, 0x00, 0x00, 0x00, 0x00, 0x00, 0x00, 0x00,
        0x00, 0x00, 0x00, 0x00, 0x52, 0xff, 0xff, 0xff, 0x04, 0x00, 0x00, 0x00,
        0x04, 0x00, 0x00, 0x00, 0x05, 0x00, 0x00, 0x00, 0x62, 0xff, 0xff, 0xff,
        0x04, 0x00, 0x00, 0x00, 0x04, 0x00, 0x00, 0x00, 0xf1, 0x00, 0x00, 0x00,
        0x72, 0xff, 0xff, 0xff, 0x04, 0x00, 0x00, 0x00, 0x04, 0x00, 0x00, 0x00,
        0x01, 0x00, 0x00, 0x00, 0x82, 0xff, 0xff, 0xff, 0x04, 0x00, 0x00, 0x00,
        0x04, 0x00, 0x00, 0x00, 0x4d, 0x01, 0x00, 0x00, 0x92, 0xff, 0xff, 0xff,
        0x04, 0x00, 0x00, 0x00, 0x14, 0x00, 0x00, 0x00, 0x00, 0x00, 0x00, 0x00,
        0x00, 0x00, 0x00, 0x00, 0x00, 0x00, 0x00, 0x00, 0x00, 0x00, 0x00, 0x00,
        0x00, 0x00, 0x00, 0x00, 0xb2, 0xff, 0xff, 0xff, 0x04, 0x00, 0x00, 0x00,
        0x40, 0x00, 0x00, 0x00, 0x00, 0x00, 0x00, 0x00, 0x00, 0x00, 0x00, 0x00,
        0x00, 0x00, 0x00, 0x00, 0x00, 0x00, 0x00, 0x00, 0x00, 0x00, 0x00, 0x00,
        0x00, 0x00, 0x00, 0x00, 0x00, 0x00, 0x00, 0x00, 0x00, 0x00, 0x00, 0x00,
        0x00, 0x00, 0x00, 0x00, 0x00, 0x00, 0x00, 0x00, 0x00, 0x00, 0x00, 0x00,
        0x00, 0x00, 0x00, 0x00, 0x00, 0x00, 0x00, 0x00, 0x00, 0x00, 0x00, 0x00,
        0x00, 0x00, 0x00, 0x00, 0x00, 0x00, 0x00, 0x00, 0x00, 0x00, 0x06, 0x00,
        0x08, 0x00, 0x04, 0x00, 0x06, 0x00, 0x00, 0x00, 0x04, 0x00, 0x00, 0x00,
        0xc0, 0x03, 0x00, 0x00, 0x00, 0x00, 0x00, 0x00, 0x01, 0x00, 0x02, 0x00,
        0x04, 0x00, 0x05, 0x00, 0x07, 0x00, 0x0a, 0x00, 0x0d, 0x00, 0x10, 0x00,
        0x13, 0x00, 0x17, 0x00, 0x1b, 0x00, 0x20, 0x00, 0x25, 0x00, 0x2a, 0x00,
        0x30, 0x00, 0x35, 0x00, 0x3c, 0x00, 0x42, 0x00, 0x49, 0x00, 0x51, 0x00,
        0x58, 0x00, 0x60, 0x00, 0x68, 0x00, 0x71, 0x00, 0x7a, 0x00, 0x83, 0x00,
        0x8d, 0x00, 0x97, 0x00, 0xa1, 0x00, 0xac, 0x00, 0xb7, 0x00, 0xc2, 0x00,
        0xcd, 0x00, 0xd9, 0x00, 0xe5, 0x00, 0xf2, 0x00, 0xff, 0x00, 0x0c, 0x01,
        0x19, 0x01, 0x27, 0x01, 0x35, 0x01, 0x43, 0x01, 0x52, 0x01, 0x61, 0x01,
        0x70, 0x01, 0x7f, 0x01, 0x8f, 0x01, 0x9f, 0x01, 0xaf, 0x01, 0xc0, 0x01,
        0xd1, 0x01, 0xe2, 0x01, 0xf3, 0x01, 0x05, 0x02, 0x17, 0x02, 0x29, 0x02,
        0x3c, 0x02, 0x4e, 0x02, 0x61, 0x02, 0x75, 0x02, 0x88, 0x02, 0x9c, 0x02,
        0xb0, 0x02, 0xc4, 0x02, 0xd8, 0x02, 0xed, 0x02, 0x02, 0x03, 0x17, 0x03,
        0x2c, 0x03, 0x41, 0x03, 0x57, 0x03, 0x6d, 0x03, 0x83, 0x03, 0x99, 0x03,
        0xb0, 0x03, 0xc7, 0x03, 0xdd, 0x03, 0xf4, 0x03, 0x0c, 0x04, 0x23, 0x04,
        0x3b, 0x04, 0x52, 0x04, 0x6a, 0x04, 0x82, 0x04, 0x9a, 0x04, 0xb3, 0x04,
        0xcb, 0x04, 0xe4, 0x04, 0xfd, 0x04, 0x16, 0x05, 0x2f, 0x05, 0x48, 0x05,
        0x61, 0x05, 0x7a, 0x05, 0x94, 0x05, 0xad, 0x05, 0xc7, 0x05, 0xe1, 0x05,
        0xfb, 0x05, 0x15, 0x06, 0x2f, 0x06, 0x49, 0x06, 0x63, 0x06, 0x7e, 0x06,
        0x98, 0x06, 0xb2, 0x06, 0xcd, 0x06, 0xe7, 0x06, 0x02, 0x07, 0x1d, 0x07,
        0x37, 0x07, 0x52, 0x07, 0x6d, 0x07, 0x87, 0x07, 0xa2, 0x07, 0xbd, 0x07,
        0xd8, 0x07, 0xf3, 0x07, 0x0d, 0x08, 0x28, 0x08, 0x43, 0x08, 0x5e, 0x08,
        0x79, 0x08, 0x93, 0x08, 0xae, 0x08, 0xc9, 0x08, 0xe3, 0x08, 0xfe, 0x08,
        0x19, 0x09, 0x33, 0x09, 0x4e, 0x09, 0x68, 0x09, 0x82, 0x09, 0x9d, 0x09,
        0xb7, 0x09, 0xd1, 0x09, 0xeb, 0x09, 0x05, 0x0a, 0x1f, 0x0a, 0x39, 0x0a,
        0x53, 0x0a, 0x6c, 0x0a, 0x86, 0x0a, 0x9f, 0x0a, 0xb8, 0x0a, 0xd1, 0x0a,
        0xea, 0x0a, 0x03, 0x0b, 0x1c, 0x0b, 0x35, 0x0b, 0x4d, 0x0b, 0x66, 0x0b,
        0x7e, 0x0b, 0x96, 0x0b, 0xae, 0x0b, 0xc5, 0x0b, 0xdd, 0x0b, 0xf4, 0x0b,
        0x0c, 0x0c, 0x23, 0x0c, 0x39, 0x0c, 0x50, 0x0c, 0x67, 0x0c, 0x7d, 0x0c,
        0x93, 0x0c, 0xa9, 0x0c, 0xbf, 0x0c, 0xd4, 0x0c, 0xe9, 0x0c, 0xfe, 0x0c,
        0x13, 0x0d, 0x28, 0x0d, 0x3c, 0x0d, 0x50, 0x0d, 0x64, 0x0d, 0x78, 0x0d,
        0x8b, 0x0d, 0x9f, 0x0d, 0xb2, 0x0d, 0xc4, 0x0d, 0xd7, 0x0d, 0xe9, 0x0d,
        0xfb, 0x0d, 0x0d, 0x0e, 0x1e, 0x0e, 0x2f, 0x0e, 0x40, 0x0e, 0x51, 0x0e,
        0x61, 0x0e, 0x71, 0x0e, 0x81, 0x0e, 0x90, 0x0e, 0x9f, 0x0e, 0xae, 0x0e,
        0xbd, 0x0e, 0xcb, 0x0e, 0xd9, 0x0e, 0xe7, 0x0e, 0xf4, 0x0e, 0x01, 0x0f,
        0x0e, 0x0f, 0x1b, 0x0f, 0x27, 0x0f, 0x33, 0x0f, 0x3e, 0x0f, 0x49, 0x0f,
        0x54, 0x0f, 0x5f, 0x0f, 0x69, 0x0f, 0x73, 0x0f, 0x7d, 0x0f, 0x86, 0x0f,
        0x8f, 0x0f, 0x98, 0x0f, 0xa0, 0x0f, 0xa8, 0x0f, 0xaf, 0x0f, 0xb7, 0x0f,
        0xbe, 0x0f, 0xc4, 0x0f, 0xcb, 0x0f, 0xd0, 0x0f, 0xd6, 0x0f, 0xdb, 0x0f,
        0xe0, 0x0f, 0xe5, 0x0f, 0xe9, 0x0f, 0xed, 0x0f, 0xf0, 0x0f, 0xf3, 0x0f,
        0xf6, 0x0f, 0xf9, 0x0f, 0xfb, 0x0f, 0xfc, 0x0f, 0xfe, 0x0f, 0xff, 0x0f,
        0x00, 0x10, 0x00, 0x10, 0x00, 0x10, 0x00, 0x10, 0xff, 0x0f, 0xfe, 0x0f,
        0xfc, 0x0f, 0xfb, 0x0f, 0xf9, 0x0f, 0xf6, 0x0f, 0xf3, 0x0f, 0xf0, 0x0f,
        0xed, 0x0f, 0xe9, 0x0f, 0xe5, 0x0f, 0xe0, 0x0f, 0xdb, 0x0f, 0xd6, 0x0f,
        0xd0, 0x0f, 0xcb, 0x0f, 0xc4, 0x0f, 0xbe, 0x0f, 0xb7, 0x0f, 0xaf, 0x0f,
        0xa8, 0x0f, 0xa0, 0x0f, 0x98, 0x0f, 0x8f, 0x0f, 0x86, 0x0f, 0x7d, 0x0f,
        0x73, 0x0f, 0x69, 0x0f, 0x5f, 0x0f, 0x54, 0x0f, 0x49, 0x0f, 0x3e, 0x0f,
        0x33, 0x0f, 0x27, 0x0f, 0x1b, 0x0f, 0x0e, 0x0f, 0x01, 0x0f, 0xf4, 0x0e,
        0xe7, 0x0e, 0xd9, 0x0e, 0xcb, 0x0e, 0xbd, 0x0e, 0xae, 0x0e, 0x9f, 0x0e,
        0x90, 0x0e, 0x81, 0x0e, 0x71, 0x0e, 0x61, 0x0e, 0x51, 0x0e, 0x40, 0x0e,
        0x2f, 0x0e, 0x1e, 0x0e, 0x0d, 0x0e, 0xfb, 0x0d, 0xe9, 0x0d, 0xd7, 0x0d,
        0xc4, 0x0d, 0xb2, 0x0d, 0x9f, 0x0d, 0x8b, 0x0d, 0x78, 0x0d, 0x64, 0x0d,
        0x50, 0x0d, 0x3c, 0x0d, 0x28, 0x0d, 0x13, 0x0d, 0xfe, 0x0c, 0xe9, 0x0c,
        0xd4, 0x0c, 0xbf, 0x0c, 0xa9, 0x0c, 0x93, 0x0c, 0x7d, 0x0c, 0x67, 0x0c,
        0x50, 0x0c, 0x39, 0x0c, 0x23, 0x0c, 0x0c, 0x0c, 0xf4, 0x0b, 0xdd, 0x0b,
        0xc5, 0x0b, 0xae, 0x0b, 0x96, 0x0b, 0x7e, 0x0b, 0x66, 0x0b, 0x4d, 0x0b,
        0x35, 0x0b, 0x1c, 0x0b, 0x03, 0x0b, 0xea, 0x0a, 0xd1, 0x0a, 0xb8, 0x0a,
        0x9f, 0x0a, 0x86, 0x0a, 0x6c, 0x0a, 0x53, 0x0a, 0x39, 0x0a, 0x1f, 0x0a,
        0x05, 0x0a, 0xeb, 0x09, 0xd1, 0x09, 0xb7, 0x09, 0x9d, 0x09, 0x82, 0x09,
        0x68, 0x09, 0x4e, 0x09, 0x33, 0x09, 0x19, 0x09, 0xfe, 0x08, 0xe3, 0x08,
        0xc9, 0x08, 0xae, 0x08, 0x93, 0x08, 0x79, 0x08, 0x5e, 0x08, 0x43, 0x08,
        0x28, 0x08, 0x0d, 0x08, 0xf3, 0x07, 0xd8, 0x07, 0xbd, 0x07, 0xa2, 0x07,
        0x87, 0x07, 0x6d, 0x07, 0x52, 0x07, 0x37, 0x07, 0x1d, 0x07, 0x02, 0x07,
        0xe7, 0x06, 0xcd, 0x06, 0xb2, 0x06, 0x98, 0x06, 0x7e, 0x06, 0x63, 0x06,
        0x49, 0x06, 0x2f, 0x06, 0x15, 0x06, 0xfb, 0x05, 0xe1, 0x05, 0xc7, 0x05,
        0xad, 0x05, 0x94, 0x05, 0x7a, 0x05, 0x61, 0x05, 0x48, 0x05, 0x2f, 0x05,
        0x16, 0x05, 0xfd, 0x04, 0xe4, 0x04, 0xcb, 0x04, 0xb3, 0x04, 0x9a, 0x04,
        0x82, 0x04, 0x6a, 0x04, 0x52, 0x04, 0x3b, 0x04, 0x23, 0x04, 0x0c, 0x04,
        0xf4, 0x03, 0xdd, 0x03, 0xc7, 0x03, 0xb0, 0x03, 0x99, 0x03, 0x83, 0x03,
        0x6d, 0x03, 0x57, 0x03, 0x41, 0x03, 0x2c, 0x03, 0x17, 0x03, 0x02, 0x03,
        0xed, 0x02, 0xd8, 0x02, 0xc4, 0x02, 0xb0, 0x02, 0x9c, 0x02, 0x88, 0x02,
        0x75, 0x02, 0x61, 0x02, 0x4e, 0x02, 0x3c, 0x02, 0x29, 0x02, 0x17, 0x02,
        0x05, 0x02, 0xf3, 0x01, 0xe2, 0x01, 0xd1, 0x01, 0xc0, 0x01, 0xaf, 0x01,
        0x9f, 0x01, 0x8f, 0x01, 0x7f, 0x01, 0x70, 0x01, 0x61, 0x01, 0x52, 0x01,
        0x43, 0x01, 0x35, 0x01, 0x27, 0x01, 0x19, 0x01, 0x0c, 0x01, 0xff, 0x00,
        0xf2, 0x00, 0xe5, 0x00, 0xd9, 0x00, 0xcd, 0x00, 0xc2, 0x00, 0xb7, 0x00,
        0xac, 0x00, 0xa1, 0x00, 0x97, 0x00, 0x8d, 0x00, 0x83, 0x00, 0x7a, 0x00,
        0x71, 0x00, 0x68, 0x00, 0x60, 0x00, 0x58, 0x00, 0x51, 0x00, 0x49, 0x00,
        0x42, 0x00, 0x3c, 0x00, 0x35, 0x00, 0x30, 0x00, 0x2a, 0x00, 0x25, 0x00,
        0x20, 0x00, 0x1b, 0x00, 0x17, 0x00, 0x13, 0x00, 0x10, 0x00, 0x0d, 0x00,
        0x0a, 0x00, 0x07, 0x00, 0x05, 0x00, 0x04, 0x00, 0x02, 0x00, 0x01, 0x00,
        0x00, 0x00, 0x00, 0x00, 0x34, 0xee, 0xff, 0xff, 0x38, 0xee, 0xff, 0xff,
        0x0f, 0x00, 0x00, 0x00, 0x4d, 0x4c, 0x49, 0x52, 0x20, 0x43, 0x6f, 0x6e,
        0x76, 0x65, 0x72, 0x74, 0x65, 0x64, 0x2e, 0x00, 0x01, 0x00, 0x00, 0x00,
        0x14, 0x00, 0x00, 0x00, 0x00, 0x00, 0x0e, 0x00, 0x18, 0x00, 0x14, 0x00,
        0x10, 0x00, 0x0c, 0x00, 0x08, 0x00, 0x04, 0x00, 0x0e, 0x00, 0x00, 0x00,
        0x14, 0x00, 0x00, 0x00, 0x1c, 0x00, 0x00, 0x00, 0xf4, 0x05, 0x00, 0x00,
        0xf8, 0x05, 0x00, 0x00, 0xfc, 0x05, 0x00, 0x00, 0x04, 0x00, 0x00, 0x00,
        0x6d, 0x61, 0x69, 0x6e, 0x00, 0x00, 0x00, 0x00, 0x16, 0x00, 0x00, 0x00,
        0xa0, 0x05, 0x00, 0x00, 0x68, 0x05, 0x00, 0x00, 0x24, 0x05, 0x00, 0x00,
        0xc8, 0x04, 0x00, 0x00, 0x70, 0x04, 0x00, 0x00, 0x4c, 0x04, 0x00, 0x00,
        0x10, 0x04, 0x00, 0x00, 0xc8, 0x03, 0x00, 0x00, 0xa4, 0x03, 0x00, 0x00,
        0x4c, 0x03, 0x00, 0x00, 0x14, 0x03, 0x00, 0x00, 0x10, 0x02, 0x00, 0x00,
        0xc8, 0x01, 0x00, 0x00, 0x6c, 0x01, 0x00, 0x00, 0x48, 0x01, 0x00, 0x00,
        0x14, 0x01, 0x00, 0x00, 0xe0, 0x00, 0x00, 0x00, 0xac, 0x00, 0x00, 0x00,
        0x78, 0x00, 0x00, 0x00, 0x50, 0x00, 0x00, 0x00, 0x28, 0x00, 0x00, 0x00,
        0x04, 0x00, 0x00, 0x00, 0xf6, 0xfa, 0xff, 0xff, 0x0c, 0x00, 0x00, 0x00,
        0x10, 0x00, 0x00, 0x00, 0x05, 0x00, 0x00, 0x00, 0x01, 0x00, 0x00, 0x00,
        0x2a, 0x00, 0x00, 0x00, 0x01, 0x00, 0x00, 0x00, 0x29, 0x00, 0x00, 0x00,
        0x16, 0xfb, 0xff, 0xff, 0x0c, 0x00, 0x00, 0x00, 0x10, 0x00, 0x00, 0x00,
        0x11, 0x00, 0x00, 0x00, 0x01, 0x00, 0x00, 0x00, 0x29, 0x00, 0x00, 0x00,
        0x02, 0x00, 0x00, 0x00, 0x28, 0x00, 0x00, 0x00, 0x10, 0x00, 0x00, 0x00,
        0x3a, 0xfb, 0xff, 0xff, 0x0c, 0x00, 0x00, 0x00, 0x10, 0x00, 0x00, 0x00,
        0x10, 0x00, 0x00, 0x00, 0x01, 0x00, 0x00, 0x00, 0x28, 0x00, 0x00, 0x00,
        0x02, 0x00, 0x00, 0x00, 0x27, 0x00, 0x00, 0x00, 0x0e, 0x00, 0x00, 0x00,
        0xa6, 0xfc, 0xff, 0xff, 0x14, 0x00, 0x00, 0x00, 0x00, 0x00, 0x00, 0x0b,
        0x10, 0x00, 0x00, 0x00, 0x14, 0x00, 0x00, 0x00, 0x0e, 0x00, 0x00, 0x00,
        0x68, 0xef, 0xff, 0xff, 0x01, 0x00, 0x00, 0x00, 0x27, 0x00, 0x00, 0x00,
        0x02, 0x00, 0x00, 0x00, 0x26, 0x00, 0x00, 0x00, 0x10, 0x00, 0x00, 0x00,
        0xd6, 0xfc, 0xff, 0xff, 0x14, 0x00, 0x00, 0x00, 0x00, 0x00, 0x00, 0x1d,
        0x10, 0x00, 0x00, 0x00, 0x14, 0x00, 0x00, 0x00, 0x0f, 0x00, 0x00, 0x00,
        0x98, 0xef, 0xff, 0xff, 0x01, 0x00, 0x00, 0x00, 0x26, 0x00, 0x00, 0x00,
        0x02, 0x00, 0x00, 0x00, 0x25, 0x00, 0x00, 0x00, 0x12, 0x00, 0x00, 0x00,
        0x06, 0xfd, 0xff, 0xff, 0x14, 0x00, 0x00, 0x00, 0x00, 0x00, 0x00, 0x0b,
        0x10, 0x00, 0x00, 0x00, 0x14, 0x00, 0x00, 0x00, 0x0e, 0x00, 0x00, 0x00,
        0xc8, 0xef, 0xff, 0xff, 0x01, 0x00, 0x00, 0x00, 0x25, 0x00, 0x00, 0x00,
        0x02, 0x00, 0x00, 0x00, 0x24, 0x00, 0x00, 0x00, 0x04, 0x00, 0x00, 0x00,
        0x36, 0xfd, 0xff, 0xff, 0x14, 0x00, 0x00, 0x00, 0x00, 0x00, 0x00, 0x15,
        0x10, 0x00, 0x00, 0x00, 0x14, 0x00, 0x00, 0x00, 0x0d, 0x00, 0x00, 0x00,
        0xf8, 0xef, 0xff, 0xff, 0x01, 0x00, 0x00, 0x00, 0x24, 0x00, 0x00, 0x00,
        0x02, 0x00, 0x00, 0x00, 0x23, 0x00, 0x00, 0x00, 0x11, 0x00, 0x00, 0x00,
        0x1e, 0xfc, 0xff, 0xff, 0x0c, 0x00, 0x00, 0x00, 0x10, 0x00, 0x00, 0x00,
        0x05, 0x00, 0x00, 0x00, 0x01, 0x00, 0x00, 0x00, 0x23, 0x00, 0x00, 0x00,
        0x01, 0x00, 0x00, 0x00, 0x22, 0x00, 0x00, 0x00, 0x84, 0xfc, 0xff, 0xff,
        0x10, 0x00, 0x00, 0x00, 0x40, 0x00, 0x00, 0x00, 0x44, 0x00, 0x00, 0x00,
        0x0c, 0x00, 0x00, 0x00, 0x30, 0x00, 0x00, 0x00, 0x69, 0x6e, 0x70, 0x75,
        0x74, 0x5f, 0x63, 0x6f, 0x72, 0x72, 0x65, 0x63, 0x74, 0x69, 0x6f, 0x6e,
        0x5f, 0x62, 0x69, 0x74, 0x73, 0x00, 0x6f, 0x75, 0x74, 0x70, 0x75, 0x74,
        0x5f, 0x73, 0x63, 0x61, 0x6c, 0x65, 0x00, 0x02, 0x24, 0x0f, 0x02, 0x01,
        0x02, 0x03, 0x40, 0x04, 0x04, 0x04, 0x24, 0x01, 0x01, 0x00, 0x00, 0x00,
        0x22, 0x00, 0x00, 0x00, 0x01, 0x00, 0x00, 0x00, 0x21, 0x00, 0x00, 0x00,
        0xdc, 0xfc, 0xff, 0xff, 0x10, 0x00, 0x00, 0x00, 0x24, 0x00, 0x00, 0x00,
        0x28, 0x00, 0x00, 0x00, 0x0b, 0x00, 0x00, 0x00, 0x14, 0x00, 0x00, 0x00,
        0x73, 0x6e, 0x72, 0x5f, 0x73, 0x68, 0x69, 0x66, 0x74, 0x00, 0x01, 0x0b,
        0x01, 0x01, 0x01, 0x06, 0x04, 0x02, 0x24, 0x01, 0x01, 0x00, 0x00, 0x00,
        0x21, 0x00, 0x00, 0x00, 0x03, 0x00, 0x00, 0x00, 0x1f, 0x00, 0x00, 0x00,
        0x20, 0x00, 0x00, 0x00, 0x08, 0x00, 0x00, 0x00, 0x20, 0xfd, 0xff, 0xff,
        0x10, 0x00, 0x00, 0x00, 0xe4, 0x00, 0x00, 0x00, 0xec, 0x00, 0x00, 0x00,
        0x0a, 0x00, 0x00, 0x00, 0xd2, 0x00, 0x00, 0x00, 0x61, 0x6c, 0x74, 0x65,
        0x72, 0x6e, 0x61, 0x74, 0x65, 0x5f, 0x6f, 0x6e, 0x65, 0x5f, 0x6d, 0x69,
        0x6e, 0x75, 0x73, 0x5f, 0x73, 0x6d, 0x6f, 0x6f, 0x74, 0x68, 0x69, 0x6e,
        0x67, 0x00, 0x61, 0x6c, 0x74, 0x65, 0x72, 0x6e, 0x61, 0x74, 0x65, 0x5f,
        0x73, 0x6d, 0x6f, 0x6f, 0x74, 0x68, 0x69, 0x6e, 0x67, 0x00, 0x63, 0x6c,
        0x61, 0x6d, 0x70, 0x69, 0x6e, 0x67, 0x00, 0x6d, 0x69, 0x6e, 0x5f, 0x73,
        0x69, 0x67, 0x6e, 0x61, 0x6c, 0x5f, 0x72, 0x65, 0x6d, 0x61, 0x69, 0x6e,
        0x69, 0x6e, 0x67, 0x00, 0x6e, 0x75, 0x6d, 0x5f, 0x63, 0x68, 0x61, 0x6e,
        0x6e, 0x65, 0x6c, 0x73, 0x00, 0x6f, 0x6e, 0x65, 0x5f, 0x6d, 0x69, 0x6e,
        0x75, 0x73, 0x5f, 0x73, 0x6d, 0x6f, 0x6f, 0x74, 0x68, 0x69, 0x6e, 0x67,
        0x00, 0x73, 0x6d, 0x6f, 0x6f, 0x74, 0x68, 0x69, 0x6e, 0x67, 0x00, 0x73,
        0x6d, 0x6f, 0x6f, 0x74, 0x68, 0x69, 0x6e, 0x67, 0x5f, 0x62, 0x69, 0x74,
        0x73, 0x00, 0x73, 0x70, 0x65, 0x63, 0x74, 0x72, 0x61, 0x6c, 0x5f, 0x73,
        0x75, 0x62, 0x74, 0x72, 0x61, 0x63, 0x74, 0x69, 0x6f, 0x6e, 0x5f, 0x62,
        0x69, 0x74, 0x73, 0x00, 0x09, 0xa5, 0x88, 0x75, 0x6d, 0x59, 0x4d, 0x3a,
        0x31, 0x23, 0x09, 0x00, 0x01, 0x00, 0x09, 0x00, 0x29, 0x3c, 0xd7, 0x03,
        0x00, 0x00, 0x33, 0x03, 0x28, 0x00, 0x67, 0x3e, 0x99, 0x01, 0x0a, 0x00,
        0x0e, 0x00, 0x05, 0x05, 0x69, 0x05, 0x05, 0x05, 0x05, 0x05, 0x05, 0x1b,
        0x25, 0x01, 0x00, 0x00, 0x02, 0x00, 0x00, 0x00, 0x1f, 0x00, 0x00, 0x00,
        0x20, 0x00, 0x00, 0x00, 0x01, 0x00, 0x00, 0x00, 0x1e, 0x00, 0x00, 0x00,
        0x20, 0xfe, 0xff, 0xff, 0x10, 0x00, 0x00, 0x00, 0x18, 0x00, 0x00, 0x00,
        0x1c, 0x00, 0x00, 0x00, 0x09, 0x00, 0x00, 0x00, 0x07, 0x00, 0x00, 0x00,
        0x00, 0x00, 0x01, 0x00, 0x00, 0x24, 0x01, 0x00, 0x01, 0x00, 0x00, 0x00,
        0x1e, 0x00, 0x00, 0x00, 0x02, 0x00, 0x00, 0x00, 0x1d, 0x00, 0x00, 0x00,
        0x16, 0x00, 0x00, 0x00, 0x54, 0xfe, 0xff, 0xff, 0x10, 0x00, 0x00, 0x00,
        0x28, 0x00, 0x00, 0x00, 0x2c, 0x00, 0x00, 0x00, 0x08, 0x00, 0x00, 0x00,
        0x17, 0x00, 0x00, 0x00, 0x6e, 0x75, 0x6d, 0x5f, 0x63, 0x68, 0x61, 0x6e,
        0x6e, 0x65, 0x6c, 0x73, 0x00, 0x01, 0x0e, 0x01, 0x01, 0x01, 0x28, 0x04,
        0x02, 0x24, 0x01, 0x00, 0x01, 0x00, 0x00, 0x00, 0x1d, 0x00, 0x00, 0x00,
        0x06, 0x00, 0x00, 0x00, 0x1c, 0x00, 0x00, 0x00, 0x0d, 0x00, 0x00, 0x00,
        0x0c, 0x00, 0x00, 0x00, 0x0b, 0x00, 0x00, 0x00, 0x0a, 0x00, 0x00, 0x00,
        0x09, 0x00, 0x00, 0x00, 0x62, 0xfe, 0xff, 0xff, 0x0c, 0x00, 0x00, 0x00,
        0x10, 0x00, 0x00, 0x00, 0x05, 0x00, 0x00, 0x00, 0x01, 0x00, 0x00, 0x00,
        0x1c, 0x00, 0x00, 0x00, 0x01, 0x00, 0x00, 0x00, 0x1b, 0x00, 0x00, 0x00,
        0xca, 0xff, 0xff, 0xff, 0x14, 0x00, 0x00, 0x00, 0x00, 0x00, 0x00, 0x0a,
        0x10, 0x00, 0x00, 0x00, 0x14, 0x00, 0x00, 0x00, 0x07, 0x00, 0x00, 0x00,
        0x8c, 0xf2, 0xff, 0xff, 0x01, 0x00, 0x00, 0x00, 0x1b, 0x00, 0x00, 0x00,
        0x03, 0x00, 0x00, 0x00, 0x03, 0x00, 0x00, 0x00, 0x1a, 0x00, 0x00, 0x00,
        0x02, 0x00, 0x00, 0x00, 0x00, 0x00, 0x0e, 0x00, 0x18, 0x00, 0x14, 0x00,
        0x10, 0x00, 0x0c, 0x00, 0x0b, 0x00, 0x04, 0x00, 0x0e, 0x00, 0x00, 0x00,
        0x14, 0x00, 0x00, 0x00, 0x00, 0x00, 0x00, 0x20, 0x10, 0x00, 0x00, 0x00,
        0x14, 0x00, 0x00, 0x00, 0x06, 0x00, 0x00, 0x00, 0xd0, 0xf2, 0xff, 0xff,
        0x01, 0x00, 0x00, 0x00, 0x1a, 0x00, 0x00, 0x00, 0x04, 0x00, 0x00, 0x00,
        0x19, 0x00, 0x00, 0x00, 0x07, 0x00, 0x00, 0x00, 0x06, 0x00, 0x00, 0x00,
        0x05, 0x00, 0x00, 0x00, 0xfe, 0xfe, 0xff, 0xff, 0x0c, 0x00, 0x00, 0x00,
        0x10, 0x00, 0x00, 0x00, 0x05, 0x00, 0x00, 0x00, 0x01, 0x00, 0x00, 0x00,
        0x19, 0x00, 0x00, 0x00, 0x01, 0x00, 0x00, 0x00, 0x18, 0x00, 0x00, 0x00,
        0x64, 0xff, 0xff, 0xff, 0x10, 0x00, 0x00, 0x00, 0x3c, 0x00, 0x00, 0x00,
        0x40, 0x00, 0x00, 0x00, 0x04, 0x00, 0x00, 0x00, 0x29, 0x00, 0x00, 0x00,
        0x65, 0x6e, 0x64, 0x5f, 0x69, 0x6e, 0x64, 0x65, 0x78, 0x00, 0x73, 0x74,
        0x61, 0x72, 0x74, 0x5f, 0x69, 0x6e, 0x64, 0x65, 0x78, 0x00, 0x02, 0x17,
        0x0e, 0x00, 0x03, 0x00, 0x01, 0x00, 0x02, 0x00, 0xf1, 0x00, 0x05, 0x00,
        0x05, 0x05, 0x06, 0x25, 0x01, 0x00, 0x00, 0x00, 0x01, 0x00, 0x00, 0x00,
        0x18, 0x00, 0x00, 0x00, 0x01, 0x00, 0x00, 0x00, 0x17, 0x00, 0x00, 0x00,
        0xb8, 0xff, 0xff, 0xff, 0x10, 0x00, 0x00, 0x00, 0x30, 0x00, 0x00, 0x00,
        0x34, 0x00, 0x00, 0x00, 0x03, 0x00, 0x00, 0x00, 0x1f, 0x00, 0x00, 0x00,
        0x54, 0x00, 0x66, 0x66, 0x74, 0x5f, 0x6c, 0x65, 0x6e, 0x67, 0x74, 0x68,
        0x00, 0x02, 0x0e, 0x0d, 0x02, 0x00, 0x01, 0x00, 0x02, 0x00, 0x07, 0x00,
        0x00, 0x02, 0x05, 0x05, 0x06, 0x25, 0x01, 0x00, 0x01, 0x00, 0x00, 0x00,
        0x17, 0x00, 0x00, 0x00, 0x01, 0x00, 0x00, 0x00, 0x15, 0x00, 0x00, 0x00,
        0x10, 0x00, 0x14, 0x00, 0x10, 0x00, 0x0c, 0x00, 0x08, 0x00, 0x00, 0x00,
        0x00, 0x00, 0x04, 0x00, 0x10, 0x00, 0x00, 0x00, 0x10, 0x00, 0x00, 0x00,
        0x18, 0x00, 0x00, 0x00, 0x20, 0x00, 0x00, 0x00, 0x02, 0x00, 0x00, 0x00,
        0x07, 0x00, 0x00, 0x00, 0x00, 0x00, 0x01, 0x00, 0x00, 0x24, 0x01, 0x00,
        0x02, 0x00, 0x00, 0x00, 0x15, 0x00, 0x00, 0x00, 0x16, 0x00, 0x00, 0x00,
        0x01, 0x00, 0x00, 0x00, 0x14, 0x00, 0x00, 0x00, 0x00, 0x00, 0x0a, 0x00,
        0x10, 0x00, 0x0c, 0x00, 0x08, 0x00, 0x04, 0x00, 0x0a, 0x00, 0x00, 0x00,
        0x0c, 0x00, 0x00, 0x00, 0x10, 0x00, 0x00, 0x00, 0x01, 0x00, 0x00, 0x00,
        0x01, 0x00, 0x00, 0x00, 0x14, 0x00, 0x00, 0x00, 0x02, 0x00, 0x00, 0x00,
        0x13, 0x00, 0x00, 0x00, 0x0f, 0x00, 0x00, 0x00, 0x10, 0x00, 0x10, 0x00,
        0x00, 0x00, 0x0c, 0x00, 0x08, 0x00, 0x00, 0x00, 0x00, 0x00, 0x04, 0x00,
        0x10, 0x00, 0x00, 0x00, 0x0c, 0x00, 0x00, 0x00, 0x1c, 0x00, 0x00, 0x00,
        0x20, 0x00, 0x00, 0x00, 0x10, 0x00, 0x00, 0x00, 0x73, 0x68, 0x69, 0x66,
        0x74, 0x00, 0x01, 0x07, 0x01, 0x01, 0x01, 0x0c, 0x04, 0x02, 0x24, 0x01,
        0x01, 0x00, 0x00, 0x00, 0x13, 0x00, 0x00, 0x00, 0x02, 0x00, 0x00, 0x00,
        0x00, 0x00, 0x00, 0x00, 0x01, 0x00, 0x00, 0x00, 0x01, 0x00, 0x00, 0x00,
        0x2a, 0x00, 0x00, 0x00, 0x01, 0x00, 0x00, 0x00, 0x00, 0x00, 0x00, 0x00,
        0x2b, 0x00, 0x00, 0x00, 0xc4, 0x0a, 0x00, 0x00, 0x74, 0x0a, 0x00, 0x00,
        0x3c, 0x0a, 0x00, 0x00, 0x04, 0x0a, 0x00, 0x00, 0xd0, 0x09, 0x00, 0x00,
        0x88, 0x09, 0x00, 0x00, 0x40, 0x09, 0x00, 0x00, 0xfc, 0x08, 0x00, 0x00,
        0xb8, 0x08, 0x00, 0x00, 0x6c, 0x08, 0x00, 0x00, 0x20, 0x08, 0x00, 0x00,
        0xd4, 0x07, 0x00, 0x00, 0x88, 0x07, 0x00, 0x00, 0x3c, 0x07, 0x00, 0x00,
        0xf8, 0x06, 0x00, 0x00, 0xb8, 0x06, 0x00, 0x00, 0x84, 0x06, 0x00, 0x00,
        0x50, 0x06, 0x00, 0x00, 0x1c, 0x06, 0x00, 0x00, 0xd8, 0x05, 0x00, 0x00,
        0xa0, 0x05, 0x00, 0x00, 0x58, 0x05, 0x00, 0x00, 0x14, 0x05, 0x00, 0x00,
        0xd8, 0x04, 0x00, 0x00, 0x98, 0x04, 0x00, 0x00, 0x60, 0x04, 0x00, 0x00,
        0x20, 0x04, 0x00, 0x00, 0xe8, 0x03, 0x00, 0x00, 0xb0, 0x03, 0x00, 0x00,
        0x6c, 0x03, 0x00, 0x00, 0x1c, 0x03, 0x00, 0x00, 0xc4, 0x02, 0x00, 0x00,
        0x68, 0x02, 0x00, 0x00, 0x2c, 0x02, 0x00, 0x00, 0xe4, 0x01, 0x00, 0x00,
        0xac, 0x01, 0x00, 0x00, 0x78, 0x01, 0x00, 0x00, 0x44, 0x01, 0x00, 0x00,
        0x08, 0x01, 0x00, 0x00, 0xd0, 0x00, 0x00, 0x00, 0x88, 0x00, 0x00, 0x00,
        0x48, 0x00, 0x00, 0x00, 0x04, 0x00, 0x00, 0x00, 0xfe, 0xf5, 0xff, 0xff,
        0x00, 0x00, 0x00, 0x01, 0x14, 0x00, 0x00, 0x00, 0x14, 0x00, 0x00, 0x00,
        0x2b, 0x00, 0x00, 0x00, 0x00, 0x00, 0x00, 0x09, 0x20, 0x00, 0x00, 0x00,
        0x44, 0xf5, 0xff, 0xff, 0x11, 0x00, 0x00, 0x00, 0x50, 0x61, 0x72, 0x74,
        0x69, 0x74, 0x69, 0x6f, 0x6e, 0x65, 0x64, 0x43, 0x61, 0x6c, 0x6c, 0x3a,
        0x30, 0x00, 0x00, 0x00, 0x01, 0x00, 0x00, 0x00, 0x28, 0x00, 0x00, 0x00,
        0x3e, 0xf6, 0xff, 0xff, 0x00, 0x00, 0x00, 0x01, 0x14, 0x00, 0x00, 0x00,
        0x14, 0x00, 0x00, 0x00, 0x2a, 0x00, 0x00, 0x00, 0x00, 0x00, 0x00, 0x02,
        0x1c, 0x00, 0x00, 0x00, 0x84, 0xf5, 0xff, 0xff, 0x0d, 0x00, 0x00, 0x00,
        0x63, 0x6c, 0x69, 0x70, 0x5f, 0x62, 0x79, 0x5f, 0x76, 0x61, 0x6c, 0x75,
        0x65, 0x00, 0x00, 0x00, 0x01, 0x00, 0x00, 0x00, 0x28, 0x00, 0x00, 0x00,
        0x7a, 0xf6, 0xff, 0xff, 0x00, 0x00, 0x00, 0x01, 0x14, 0x00, 0x00, 0x00,
        0x14, 0x00, 0x00, 0x00, 0x29, 0x00, 0x00, 0x00, 0x00, 0x00, 0x00, 0x02,
        0x24, 0x00, 0x00, 0x00, 0xc0, 0xf5, 0xff, 0xff, 0x15, 0x00, 0x00, 0x00,
        0x63, 0x6c, 0x69, 0x70, 0x5f, 0x62, 0x79, 0x5f, 0x76, 0x61, 0x6c, 0x75,
        0x65, 0x2f, 0x4d, 0x69, 0x6e, 0x69, 0x6d, 0x75, 0x6d, 0x00, 0x00, 0x00,
        0x01, 0x00, 0x00, 0x00, 0x28, 0x00, 0x00, 0x00, 0xbe, 0xf6, 0xff, 0xff,
        0x00, 0x00, 0x00, 0x01, 0x14, 0x00, 0x00, 0x00, 0x14, 0x00, 0x00, 0x00,
        0x28, 0x00, 0x00, 0x00, 0x00, 0x00, 0x00, 0x02, 0x14, 0x00, 0x00, 0x00,
        0x04, 0xf6, 0xff, 0xff, 0x05, 0x00, 0x00, 0x00, 0x61, 0x64, 0x64, 0x5f,
        0x31, 0x00, 0x00, 0x00, 0x01, 0x00, 0x00, 0x00, 0x28, 0x00, 0x00, 0x00,
        0xf2, 0xf6, 0xff, 0xff, 0x00, 0x00, 0x00, 0x01, 0x14, 0x00, 0x00, 0x00,
        0x14, 0x00, 0x00, 0x00, 0x27, 0x00, 0x00, 0x00, 0x00, 0x00, 0x00, 0x02,
        0x18, 0x00, 0x00, 0x00, 0x38, 0xf6, 0xff, 0xff, 0x0b, 0x00, 0x00, 0x00,
        0x54, 0x72, 0x75, 0x6e, 0x63, 0x61, 0x74, 0x65, 0x44, 0x69, 0x76, 0x00,
        0x01, 0x00, 0x00, 0x00, 0x28, 0x00, 0x00, 0x00, 0x2a, 0xf7, 0xff, 0xff,
        0x00, 0x00, 0x00, 0x01, 0x14, 0x00, 0x00, 0x00, 0x14, 0x00, 0x00, 0x00,
        0x26, 0x00, 0x00, 0x00, 0x00, 0x00, 0x00, 0x02, 0x10, 0x00, 0x00, 0x00,
        0x70, 0xf6, 0xff, 0xff, 0x03, 0x00, 0x00, 0x00, 0x61, 0x64, 0x64, 0x00,
        0x01, 0x00, 0x00, 0x00, 0x28, 0x00, 0x00, 0x00, 0x5a, 0xf7, 0xff, 0xff,
        0x00, 0x00, 0x00, 0x01, 0x14, 0x00, 0x00, 0x00, 0x14, 0x00, 0x00, 0x00,
        0x25, 0x00, 0x00, 0x00, 0x00, 0x00, 0x00, 0x02, 0x10, 0x00, 0x00, 0x00,
        0xa0, 0xf6, 0xff, 0xff, 0x03, 0x00, 0x00, 0x00, 0x6d, 0x75, 0x6c, 0x00,
        0x01, 0x00, 0x00, 0x00, 0x28, 0x00, 0x00, 0x00, 0x8a, 0xf7, 0xff, 0xff,
        0x00, 0x00, 0x00, 0x01, 0x14, 0x00, 0x00, 0x00, 0x14, 0x00, 0x00, 0x00,
        0x24, 0x00, 0x00, 0x00, 0x00, 0x00, 0x00, 0x02, 0x14, 0x00, 0x00, 0x00,
        0xd0, 0xf6, 0xff, 0xff, 0x06, 0x00, 0x00, 0x00, 0x43, 0x61, 0x73, 0x74,
        0x5f, 0x32, 0x00, 0x00, 0x01, 0x00, 0x00, 0x00, 0x28, 0x00, 0x00, 0x00,
        0xbe, 0xf7, 0xff, 0xff, 0x00, 0x00, 0x00, 0x01, 0x14, 0x00, 0x00, 0x00,
        0x14, 0x00, 0x00, 0x00, 0x23, 0x00, 0x00, 0x00, 0x00, 0x00, 0x00, 0x07,
        0x24, 0x00, 0x00, 0x00, 0x04, 0xf7, 0xff, 0xff, 0x16, 0x00, 0x00, 0x00,
        0x73, 0x69, 0x67, 0x6e, 0x61, 0x6c, 0x5f, 0x66, 0x69, 0x6c, 0x74, 0x65,
        0x72, 0x5f, 0x62, 0x61, 0x6e, 0x6b, 0x5f, 0x6c, 0x6f, 0x67, 0x00, 0x00,
        0x01, 0x00, 0x00, 0x00, 0x28, 0x00, 0x00, 0x00, 0x02, 0xf8, 0xff, 0xff,
        0x00, 0x00, 0x00, 0x01, 0x14, 0x00, 0x00, 0x00, 0x14, 0x00, 0x00, 0x00,
        0x22, 0x00, 0x00, 0x00, 0x00, 0x00, 0x00, 0x0f, 0x18, 0x00, 0x00, 0x00,
        0x48, 0xf7, 0xff, 0xff, 0x0b, 0x00, 0x00, 0x00, 0x73, 0x69, 0x67, 0x6e,
        0x61, 0x6c, 0x5f, 0x70, 0x63, 0x61, 0x6e, 0x00, 0x01, 0x00, 0x00, 0x00,
        0x28, 0x00, 0x00, 0x00, 0x3a, 0xf8, 0xff, 0xff, 0x00, 0x00, 0x00, 0x01,
        0x14, 0x00, 0x00, 0x00, 0x14, 0x00, 0x00, 0x00, 0x21, 0x00, 0x00, 0x00,
        0x00, 0x00, 0x00, 0x0f, 0x38, 0x00, 0x00, 0x00, 0x80, 0xf7, 0xff, 0xff,
        0x28, 0x00, 0x00, 0x00, 0x73, 0x69, 0x67, 0x6e, 0x61, 0x6c, 0x5f, 0x66,
        0x69, 0x6c, 0x74, 0x65, 0x72, 0x5f, 0x62, 0x61, 0x6e, 0x6b, 0x5f, 0x73,
        0x70, 0x65, 0x63, 0x74, 0x72, 0x61, 0x6c, 0x5f, 0x73, 0x75, 0x62, 0x74,
        0x72, 0x61, 0x63, 0x74, 0x69, 0x6f, 0x6e, 0x31, 0x00, 0x00, 0x00, 0x00,
        0x01, 0x00, 0x00, 0x00, 0x28, 0x00, 0x00, 0x00, 0x92, 0xf8, 0xff, 0xff,
        0x00, 0x00, 0x00, 0x01, 0x14, 0x00, 0x00, 0x00, 0x14, 0x00, 0x00, 0x00,
        0x20, 0x00, 0x00, 0x00, 0x00, 0x00, 0x00, 0x0f, 0x34, 0x00, 0x00, 0x00,
        0xd8, 0xf7, 0xff, 0xff, 0x27, 0x00, 0x00, 0x00, 0x73, 0x69, 0x67, 0x6e,
        0x61, 0x6c, 0x5f, 0x66, 0x69, 0x6c, 0x74, 0x65, 0x72, 0x5f, 0x62, 0x61,
        0x6e, 0x6b, 0x5f, 0x73, 0x70, 0x65, 0x63, 0x74, 0x72, 0x61, 0x6c, 0x5f,
        0x73, 0x75, 0x62, 0x74, 0x72, 0x61, 0x63, 0x74, 0x69, 0x6f, 0x6e, 0x00,
        0x01, 0x00, 0x00, 0x00, 0x28, 0x00, 0x00, 0x00, 0xe6, 0xf8, 0xff, 0xff,
        0x00, 0x00, 0x00, 0x01, 0x14, 0x00, 0x00, 0x00, 0x14, 0x00, 0x00, 0x00,
        0x1f, 0x00, 0x00, 0x00, 0x00, 0x00, 0x00, 0x0f, 0x2c, 0x00, 0x00, 0x00,
        0x2c, 0xf8, 0xff, 0xff, 0x1e, 0x00, 0x00, 0x00, 0x73, 0x69, 0x67, 0x6e,
        0x61, 0x6c, 0x5f, 0x66, 0x69, 0x6c, 0x74, 0x65, 0x72, 0x5f, 0x62, 0x61,
        0x6e, 0x6b, 0x5f, 0x73, 0x71, 0x75, 0x61, 0x72, 0x65, 0x5f, 0x72, 0x6f,
        0x6f, 0x74, 0x00, 0x00, 0x01, 0x00, 0x00, 0x00, 0x28, 0x00, 0x00, 0x00,
        0x32, 0xf9, 0xff, 0xff, 0x00, 0x00, 0x00, 0x01, 0x14, 0x00, 0x00, 0x00,
        0x14, 0x00, 0x00, 0x00, 0x1e, 0x00, 0x00, 0x00, 0x00, 0x00, 0x00, 0x0c,
        0x20, 0x00, 0x00, 0x00, 0x78, 0xf8, 0xff, 0xff, 0x12, 0x00, 0x00, 0x00,
        0x73, 0x69, 0x67, 0x6e, 0x61, 0x6c, 0x5f, 0x66, 0x69, 0x6c, 0x74, 0x65,
        0x72, 0x5f, 0x62, 0x61, 0x6e, 0x6b, 0x00, 0x00, 0x01, 0x00, 0x00, 0x00,
        0x28, 0x00, 0x00, 0x00, 0x72, 0xf9, 0xff, 0xff, 0x00, 0x00, 0x00, 0x01,
        0x14, 0x00, 0x00, 0x00, 0x14, 0x00, 0x00, 0x00, 0x1d, 0x00, 0x00, 0x00,
        0x00, 0x00, 0x00, 0x0f, 0x14, 0x00, 0x00, 0x00, 0xb8, 0xf8, 0xff, 0xff,
        0x06, 0x00, 0x00, 0x00, 0x43, 0x61, 0x73, 0x74, 0x5f, 0x31, 0x00, 0x00,
        0x01, 0x00, 0x00, 0x00, 0x01, 0x01, 0x00, 0x00, 0xa6, 0xf9, 0xff, 0xff,
        0x00, 0x00, 0x00, 0x01, 0x14, 0x00, 0x00, 0x00, 0x14, 0x00, 0x00, 0x00,
        0x1c, 0x00, 0x00, 0x00, 0x00, 0x00, 0x00, 0x02, 0x14, 0x00, 0x00, 0x00,
        0xec, 0xf8, 0xff, 0xff, 0x06, 0x00, 0x00, 0x00, 0x63, 0x6f, 0x6e, 0x63,
        0x61, 0x74, 0x00, 0x00, 0x01, 0x00, 0x00, 0x00, 0x01, 0x01, 0x00, 0x00,
        0xda, 0xf9, 0xff, 0xff, 0x00, 0x00, 0x00, 0x01, 0x14, 0x00, 0x00, 0x00,
        0x14, 0x00, 0x00, 0x00, 0x1b, 0x00, 0x00, 0x00, 0x00, 0x00, 0x00, 0x02,
        0x1c, 0x00, 0x00, 0x00, 0x20, 0xf9, 0xff, 0xff, 0x0d, 0x00, 0x00, 0x00,
        0x73, 0x74, 0x72, 0x69, 0x64, 0x65, 0x64, 0x5f, 0x73, 0x6c, 0x69, 0x63,
        0x65, 0x00, 0x00, 0x00, 0x01, 0x00, 0x00, 0x00, 0xec, 0x00, 0x00, 0x00,
        0x16, 0xfa, 0xff, 0xff, 0x00, 0x00, 0x00, 0x01, 0x14, 0x00, 0x00, 0x00,
        0x14, 0x00, 0x00, 0x00, 0x1a, 0x00, 0x00, 0x00, 0x00, 0x00, 0x00, 0x02,
        0x14, 0x00, 0x00, 0x00, 0x5c, 0xf9, 0xff, 0xff, 0x04, 0x00, 0x00, 0x00,
        0x43, 0x61, 0x73, 0x74, 0x00, 0x00, 0x00, 0x00, 0x01, 0x00, 0x00, 0x00,
        0x01, 0x01, 0x00, 0x00, 0x4a, 0xfa, 0xff, 0xff, 0x00, 0x00, 0x00, 0x01,
        0x14, 0x00, 0x00, 0x00, 0x14, 0x00, 0x00, 0x00, 0x19, 0x00, 0x00, 0x00,
        0x00, 0x00, 0x00, 0x0f, 0x1c, 0x00, 0x00, 0x00, 0x90, 0xf9, 0xff, 0xff,
        0x0d, 0x00, 0x00, 0x00, 0x73, 0x69, 0x67, 0x6e, 0x61, 0x6c, 0x5f, 0x65,
        0x6e, 0x65, 0x72, 0x67, 0x79, 0x00, 0x00, 0x00, 0x01, 0x00, 0x00, 0x00,
        0x01, 0x01, 0x00, 0x00, 0x86, 0xfa, 0xff, 0xff, 0x00, 0x00, 0x00, 0x01,
        0x14, 0x00, 0x00, 0x00, 0x14, 0x00, 0x00, 0x00, 0x18, 0x00, 0x00, 0x00,
        0x00, 0x00, 0x00, 0x07, 0x18, 0x00, 0x00, 0x00, 0xcc, 0xf9, 0xff, 0xff,
        0x0b, 0x00, 0x00, 0x00, 0x73, 0x69, 0x67, 0x6e, 0x61, 0x6c, 0x5f, 0x72,
        0x66, 0x66, 0x74, 0x00, 0x01, 0x00, 0x00, 0x00, 0x02, 0x02, 0x00, 0x00,
        0xbe, 0xfa, 0xff, 0xff, 0x00, 0x00, 0x00, 0x01, 0x14, 0x00, 0x00, 0x00,
        0x14, 0x00, 0x00, 0x00, 0x17, 0x00, 0x00, 0x00, 0x00, 0x00, 0x00, 0x02,
        0x24, 0x00, 0x00, 0x00, 0x04, 0xfa, 0xff, 0xff, 0x16, 0x00, 0x00, 0x00,
        0x73, 0x69, 0x67, 0x6e, 0x61, 0x6c, 0x5f, 0x66, 0x66, 0x74, 0x5f, 0x61,
        0x75, 0x74, 0x6f, 0x5f, 0x73, 0x63, 0x61, 0x6c, 0x65, 0x31, 0x00, 0x00,
        0x00, 0x00, 0x00, 0x00, 0xfe, 0xfa, 0xff, 0xff, 0x00, 0x00, 0x00, 0x01,
        0x14, 0x00, 0x00, 0x00, 0x14, 0x00, 0x00, 0x00, 0x16, 0x00, 0x00, 0x00,
        0x00, 0x00, 0x00, 0x07, 0x24, 0x00, 0x00, 0x00, 0x44, 0xfa, 0xff, 0xff,
        0x15, 0x00, 0x00, 0x00, 0x73, 0x69, 0x67, 0x6e, 0x61, 0x6c, 0x5f, 0x66,
        0x66, 0x74, 0x5f, 0x61, 0x75, 0x74, 0x6f, 0x5f, 0x73, 0x63, 0x61, 0x6c,
        0x65, 0x00, 0x00, 0x00, 0x01, 0x00, 0x00, 0x00, 0xe0, 0x01, 0x00, 0x00,
        0x42, 0xfb, 0xff, 0xff, 0x00, 0x00, 0x00, 0x01, 0x14, 0x00, 0x00, 0x00,
        0x14, 0x00, 0x00, 0x00, 0x15, 0x00, 0x00, 0x00, 0x00, 0x00, 0x00, 0x07,
        0x14, 0x00, 0x00, 0x00, 0x88, 0xfa, 0xff, 0xff, 0x07, 0x00, 0x00, 0x00,
        0x52, 0x65, 0x73, 0x68, 0x61, 0x70, 0x65, 0x00, 0x01, 0x00, 0x00, 0x00,
        0xe0, 0x01, 0x00, 0x00, 0x76, 0xfb, 0xff, 0xff, 0x00, 0x00, 0x00, 0x01,
        0x14, 0x00, 0x00, 0x00, 0x14, 0x00, 0x00, 0x00, 0x14, 0x00, 0x00, 0x00,
        0x00, 0x00, 0x00, 0x07, 0x1c, 0x00, 0x00, 0x00, 0xbc, 0xfa, 0xff, 0xff,
        0x0d, 0x00, 0x00, 0x00, 0x73, 0x69, 0x67, 0x6e, 0x61, 0x6c, 0x5f, 0x77,
        0x69, 0x6e, 0x64, 0x6f, 0x77, 0x00, 0x00, 0x00, 0x02, 0x00, 0x00, 0x00,
        0x01, 0x00, 0x00, 0x00, 0xe0, 0x01, 0x00, 0x00, 0xb6, 0xfb, 0xff, 0xff,
        0x00, 0x00, 0x00, 0x01, 0x14, 0x00, 0x00, 0x00, 0x14, 0x00, 0x00, 0x00,
        0x13, 0x00, 0x00, 0x00, 0x00, 0x00, 0x00, 0x02, 0x14, 0x00, 0x00, 0x00,
        0xfc, 0xfa, 0xff, 0xff, 0x07, 0x00, 0x00, 0x00, 0x43, 0x6f, 0x6e, 0x73,
        0x74, 0x5f, 0x31, 0x00, 0x00, 0x00, 0x00, 0x00, 0xe6, 0xfb, 0xff, 0xff,
        0x00, 0x00, 0x00, 0x01, 0x14, 0x00, 0x00, 0x00, 0x14, 0x00, 0x00, 0x00,
        0x12, 0x00, 0x00, 0x00, 0x00, 0x00, 0x00, 0x02, 0x14, 0x00, 0x00, 0x00,
        0x2c, 0xfb, 0xff, 0xff, 0x06, 0x00, 0x00, 0x00, 0x43, 0x6f, 0x6e, 0x73,
        0x74, 0x31, 0x00, 0x00, 0x00, 0x00, 0x00, 0x00, 0x16, 0xfc, 0xff, 0xff,
        0x00, 0x00, 0x00, 0x01, 0x14, 0x00, 0x00, 0x00, 0x14, 0x00, 0x00, 0x00,
        0x11, 0x00, 0x00, 0x00, 0x00, 0x00, 0x00, 0x02, 0x14, 0x00, 0x00, 0x00,
        0x5c, 0xfb, 0xff, 0xff, 0x07, 0x00, 0x00, 0x00, 0x43, 0x6f, 0x6e, 0x73,
        0x74, 0x5f, 0x32, 0x00, 0x00, 0x00, 0x00, 0x00, 0x46, 0xfc, 0xff, 0xff,
        0x00, 0x00, 0x00, 0x01, 0x14, 0x00, 0x00, 0x00, 0x14, 0x00, 0x00, 0x00,
        0x10, 0x00, 0x00, 0x00, 0x00, 0x00, 0x00, 0x02, 0x1c, 0x00, 0x00, 0x00,
        0x8c, 0xfb, 0xff, 0xff, 0x0d, 0x00, 0x00, 0x00, 0x52, 0x65, 0x73, 0x68,
        0x61, 0x70, 0x65, 0x2f, 0x73, 0x68, 0x61, 0x70, 0x65, 0x00, 0x00, 0x00,
        0x01, 0x00, 0x00, 0x00, 0x01, 0x00, 0x00, 0x00, 0x82, 0xfc, 0xff, 0xff,
        0x00, 0x00, 0x00, 0x01, 0x14, 0x00, 0x00, 0x00, 0x14, 0x00, 0x00, 0x00,
        0x0f, 0x00, 0x00, 0x00, 0x00, 0x00, 0x00, 0x02, 0x24, 0x00, 0x00, 0x00,
        0xc8, 0xfb, 0xff, 0xff, 0x17, 0x00, 0x00, 0x00, 0x63, 0x6c, 0x69, 0x70,
        0x5f, 0x62, 0x79, 0x5f, 0x76, 0x61, 0x6c, 0x75, 0x65, 0x2f, 0x4d, 0x69,
        0x6e, 0x69, 0x6d, 0x75, 0x6d, 0x2f, 0x79, 0x00, 0x00, 0x00, 0x00, 0x00,
        0xc2, 0xfc, 0xff, 0xff, 0x00, 0x00, 0x00, 0x01, 0x14, 0x00, 0x00, 0x00,
        0x14, 0x00, 0x00, 0x00, 0x0e, 0x00, 0x00, 0x00, 0x00, 0x00, 0x00, 0x07,
        0x28, 0x00, 0x00, 0x00, 0x08, 0xfc, 0xff, 0xff, 0x18, 0x00, 0x00, 0x00,
        0x73, 0x69, 0x67, 0x6e, 0x61, 0x6c, 0x5f, 0x66, 0x69, 0x6c, 0x74, 0x65,
        0x72, 0x5f, 0x62, 0x61, 0x6e, 0x6b, 0x2f, 0x43, 0x6f, 0x6e, 0x73, 0x74,
        0x00, 0x00, 0x00, 0x00, 0x01, 0x00, 0x00, 0x00, 0x3c, 0x01, 0x00, 0x00,
        0x0a, 0xfd, 0xff, 0xff, 0x00, 0x00, 0x00, 0x01, 0x14, 0x00, 0x00, 0x00,
        0x14, 0x00, 0x00, 0x00, 0x0d, 0x00, 0x00, 0x00, 0x00, 0x00, 0x00, 0x07,
        0x28, 0x00, 0x00, 0x00, 0x50, 0xfc, 0xff, 0xff, 0x1a, 0x00, 0x00, 0x00,
        0x73, 0x69, 0x67, 0x6e, 0x61, 0x6c, 0x5f, 0x66, 0x69, 0x6c, 0x74, 0x65,
        0x72, 0x5f, 0x62, 0x61, 0x6e, 0x6b, 0x2f, 0x43, 0x6f, 0x6e, 0x73, 0x74,
        0x5f, 0x31, 0x00, 0x00, 0x01, 0x00, 0x00, 0x00, 0x3c, 0x01, 0x00, 0x00,
        0x52, 0xfd, 0xff, 0xff, 0x00, 0x00, 0x00, 0x01, 0x14, 0x00, 0x00, 0x00,
        0x14, 0x00, 0x00, 0x00, 0x0c, 0x00, 0x00, 0x00, 0x00, 0x00, 0x00, 0x07,
        0x28, 0x00, 0x00, 0x00, 0x98, 0xfc, 0xff, 0xff, 0x1a, 0x00, 0x00, 0x00,
        0x73, 0x69, 0x67, 0x6e, 0x61, 0x6c, 0x5f, 0x66, 0x69, 0x6c, 0x74, 0x65,
        0x72, 0x5f, 0x62, 0x61, 0x6e, 0x6b, 0x2f, 0x43, 0x6f, 0x6e, 0x73, 0x74,
        0x5f, 0x32, 0x00, 0x00, 0x01, 0x00, 0x00, 0x00, 0x29, 0x00, 0x00, 0x00,
        0x9a, 0xfd, 0xff, 0xff, 0x00, 0x00, 0x00, 0x01, 0x14, 0x00, 0x00, 0x00,
        0x14, 0x00, 0x00, 0x00, 0x0b, 0x00, 0x00, 0x00, 0x00, 0x00, 0x00, 0x07,
        0x28, 0x00, 0x00, 0x00, 0xe0, 0xfc, 0xff, 0xff, 0x1a, 0x00, 0x00, 0x00,
        0x73, 0x69, 0x67, 0x6e, 0x61, 0x6c, 0x5f, 0x66, 0x69, 0x6c, 0x74, 0x65,
        0x72, 0x5f, 0x62, 0x61, 0x6e, 0x6b, 0x2f, 0x43, 0x6f, 0x6e, 0x73, 0x74,
        0x5f, 0x33, 0x00, 0x00, 0x01, 0x00, 0x00, 0x00, 0x29, 0x00, 0x00, 0x00,
        0xe2, 0xfd, 0xff, 0xff, 0x00, 0x00, 0x00, 0x01, 0x14, 0x00, 0x00, 0x00,
        0x14, 0x00, 0x00, 0x00, 0x0a, 0x00, 0x00, 0x00, 0x00, 0x00, 0x00, 0x07,
        0x28, 0x00, 0x00, 0x00, 0x28, 0xfd, 0xff, 0xff, 0x1a, 0x00, 0x00, 0x00,
        0x73, 0x69, 0x67, 0x6e, 0x61, 0x6c, 0x5f, 0x66, 0x69, 0x6c, 0x74, 0x65,
        0x72, 0x5f, 0x62, 0x61, 0x6e, 0x6b, 0x2f, 0x43, 0x6f, 0x6e, 0x73, 0x74,
        0x5f, 0x34, 0x00, 0x00, 0x01, 0x00, 0x00, 0x00, 0x29, 0x00, 0x00, 0x00,
        0x2a, 0xfe, 0xff, 0xff, 0x00, 0x00, 0x00, 0x01, 0x14, 0x00, 0x00, 0x00,
        0x14, 0x00, 0x00, 0x00, 0x09, 0x00, 0x00, 0x00, 0x00, 0x00, 0x00, 0x07,
        0x20, 0x00, 0x00, 0x00, 0x70, 0xfd, 0xff, 0xff, 0x11, 0x00, 0x00, 0x00,
        0x73, 0x69, 0x67, 0x6e, 0x61, 0x6c, 0x5f, 0x70, 0x63, 0x61, 0x6e, 0x2f,
        0x43, 0x6f, 0x6e, 0x73, 0x74, 0x00, 0x00, 0x00, 0x01, 0x00, 0x00, 0x00,
        0x7d, 0x00, 0x00, 0x00, 0x6a, 0xfe, 0xff, 0xff, 0x00, 0x00, 0x00, 0x01,
        0x14, 0x00, 0x00, 0x00, 0x14, 0x00, 0x00, 0x00, 0x08, 0x00, 0x00, 0x00,
        0x00, 0x00, 0x00, 0x02, 0x20, 0x00, 0x00, 0x00, 0xb0, 0xfd, 0xff, 0xff,
        0x13, 0x00, 0x00, 0x00, 0x73, 0x74, 0x72, 0x69, 0x64, 0x65, 0x64, 0x5f,
        0x73, 0x6c, 0x69, 0x63, 0x65, 0x2f, 0x73, 0x74, 0x61, 0x63, 0x6b, 0x00,
        0x01, 0x00, 0x00, 0x00, 0x01, 0x00, 0x00, 0x00, 0xaa, 0xfe, 0xff, 0xff,
        0x00, 0x00, 0x00, 0x01, 0x14, 0x00, 0x00, 0x00, 0x14, 0x00, 0x00, 0x00,
        0x07, 0x00, 0x00, 0x00, 0x00, 0x00, 0x00, 0x02, 0x24, 0x00, 0x00, 0x00,
        0xf0, 0xfd, 0xff, 0xff, 0x15, 0x00, 0x00, 0x00, 0x73, 0x74, 0x72, 0x69,
        0x64, 0x65, 0x64, 0x5f, 0x73, 0x6c, 0x69, 0x63, 0x65, 0x2f, 0x73, 0x74,
        0x61, 0x63, 0x6b, 0x5f, 0x31, 0x00, 0x00, 0x00, 0x01, 0x00, 0x00, 0x00,
        0x01, 0x00, 0x00, 0x00, 0xee, 0xfe, 0xff, 0xff, 0x00, 0x00, 0x00, 0x01,
        0x14, 0x00, 0x00, 0x00, 0x14, 0x00, 0x00, 0x00, 0x06, 0x00, 0x00, 0x00,
        0x00, 0x00, 0x00, 0x02, 0x24, 0x00, 0x00, 0x00, 0x34, 0xfe, 0xff, 0xff,
        0x15, 0x00, 0x00, 0x00, 0x73, 0x74, 0x72, 0x69, 0x64, 0x65, 0x64, 0x5f,
        0x73, 0x6c, 0x69, 0x63, 0x65, 0x2f, 0x73, 0x74, 0x61, 0x63, 0x6b, 0x5f,
        0x32, 0x00, 0x00, 0x00, 0x01, 0x00, 0x00, 0x00, 0x01, 0x00, 0x00, 0x00,
        0x32, 0xff, 0xff, 0xff, 0x00, 0x00, 0x00, 0x01, 0x14, 0x00, 0x00, 0x00,
        0x14, 0x00, 0x00, 0x00, 0x05, 0x00, 0x00, 0x00, 0x00, 0x00, 0x00, 0x02,
        0x14, 0x00, 0x00, 0x00, 0x78, 0xfe, 0xff, 0xff, 0x06, 0x00, 0x00, 0x00,
        0x43, 0x61, 0x73, 0x74, 0x5f, 0x33, 0x00, 0x00, 0x00, 0x00, 0x00, 0x00,
        0x62, 0xff, 0xff, 0xff, 0x00, 0x00, 0x00, 0x01, 0x14, 0x00, 0x00, 0x00,
        0x14, 0x00, 0x00, 0x00, 0x04, 0x00, 0x00, 0x00, 0x00, 0x00, 0x00, 0x02,
        0x14, 0x00, 0x00, 0x00, 0xa8, 0xfe, 0xff, 0xff, 0x05, 0x00, 0x00, 0x00,
        0x7a, 0x65, 0x72, 0x6f, 0x73, 0x00, 0x00, 0x00, 0x01, 0x00, 0x00, 0x00,
        0x05, 0x00, 0x00, 0x00, 0x96, 0xff, 0xff, 0xff, 0x00, 0x00, 0x00, 0x01,
        0x14, 0x00, 0x00, 0x00, 0x14, 0x00, 0x00, 0x00, 0x03, 0x00, 0x00, 0x00,
        0x00, 0x00, 0x00, 0x02, 0x14, 0x00, 0x00, 0x00, 0xdc, 0xfe, 0xff, 0xff,
        0x07, 0x00, 0x00, 0x00, 0x7a, 0x65, 0x72, 0x6f, 0x73, 0x5f, 0x31, 0x00,
        0x01, 0x00, 0x00, 0x00, 0x10, 0x00, 0x00, 0x00, 0xca, 0xff, 0xff, 0xff,
        0x00, 0x00, 0x00, 0x01, 0x14, 0x00, 0x00, 0x00, 0x14, 0x00, 0x00, 0x00,
        0x02, 0x00, 0x00, 0x00, 0x00, 0x00, 0x00, 0x07, 0x14, 0x00, 0x00, 0x00,
        0x10, 0xff, 0xff, 0xff, 0x05, 0x00, 0x00, 0x00, 0x43, 0x6f, 0x6e, 0x73,
        0x74, 0x00, 0x00, 0x00, 0x01, 0x00, 0x00, 0x00, 0xe0, 0x01, 0x00, 0x00,
        0x00, 0x00, 0x16, 0x00, 0x1c, 0x00, 0x18, 0x00, 0x17, 0x00, 0x10, 0x00,
        0x0c, 0x00, 0x08, 0x00, 0x00, 0x00, 0x00, 0x00, 0x00, 0x00, 0x07, 0x00,
        0x16, 0x00, 0x00, 0x00, 0x00, 0x00, 0x00, 0x01, 0x14, 0x00, 0x00, 0x00,
        0x14, 0x00, 0x00, 0x00, 0x01, 0x00, 0x00, 0x00, 0x00, 0x00, 0x00, 0x07,
        0x2c, 0x00, 0x00, 0x00, 0x5c, 0xff, 0xff, 0xff, 0x1d, 0x00, 0x00, 0x00,
        0x73, 0x65, 0x72, 0x76, 0x69, 0x6e, 0x67, 0x5f, 0x64, 0x65, 0x66, 0x61,
        0x75, 0x6c, 0x74, 0x5f, 0x61, 0x75, 0x64, 0x69, 0x6f, 0x5f, 0x66, 0x72,
        0x61, 0x6d, 0x65, 0x3a, 0x30, 0x00, 0x00, 0x00, 0x02, 0x00, 0x00, 0x00,
        0x01, 0x00, 0x00, 0x00, 0xe0, 0x01, 0x00, 0x00, 0x12, 0x00, 0x00, 0x00,
        0x1c, 0x02, 0x00, 0x00, 0x00, 0x02, 0x00, 0x00, 0xc8, 0x01, 0x00, 0x00,
        0xa4, 0x01, 0x00, 0x00, 0x7c, 0x01, 0x00, 0x00, 0x68, 0x01, 0x00, 0x00,
        0x4c, 0x01, 0x00, 0x00, 0x3c, 0x01, 0x00, 0x00, 0x10, 0x01, 0x00, 0x00,
        0xdc, 0x00, 0x00, 0x00, 0xa0, 0x00, 0x00, 0x00, 0x7c, 0x00, 0x00, 0x00,
        0x50, 0x00, 0x00, 0x00, 0x40, 0x00, 0x00, 0x00, 0x38, 0x00, 0x00, 0x00,
        0x24, 0x00, 0x00, 0x00, 0x14, 0x00, 0x00, 0x00, 0x04, 0x00, 0x00, 0x00,
        0x50, 0xfe, 0xff, 0xff, 0x37, 0x00, 0x00, 0x00, 0x00, 0x00, 0x00, 0x37,
        0x5c, 0xfe, 0xff, 0xff, 0x39, 0x00, 0x00, 0x00, 0x00, 0x00, 0x00, 0x39,
        0x68, 0xfe, 0xff, 0xff, 0x2a, 0x00, 0x00, 0x00, 0x00, 0x00, 0x00, 0x2a,
        0x04, 0x00, 0x04, 0x00, 0x04, 0x00, 0x00, 0x00, 0x7c, 0xfe, 0xff, 0xff,
        0x12, 0x00, 0x00, 0x00, 0x00, 0x00, 0x00, 0x12, 0x70, 0xfe, 0xff, 0xff,
        0x20, 0x00, 0x00, 0x00, 0x08, 0x00, 0x00, 0x00, 0x00, 0x00, 0x00, 0x20,
        0x13, 0x00, 0x00, 0x00, 0x53, 0x69, 0x67, 0x6e, 0x61, 0x6c, 0x46, 0x69,
        0x6c, 0x74, 0x65, 0x72, 0x42, 0x61, 0x6e, 0x6b, 0x4c, 0x6f, 0x67, 0x00,
        0x98, 0xfe, 0xff, 0xff, 0x20, 0x00, 0x00, 0x00, 0x08, 0x00, 0x00, 0x00,
        0x00, 0x00, 0x00, 0x20, 0x0a, 0x00, 0x00, 0x00, 0x53, 0x69, 0x67, 0x6e,
        0x61, 0x6c, 0x50, 0x43, 0x41, 0x4e, 0x00, 0x00, 0xb8, 0xfe, 0xff, 0xff,
        0x20, 0x00, 0x00, 0x00, 0x08, 0x00, 0x00, 0x00, 0x00, 0x00, 0x00, 0x20,
        0x23, 0x00, 0x00, 0x00, 0x53, 0x69, 0x67, 0x6e, 0x61, 0x6c, 0x46, 0x69,
        0x6c, 0x74, 0x65, 0x72, 0x42, 0x61, 0x6e, 0x6b, 0x53, 0x70, 0x65, 0x63,
        0x74, 0x72, 0x61, 0x6c, 0x53, 0x75, 0x62, 0x74, 0x72, 0x61, 0x63, 0x74,
        0x69, 0x6f, 0x6e, 0x00, 0xf0, 0xfe, 0xff, 0xff, 0x20, 0x00, 0x00, 0x00,
        0x08, 0x00, 0x00, 0x00, 0x00, 0x00, 0x00, 0x20, 0x1a, 0x00, 0x00, 0x00,
        0x53, 0x69, 0x67, 0x6e, 0x61, 0x6c, 0x46, 0x69, 0x6c, 0x74, 0x65, 0x72,
        0x42, 0x61, 0x6e, 0x6b, 0x53, 0x71, 0x75, 0x61, 0x72, 0x65, 0x52, 0x6f,
        0x6f, 0x74, 0x00, 0x00, 0x20, 0xff, 0xff, 0xff, 0x20, 0x00, 0x00, 0x00,
        0x08, 0x00, 0x00, 0x00, 0x00, 0x00, 0x00, 0x20, 0x10, 0x00, 0x00, 0x00,
        0x53, 0x69, 0x67, 0x6e, 0x61, 0x6c, 0x46, 0x69, 0x6c, 0x74, 0x65, 0x72,
        0x42, 0x61, 0x6e, 0x6b, 0x00, 0x00, 0x00, 0x00, 0x60, 0xff, 0xff, 0xff,
        0x02, 0x00, 0x00, 0x00, 0x00, 0x00, 0x00, 0x02, 0x6c, 0xff, 0xff, 0xff,
        0x2d, 0x00, 0x00, 0x00, 0x00, 0x00, 0x00, 0x2d, 0x0c, 0x00, 0x10, 0x00,
        0x0f, 0x00, 0x00, 0x00, 0x08, 0x00, 0x04, 0x00, 0x0c, 0x00, 0x00, 0x00,
        0x35, 0x00, 0x00, 0x00, 0x03, 0x00, 0x00, 0x00, 0x00, 0x00, 0x00, 0x35,
        0x7c, 0xff, 0xff, 0xff, 0x20, 0x00, 0x00, 0x00, 0x08, 0x00, 0x00, 0x00,
        0x00, 0x00, 0x00, 0x20, 0x0c, 0x00, 0x00, 0x00, 0x53, 0x69, 0x67, 0x6e,
        0x61, 0x6c, 0x45, 0x6e, 0x65, 0x72, 0x67, 0x79, 0x00, 0x00, 0x00, 0x00,
        0xa0, 0xff, 0xff, 0xff, 0x20, 0x00, 0x00, 0x00, 0x08, 0x00, 0x00, 0x00,
        0x00, 0x00, 0x00, 0x20, 0x0a, 0x00, 0x00, 0x00, 0x53, 0x69, 0x67, 0x6e,
        0x61, 0x6c, 0x52, 0x66, 0x66, 0x74, 0x00, 0x00, 0xc0, 0xff, 0xff, 0xff,
        0x20, 0x00, 0x00, 0x00, 0x08, 0x00, 0x00, 0x00, 0x00, 0x00, 0x00, 0x20,
        0x12, 0x00, 0x00, 0x00, 0x53, 0x69, 0x67, 0x6e, 0x61, 0x6c, 0x46, 0x66,
        0x74, 0x41, 0x75, 0x74, 0x6f, 0x53, 0x63, 0x61, 0x6c, 0x65, 0x00, 0x00,
        0x0c, 0x00, 0x0c, 0x00, 0x0b, 0x00, 0x00, 0x00, 0x00, 0x00, 0x04, 0x00,
        0x0c, 0x00, 0x00, 0x00, 0x16, 0x00, 0x00, 0x00, 0x00, 0x00, 0x00, 0x16,
        0x0c, 0x00, 0x10, 0x00, 0x0f, 0x00, 0x08, 0x00, 0x00, 0x00, 0x04, 0x00,
        0x0c, 0x00, 0x00, 0x00, 0x20, 0x00, 0x00, 0x00, 0x08, 0x00, 0x00, 0x00,
        0x00, 0x00, 0x00, 0x20, 0x0c, 0x00, 0x00, 0x00, 0x53, 0x69, 0x67, 0x6e,
        0x61, 0x6c, 0x57, 0x69, 0x6e, 0x64, 0x6f, 0x77, 0x00, 0x00, 0x00, 0x00
};

const unsigned int g_audio_preprocessor_int8_model_len = 8772;
